{
  "version": "1.0",
  "truncation": null,
  "padding": null,
  "added_tokens": [
    {
      "id": 0,
      "content": "[PAD]",
      "single_word": false,
      "lstrip": false,
      "rstrip": false,
      "normalized": false,
      "special": true
    },
    {
      "id": 1,
      "content": "[UNK]",
      "single_word": false,
      "lstrip": false,
      "rstrip": false,
      "normalized": false,
      "special": true
    },
    {
      "id": 2,
      "content": "[CLS]",
      "single_word": false,
      "lstrip": false,
      "rstrip": false,
      "normalized": false,
      "special": true
    },
    {
      "id": 3,
      "content": "[SEP]",
      "single_word": false,
      "lstrip": false,
      "rstrip": false,
      "normalized": false,
      "special": true
    },
    {
      "id": 4,
      "content": "[MASK]",
      "single_word": false,
      "lstrip": false,
      "rstrip": false,
      "normalized": false,
      "special": true
    },
    {
      "id": 5,
      "content": "<claim>",
      "single_word": false,
      "lstrip": false,
      "rstrip": false,
      "normalized": false,
      "special": true
    },
    {
      "id": 6,
      "content": "<location>",
      "single_word": false,
      "lstrip": false,
      "rstrip": false,
      "normalized": false,
      "special": true
    },
    {
      "id": 7,
      "content": "<incident_type>",
      "single_word": false,
      "lstrip": false,
      "rstrip": false,
      "normalized": false,
      "special": true
    },
    {
      "id": 8,
      "content": "<label>",
      "single_word": false,
      "lstrip": false,
      "rstrip": false,
      "normalized": false,
      "special": true
    },
    {
      "id": 9,
      "content": "<fraud_indicators>",
      "single_word": false,
      "lstrip": false,
      "rstrip": false,
      "normalized": false,
      "special": true
    },
    {
      "id": 10,
      "content": "<statement>",
      "single_word": false,
      "lstrip": false,
      "rstrip": false,
      "normalized": false,
      "special": true
    },
    {
      "id": 11,
      "content": "<insured_driver>",
      "single_word": false,
      "lstrip": false,
      "rstrip": false,
      "normalized": false,
      "special": true
    },
    {
      "id": 12,
      "content": "<third_party_driver>",
      "single_word": false,
      "lstrip": false,
      "rstrip": false,
      "normalized": false,
      "special": true
    },
    {
      "id": 13,
      "content": "<insurance_adjuster>",
      "single_word": false,
      "lstrip": false,
      "rstrip": false,
      "normalized": false,
      "special": true
    },
    {
      "id": 14,
      "content": "<witness>",
      "single_word": false,
      "lstrip": false,
      "rstrip": false,
      "normalized": false,
      "special": true
    },
    {
      "id": 15,
      "content": "<police_report>",
      "single_word": false,
      "lstrip": false,
      "rstrip": false,
      "normalized": false,
      "special": true
    },
    {
      "id": 16,
      "content": "<expert_report>",
      "single_word": false,
      "lstrip": false,
      "rstrip": false,
      "normalized": false,
      "special": true
    },
    {
      "id": 17,
      "content": "<vehicle>",
      "single_word": false,
      "lstrip": false,
      "rstrip": false,
      "normalized": false,
      "special": true
    },
    {
      "id": 18,
      "content": "<speed>",
      "single_word": false,
      "lstrip": false,
      "rstrip": false,
      "normalized": false,
      "special": true
    },
    {
      "id": 19,
      "content": "<none>",
      "single_word": false,
      "lstrip": false,
      "rstrip": false,
      "normalized": false,
      "special": true
    },
    {
      "id": 20,
      "content": "<sep_stmt>",
      "single_word": false,
      "lstrip": false,
      "rstrip": false,
      "normalized": false,
      "special": true
    }
  ],
  "normalizer": {
    "type": "Sequence",
    "normalizers": [
      {
        "type": "NFKC"
      }
    ]
  },
  "pre_tokenizer": {
    "type": "Sequence",
    "pretokenizers": [
      {
        "type": "Whitespace"
      },
      {
        "type": "Punctuation",
        "behavior": "Isolated"
      }
    ]
  },
  "post_processor": {
    "type": "TemplateProcessing",
    "single": [
      {
        "Sequence": {
          "id": "A",
          "type_id": 0
        }
      }
    ],
    "pair": [
      {
        "Sequence": {
          "id": "A",
          "type_id": 0
        }
      },
      {
        "Sequence": {
          "id": "B",
          "type_id": 1
        }
      }
    ],
    "special_tokens": {}
  },
  "decoder": null,
  "model": {
    "type": "BPE",
    "dropout": null,
    "unk_token": "[UNK]",
    "continuing_subword_prefix": null,
    "end_of_word_suffix": null,
    "fuse_unk": false,
    "byte_fallback": false,
    "ignore_merges": false,
    "vocab": {
      "[PAD]": 0,
      "[UNK]": 1,
      "[CLS]": 2,
      "[SEP]": 3,
      "[MASK]": 4,
      "<claim>": 5,
      "<location>": 6,
      "<incident_type>": 7,
      "<label>": 8,
      "<fraud_indicators>": 9,
      "<statement>": 10,
      "<insured_driver>": 11,
      "<third_party_driver>": 12,
      "<insurance_adjuster>": 13,
      "<witness>": 14,
      "<police_report>": 15,
      "<expert_report>": 16,
      "<vehicle>": 17,
      "<speed>": 18,
      "<none>": 19,
      "<sep_stmt>": 20,
      "!": 21,
      "\"": 22,
      "%": 23,
      "&": 24,
      "'": 25,
      "(": 26,
      ")": 27,
      "*": 28,
      ",": 29,
      "-": 30,
      ".": 31,
      "/": 32,
      "0": 33,
      "1": 34,
      "2": 35,
      "3": 36,
      "4": 37,
      "5": 38,
      "6": 39,
      "7": 40,
      "8": 41,
      "9": 42,
      ":": 43,
      ";": 44,
      "<": 45,
      ">": 46,
      "?": 47,
      "A": 48,
      "B": 49,
      "C": 50,
      "D": 51,
      "E": 52,
      "F": 53,
      "G": 54,
      "H": 55,
      "I": 56,
      "J": 57,
      "K": 58,
      "L": 59,
      "M": 60,
      "N": 61,
      "O": 62,
      "P": 63,
      "Q": 64,
      "R": 65,
      "S": 66,
      "T": 67,
      "U": 68,
      "V": 69,
      "W": 70,
      "X": 71,
      "Y": 72,
      "Z": 73,
      "_": 74,
      "a": 75,
      "b": 76,
      "c": 77,
      "d": 78,
      "e": 79,
      "f": 80,
      "g": 81,
      "h": 82,
      "i": 83,
      "j": 84,
      "k": 85,
      "l": 86,
      "m": 87,
      "n": 88,
      "o": 89,
      "p": 90,
      "q": 91,
      "r": 92,
      "s": 93,
      "t": 94,
      "u": 95,
      "v": 96,
      "w": 97,
      "x": 98,
      "y": 99,
      "z": 100,
      "Á": 101,
      "Ã": 102,
      "Ç": 103,
      "É": 104,
      "Ê": 105,
      "Ë": 106,
      "Í": 107,
      "Õ": 108,
      "Ú": 109,
      "à": 110,
      "á": 111,
      "â": 112,
      "ã": 113,
      "ç": 114,
      "é": 115,
      "ê": 116,
      "ë": 117,
      "í": 118,
      "ó": 119,
      "ô": 120,
      "õ": 121,
      "ú": 122,
      "–": 123,
      "—": 124,
      "’": 125,
      "in": 126,
      "he": 127,
      "en": 128,
      "the": 129,
      "st": 130,
      "er": 131,
      "ed": 132,
      "on": 133,
      "at": 134,
      "an": 135,
      "ar": 136,
      "ent": 137,
      "as": 138,
      "hi": 139,
      "ing": 140,
      "le": 141,
      "id": 142,
      "to": 143,
      "re": 144,
      "ri": 145,
      "or": 146,
      "ve": 147,
      "ver": 148,
      "was": 149,
      "se": 150,
      "it": 151,
      "is": 152,
      "ly": 153,
      "and": 154,
      "ac": 155,
      "ou": 156,
      "la": 157,
      "al": 158,
      "im": 159,
      "dri": 160,
      "cle": 161,
      "ion": 162,
      "ra": 163,
      "hicle": 164,
      "vehicle": 165,
      "be": 166,
      "su": 167,
      "ro": 168,
      "my": 169,
      "pe": 170,
      "ate": 171,
      "driver": 172,
      "lo": 173,
      "cid": 174,
      "ic": 175,
      "ment": 176,
      "cident": 177,
      "bu": 178,
      "da": 179,
      "of": 180,
      "state": 181,
      "statement": 182,
      "sep": 183,
      "mt": 184,
      "stmt": 185,
      "gh": 186,
      "ty": 187,
      "ad": 188,
      "ch": 189,
      "mp": 190,
      "00": 191,
      "ol": 192,
      "es": 193,
      "ation": 194,
      "me": 195,
      "out": 196,
      "ot": 197,
      "The": 198,
      "de": 199,
      "sur": 200,
      "par": 201,
      "laim": 202,
      "li": 203,
      "insur": 204,
      "car": 205,
      "ag": 206,
      "ght": 207,
      "thi": 208,
      "act": 209,
      "for": 210,
      "claim": 211,
      "20": 212,
      "incident": 213,
      "sc": 214,
      "ont": 215,
      "ide": 216,
      "loc": 217,
      "26": 218,
      "ud": 219,
      "ust": 220,
      "insured": 221,
      "ter": 222,
      "but": 223,
      "PT": 224,
      "location": 225,
      "ind": 226,
      "th": 227,
      "2026": 228,
      "type": 229,
      "bel": 230,
      "label": 231,
      "ul": 232,
      "ane": 233,
      "ow": 234,
      "ir": 235,
      "It": 236,
      "side": 237,
      "pp": 238,
      "ca": 239,
      "ct": 240,
      "rat": 241,
      "wit": 242,
      "accident": 243,
      "ce": 244,
      "ne": 245,
      "il": 246,
      "just": 247,
      "ass": 248,
      "ab": 249,
      "ge": 250,
      "dent": 251,
      "ine": 252,
      "ard": 253,
      "av": 254,
      "qu": 255,
      "co": 256,
      "king": 257,
      "un": 258,
      "oll": 259,
      "sh": 260,
      "enu": 261,
      "te": 262,
      "scrat": 263,
      "ke": 264,
      "do": 265,
      "genu": 266,
      "genuine": 267,
      "ven": 268,
      "bump": 269,
      "ist": 270,
      "el": 271,
      "ur": 272,
      "coll": 273,
      "spe": 274,
      "very": 275,
      "fra": 276,
      "this": 277,
      "cau": 278,
      "fr": 279,
      "so": 280,
      "one": 281,
      "ex": 282,
      "whe": 283,
      "fic": 284,
      "ision": 285,
      "ha": 286,
      "fraud": 287,
      "collision": 288,
      "ving": 289,
      "imp": 290,
      "with": 291,
      "bumper": 292,
      "ther": 293,
      "ta": 294,
      "front": 295,
      "si": 296,
      "speed": 297,
      "into": 298,
      "sto": 299,
      "GO": 300,
      "am": 301,
      "oun": 302,
      "OD": 303,
      "scratch": 304,
      "GOOD": 305,
      "ite": 306,
      "rear": 307,
      "ida": 308,
      "rom": 309,
      "Aven": 310,
      "Avenida": 311,
      "party": 312,
      "sp": 313,
      "rd": 314,
      "light": 315,
      "other": 316,
      "from": 317,
      "third": 318,
      "impact": 319,
      "ked": 320,
      "sa": 321,
      "when": 322,
      "lane": 323,
      "My": 324,
      "ally": 325,
      "sw": 326,
      "mo": 327,
      "ong": 328,
      "hit": 329,
      "ho": 330,
      "fe": 331,
      "end": 332,
      "about": 333,
      "che": 334,
      "pa": 335,
      "ru": 336,
      "did": 337,
      "not": 338,
      "ess": 339,
      "low": 340,
      "dam": 341,
      "damag": 342,
      "med": 343,
      "ffic": 344,
      "pped": 345,
      "tra": 346,
      "driving": 347,
      "ance": 348,
      "bra": 349,
      "ken": 350,
      "whi": 351,
      "sed": 352,
      "mis": 353,
      "quite": 354,
      "cont": 355,
      "con": 356,
      "have": 357,
      "ors": 358,
      "near": 359,
      "now": 360,
      "lamp": 361,
      "no": 362,
      "per": 363,
      "didn": 364,
      "had": 365,
      "sing": 366,
      "ack": 367,
      "pro": 368,
      "wa": 369,
      "ger": 370,
      "ti": 371,
      "all": 372,
      "000": 373,
      "lass": 374,
      "Lis": 375,
      "Lisb": 376,
      "icat": 377,
      "contact": 378,
      "Lisbon": 379,
      "indicat": 380,
      "den": 381,
      "ful": 382,
      "bro": 383,
      "their": 384,
      "traffic": 385,
      "gn": 386,
      "right": 387,
      "ction": 388,
      "that": 389,
      "ough": 390,
      "see": 391,
      "ft": 392,
      "tim": 393,
      "are": 394,
      "ble": 395,
      "beh": 396,
      "by": 397,
      "up": 398,
      "ma": 399,
      "hard": 400,
      "door": 401,
      "Por": 402,
      "behind": 403,
      "ear": 404,
      "tr": 405,
      "broken": 406,
      "head": 407,
      "his": 408,
      "atter": 409,
      "clear": 410,
      "ck": 411,
      "et": 412,
      "ately": 413,
      "road": 414,
      "ista": 415,
      "wor": 416,
      "sign": 417,
      "indicators": 418,
      "cause": 419,
      "ep": 420,
      "Porto": 421,
      "ried": 422,
      "damage": 423,
      "fa": 424,
      "there": 425,
      "stre": 426,
      "shatter": 427,
      "comp": 428,
      "time": 429,
      "ying": 430,
      "stop": 431,
      "scra": 432,
      "IX": 433,
      "chan": 434,
      "ph": 435,
      "because": 436,
      "bout": 437,
      "MIX": 438,
      "dabout": 439,
      "oundabout": 440,
      "MIXD": 441,
      "ant": 442,
      "Ru": 443,
      "Rua": 444,
      "dden": 445,
      "pass": 446,
      "along": 447,
      "dist": 448,
      "really": 449,
      "sudden": 450,
      "tur": 451,
      "There": 452,
      "ld": 453,
      "left": 454,
      "ting": 455,
      "bl": 456,
      "po": 457,
      "saw": 458,
      "we": 459,
      "ult": 460,
      "own": 461,
      "turn": 462,
      "001": 463,
      "glass": 464,
      "ved": 465,
      "medi": 466,
      "ill": 467,
      "section": 468,
      "ness": 469,
      "immedi": 470,
      "tersection": 471,
      "ted": 472,
      "ould": 473,
      "ss": 474,
      "stopped": 475,
      "ged": 476,
      "km": 477,
      "feel": 478,
      "kmh": 479,
      "cr": 480,
      "way": 481,
      "ound": 482,
      "ity": 483,
      "ace": 484,
      "caused": 485,
      "Bo": 486,
      "go": 487,
      "insurance": 488,
      "ped": 489,
      "enger": 490,
      "witness": 491,
      "comple": 492,
      "passenger": 493,
      "avista": 494,
      "Boavista": 495,
      "immediately": 496,
      "complete": 497,
      "too": 498,
      "Vol": 499,
      "ward": 500,
      "suddenly": 501,
      "ere": 502,
      "van": 503,
      "iz": 504,
      "orn": 505,
      "loo": 506,
      "like": 507,
      "pane": 508,
      "panel": 509,
      "fo": 510,
      "repa": 511,
      "ated": 512,
      "Rear": 513,
      "spot": 514,
      "trying": 515,
      "od": 516,
      "ire": 517,
      "while": 518,
      "has": 519,
      "roundabout": 520,
      "over": 521,
      "cu": 522,
      "repair": 523,
      "parti": 524,
      "tail": 525,
      "Fi": 526,
      "tom": 527,
      "street": 528,
      "mir": 529,
      "none": 530,
      "without": 531,
      "ive": 532,
      "imparti": 533,
      "impartial": 534,
      "oid": 535,
      "avoid": 536,
      "slow": 537,
      "they": 538,
      "long": 539,
      "antom": 540,
      "mirr": 541,
      "down": 542,
      "We": 543,
      "ced": 544,
      "aged": 545,
      "ull": 546,
      "some": 547,
      "chec": 548,
      "ain": 549,
      "parking": 550,
      "get": 551,
      "pull": 552,
      "TH": 553,
      "est": 554,
      "int": 555,
      "back": 556,
      "tried": 557,
      "ade": 558,
      "change": 559,
      "uge": 560,
      "were": 561,
      "clearly": 562,
      "you": 563,
      "enter": 564,
      "cted": 565,
      "day": 566,
      "completely": 567,
      "pre": 568,
      "ific": 569,
      "sm": 570,
      "ice": 571,
      "For": 572,
      "vis": 573,
      "onest": 574,
      "af": 575,
      "deep": 576,
      "gre": 577,
      "cli": 578,
      "avi": 579,
      "ick": 580,
      "scratche": 581,
      "swer": 582,
      "Par": 583,
      "know": 584,
      "made": 585,
      "exit": 586,
      "work": 587,
      "pt": 588,
      "min": 589,
      "enough": 590,
      "BM": 591,
      "stra": 592,
      "BMW": 593,
      "unda": 594,
      "any": 595,
      "honest": 596,
      "wind": 597,
      "could": 598,
      "atch": 599,
      "happ": 600,
      "thing": 601,
      "phantom": 602,
      "ipe": 603,
      "who": 604,
      "Co": 605,
      "ib": 606,
      "sit": 607,
      "jud": 608,
      "ena": 609,
      "002": 610,
      "which": 611,
      "Parking": 612,
      "Rena": 613,
      "able": 614,
      "Renault": 615,
      "IS": 616,
      "agen": 617,
      "mb": 618,
      "ating": 619,
      "Pe": 620,
      "ksw": 621,
      "ous": 622,
      "Volksw": 623,
      "Volkswagen": 624,
      "30": 625,
      "happen": 626,
      "udi": 627,
      "distance": 628,
      "intersection": 629,
      "Audi": 630,
      "sive": 631,
      "Mer": 632,
      "man": 633,
      "scratches": 634,
      "ugeot": 635,
      "Peugeot": 636,
      "parked": 637,
      "been": 638,
      "scrape": 639,
      "Fiat": 640,
      "after": 641,
      "rough": 642,
      "Se": 643,
      "pl": 644,
      "Seat": 645,
      "To": 646,
      "need": 647,
      "cedes": 648,
      "Mercedes": 649,
      "through": 650,
      "mer": 651,
      "app": 652,
      "hed": 653,
      "ste": 654,
      "In": 655,
      "ady": 656,
      "fel": 657,
      "Ford": 658,
      "cond": 659,
      "off": 660,
      "small": 661,
      "detail": 662,
      "wal": 663,
      "minor": 664,
      "kes": 665,
      "com": 666,
      "red": 667,
      "fore": 668,
      "signific": 669,
      "significant": 670,
      "shattered": 671,
      "toward": 672,
      "cy": 673,
      "staged": 674,
      "terri": 675,
      "felt": 676,
      "moving": 677,
      "ue": 678,
      "ED": 679,
      "signal": 680,
      "before": 681,
      "ort": 682,
      "ruck": 683,
      "misjud": 684,
      "agger": 685,
      "cro": 686,
      "crack": 687,
      "IN": 688,
      "25": 689,
      "brake": 690,
      "cess": 691,
      "deli": 692,
      "notice": 693,
      "brakes": 694,
      "entire": 695,
      "worried": 696,
      "fast": 697,
      "ies": 698,
      "yot": 699,
      "Toyot": 700,
      "Toyota": 701,
      "full": 702,
      "AN": 703,
      "around": 704,
      "misjudged": 705,
      "nar": 706,
      "wait": 707,
      "mirror": 708,
      "ready": 709,
      "ash": 710,
      "tected": 711,
      "match": 712,
      "oth": 713,
      "swipe": 714,
      "going": 715,
      "exagger": 716,
      "detected": 717,
      "Rot": 718,
      "Rotunda": 719,
      "happened": 720,
      "honestly": 721,
      "Cit": 722,
      "sic": 723,
      "Citro": 724,
      "EN": 725,
      "whole": 726,
      "quick": 727,
      "Me": 728,
      "our": 729,
      "sha": 730,
      "details": 731,
      "mane": 732,
      "uver": 733,
      "maneuver": 734,
      "cost": 735,
      "ender": 736,
      "ast": 737,
      "heard": 738,
      "again": 739,
      "damages": 740,
      "Estra": 741,
      "Estrada": 742,
      "eries": 743,
      "space": 744,
      "such": 745,
      "oft": 746,
      "Side": 747,
      "ai": 748,
      "os": 749,
      "delivery": 750,
      "sul": 751,
      "terrible": 752,
      "row": 753,
      "olf": 754,
      "Golf": 755,
      "def": 756,
      "blind": 757,
      "checked": 758,
      "resul": 759,
      "exaggeration": 760,
      "bit": 761,
      "ible": 762,
      "avy": 763,
      "against": 764,
      "bus": 765,
      "ER": 766,
      "ahead": 767,
      "soft": 768,
      "every": 769,
      "conc": 770,
      "orning": 771,
      "morning": 772,
      "temp": 773,
      "heavy": 774,
      "paint": 775,
      "avig": 776,
      "Claim": 777,
      "ence": 778,
      "mismatch": 779,
      "waiting": 780,
      "attemp": 781,
      "ctly": 782,
      "He": 783,
      "care": 784,
      "even": 785,
      "cur": 786,
      "navig": 787,
      "ug": 788,
      "visible": 789,
      "mu": 790,
      "ract": 791,
      "acce": 792,
      "both": 793,
      "corn": 794,
      "already": 795,
      "pulled": 796,
      "corner": 797,
      "rever": 798,
      "Mar": 799,
      "truck": 800,
      "10": 801,
      "tal": 802,
      "nex": 803,
      "quickly": 804,
      "Series": 805,
      "io": 806,
      "ysic": 807,
      "ility": 808,
      "process": 809,
      "safe": 810,
      "Intersection": 811,
      "fender": 812,
      "still": 813,
      "eld": 814,
      "rain": 815,
      "turned": 816,
      "appro": 817,
      "narrow": 818,
      "fi": 819,
      "tain": 820,
      "biz": 821,
      "second": 822,
      "slowly": 823,
      "cal": 824,
      "distract": 825,
      "swerved": 826,
      "500": 827,
      "AT": 828,
      "Cor": 829,
      "Ibiz": 830,
      "Ibiza": 831,
      "can": 832,
      "ica": 833,
      "sho": 834,
      "park": 835,
      "rian": 836,
      "ach": 837,
      "estrian": 838,
      "Rep": 839,
      "san": 840,
      "blica": 841,
      "This": 842,
      "rid": 843,
      "couldn": 844,
      "lan": 845,
      "AND": 846,
      "ping": 847,
      "Nis": 848,
      "Nissan": 849,
      "distracted": 850,
      "got": 851,
      "them": 852,
      "mista": 853,
      "tight": 854,
      "main": 855,
      "inite": 856,
      "react": 857,
      "pedestrian": 858,
      "gane": 859,
      "ight": 860,
      "shaken": 861,
      "Class": 862,
      "how": 863,
      "headlight": 864,
      "clipped": 865,
      "initely": 866,
      "Po": 867,
      "lam": 868,
      "looking": 869,
      "ap": 870,
      "Claimed": 871,
      "24": 872,
      "center": 873,
      "Low": 874,
      "fault": 875,
      "definitely": 876,
      "Cas": 877,
      "mistake": 878,
      "mar": 879,
      "causing": 880,
      "cros": 881,
      "ling": 882,
      "They": 883,
      "C3": 884,
      "Pra": 885,
      "coming": 886,
      "slam": 887,
      "Megane": 888,
      "port": 889,
      "ça": 890,
      "AS": 891,
      "ious": 892,
      "want": 893,
      "navigating": 894,
      "shi": 895,
      "40": 896,
      "ën": 897,
      "looked": 898,
      "THE": 899,
      "Citroën": 900,
      "lit": 901,
      "uring": 902,
      "sure": 903,
      "lanes": 904,
      "Yar": 905,
      "ought": 906,
      "pel": 907,
      "window": 908,
      "Yaris": 909,
      "age": 910,
      "fully": 911,
      "apo": 912,
      "oper": 913,
      "ública": 914,
      "wasn": 915,
      "came": 916,
      "República": 917,
      "apolo": 918,
      "Opel": 919,
      "fir": 920,
      "ysics": 921,
      "where": 922,
      "during": 923,
      "ina": 924,
      "MY": 925,
      "sor": 926,
      "than": 927,
      "Praça": 928,
      "San": 929,
      "walking": 930,
      "ev": 931,
      "ensive": 932,
      "Roundabout": 933,
      "led": 934,
      "sol": 935,
      "ssed": 936,
      "us": 937,
      "usta": 938,
      "take": 939,
      "Aug": 940,
      "Augusta": 941,
      "only": 942,
      "ceed": 943,
      "noticeable": 944,
      "Santa": 945,
      "gu": 946,
      "cul": 947,
      "ON": 948,
      "fail": 949,
      "ized": 950,
      "green": 951,
      "ia": 952,
      "thought": 953,
      "rete": 954,
      "may": 955,
      "concrete": 956,
      "slammed": 957,
      "slight": 958,
      "208": 959,
      "scraped": 960,
      "AR": 961,
      "missing": 962,
      "Cat": 963,
      "vo": 964,
      "here": 965,
      "arina": 966,
      "tor": 967,
      "Catarina": 968,
      "Al": 969,
      "last": 970,
      "proceed": 971,
      "ross": 972,
      "thin": 973,
      "cover": 974,
      "checking": 975,
      "across": 976,
      "cais": 977,
      "Cascais": 978,
      "ob": 979,
      "ional": 980,
      "maybe": 981,
      "ler": 982,
      "rupt": 983,
      "crossing": 984,
      "um": 985,
      "hope": 986,
      "Corsa": 987,
      "bi": 988,
      "noon": 989,
      "An": 990,
      "due": 991,
      "year": 992,
      "then": 993,
      "tou": 994,
      "never": 995,
      "scraping": 996,
      "star": 997,
      "him": 998,
      "abrupt": 999,
      "hand": 1000,
      "uation": 1001,
      "will": 1002,
      "set": 1003,
      "proper": 1004,
      "Lane": 1005,
      "ning": 1006,
      "stru": 1007,
      "imbra": 1008,
      "afternoon": 1009,
      "next": 1010,
      "ended": 1011,
      "Coimbra": 1012,
      "towards": 1013,
      "ary": 1014,
      "braked": 1015,
      "fort": 1016,
      "forward": 1017,
      "arely": 1018,
      "costs": 1019,
      "much": 1020,
      "Volvo": 1021,
      "run": 1022,
      "force": 1023,
      "check": 1024,
      "calcul": 1025,
      "city": 1026,
      "ext": 1027,
      "years": 1028,
      "hen": 1029,
      "125": 1030,
      "home": 1031,
      "acceler": 1032,
      "ise": 1033,
      "mirrors": 1034,
      "ridge": 1035,
      "Jul": 1036,
      "mass": 1037,
      "Julho": 1038,
      "massive": 1039,
      "Min": 1040,
      "lar": 1041,
      "ody": 1042,
      "think": 1043,
      "abruptly": 1044,
      "LA": 1045,
      "ry": 1046,
      "ides": 1047,
      "situation": 1048,
      "Ph": 1049,
      "Qash": 1050,
      "cor": 1051,
      "ging": 1052,
      "qai": 1053,
      "these": 1054,
      "tapped": 1055,
      "Qashqai": 1056,
      "should": 1057,
      "moment": 1058,
      "rush": 1059,
      "When": 1060,
      "body": 1061,
      "lose": 1062,
      "part": 1063,
      "barely": 1064,
      "mid": 1065,
      "high": 1066,
      "sun": 1067,
      "pping": 1068,
      "swerve": 1069,
      "pat": 1070,
      "xim": 1071,
      "resp": 1072,
      "bri": 1073,
      "THIS": 1074,
      "away": 1075,
      "ban": 1076,
      "usu": 1077,
      "moved": 1078,
      "clist": 1079,
      "cyclist": 1080,
      "sound": 1081,
      "arr": 1082,
      "windshi": 1083,
      "windshield": 1084,
      "As": 1085,
      "sever": 1086,
      "hood": 1087,
      "busy": 1088,
      "aro": 1089,
      "dos": 1090,
      "calculated": 1091,
      "respon": 1092,
      "Faro": 1093,
      "A3": 1094,
      "dire": 1095,
      "gr": 1096,
      "cut": 1097,
      "No": 1098,
      "bridge": 1099,
      "nearby": 1100,
      "form": 1101,
      "mit": 1102,
      "ided": 1103,
      "wheel": 1104,
      "more": 1105,
      "unch": 1106,
      "Tra": 1107,
      "frust": 1108,
      "vi": 1109,
      "wo": 1110,
      "inal": 1111,
      "stand": 1112,
      "properly": 1113,
      "responsi": 1114,
      "frustrat": 1115,
      "ay": 1116,
      "changed": 1117,
      "Traffic": 1118,
      "careful": 1119,
      "simp": 1120,
      "being": 1121,
      "15": 1122,
      "gra": 1123,
      "today": 1124,
      "failed": 1125,
      "tle": 1126,
      "fix": 1127,
      "path": 1128,
      "sil": 1129,
      "reversing": 1130,
      "maintain": 1131,
      "sl": 1132,
      "sist": 1133,
      "cus": 1134,
      "fortun": 1135,
      "ginal": 1136,
      "plast": 1137,
      "ssive": 1138,
      "ure": 1139,
      "stain": 1140,
      "real": 1141,
      "sustain": 1142,
      "plastic": 1143,
      "Ali": 1144,
      "dle": 1145,
      "ados": 1146,
      "white": 1147,
      "gressive": 1148,
      "Aliados": 1149,
      "Dri": 1150,
      "inter": 1151,
      "dade": 1152,
      "solu": 1153,
      "slightly": 1154,
      "bac": 1155,
      "des": 1156,
      "pill": 1157,
      "pillar": 1158,
      "Lib": 1159,
      "RO": 1160,
      "if": 1161,
      "erdade": 1162,
      "sustained": 1163,
      "Liberdade": 1164,
      "ose": 1165,
      "resulted": 1166,
      "large": 1167,
      "move": 1168,
      "Marginal": 1169,
      "middle": 1170,
      "der": 1171,
      "emb": 1172,
      "quar": 1173,
      "heading": 1174,
      "squ": 1175,
      "drift": 1176,
      "seemed": 1177,
      "ING": 1178,
      "Fiest": 1179,
      "Fiesta": 1180,
      "boll": 1181,
      "late": 1182,
      "supp": 1183,
      "admit": 1184,
      "quarter": 1185,
      "bollard": 1186,
      "MP": 1187,
      "bar": 1188,
      "ered": 1189,
      "urban": 1190,
      "Fo": 1191,
      "LY": 1192,
      "inv": 1193,
      "asse": 1194,
      "rol": 1195,
      "bumped": 1196,
      "hitting": 1197,
      "arrass": 1198,
      "embarrass": 1199,
      "aving": 1200,
      "attempting": 1201,
      "bre": 1202,
      "miscalculated": 1203,
      "area": 1204,
      "started": 1205,
      "lou": 1206,
      "station": 1207,
      "stressed": 1208,
      "loud": 1209,
      "RE": 1210,
      "deal": 1211,
      "absolu": 1212,
      "apolog": 1213,
      "absolute": 1214,
      "DE": 1215,
      "perfe": 1216,
      "accelerated": 1217,
      "TO": 1218,
      "ched": 1219,
      "another": 1220,
      "ention": 1221,
      "ira": 1222,
      "lot": 1223,
      "entered": 1224,
      "Polo": 1225,
      "idesw": 1226,
      "invol": 1227,
      "Sud": 1228,
      "ens": 1229,
      "motor": 1230,
      "Sudden": 1231,
      "Whi": 1232,
      "dar": 1233,
      "While": 1234,
      "merge": 1235,
      "SU": 1236,
      "walk": 1237,
      "fol": 1238,
      "ran": 1239,
      "exchanged": 1240,
      "repl": 1241,
      "make": 1242,
      "Focus": 1243,
      "brea": 1244,
      "PM": 1245,
      "face": 1246,
      "alle": 1247,
      "incon": 1248,
      "unfortun": 1249,
      "pulling": 1250,
      "responsib": 1251,
      "ut": 1252,
      "metal": 1253,
      "surface": 1254,
      "physics": 1255,
      "turning": 1256,
      "pol": 1257,
      "less": 1258,
      "report": 1259,
      "super": 1260,
      "ways": 1261,
      "LE": 1262,
      "must": 1263,
      "Suddenly": 1264,
      "bal": 1265,
      "sel": 1266,
      "son": 1267,
      "cars": 1268,
      "bad": 1269,
      "wh": 1270,
      "raining": 1271,
      "sorry": 1272,
      "AC": 1273,
      "jol": 1274,
      "always": 1275,
      "vehicles": 1276,
      "ell": 1277,
      "0008": 1278,
      "repairs": 1279,
      "resulting": 1280,
      "approxim": 1281,
      "follow": 1282,
      "approximately": 1283,
      "ser": 1284,
      "rier": 1285,
      "expe": 1286,
      "proceeding": 1287,
      "absolutely": 1288,
      "dark": 1289,
      "poor": 1290,
      "struct": 1291,
      "jolt": 1292,
      "ME": 1293,
      "responsibility": 1294,
      "hur": 1295,
      "op": 1296,
      "sidewalk": 1297,
      "lights": 1298,
      "ience": 1299,
      "0006": 1300,
      "seem": 1301,
      "ition": 1302,
      "rative": 1303,
      "visib": 1304,
      "curb": 1305,
      "Set": 1306,
      "ga": 1307,
      "collided": 1308,
      "0009": 1309,
      "signaling": 1310,
      "suppose": 1311,
      "close": 1312,
      "ner": 1313,
      "nor": 1314,
      "aggressive": 1315,
      "unction": 1316,
      "dis": 1317,
      "ense": 1318,
      "unk": 1319,
      "sible": 1320,
      "trunk": 1321,
      "embarrassed": 1322,
      "att": 1323,
      "ural": 1324,
      "graz": 1325,
      "involved": 1326,
      "Mon": 1327,
      "gio": 1328,
      "oc": 1329,
      "úbal": 1330,
      "unt": 1331,
      "Setúbal": 1332,
      "ily": 1333,
      "SUV": 1334,
      "self": 1335,
      "ium": 1336,
      "frame": 1337,
      "barrier": 1338,
      "cri": 1339,
      "condition": 1340,
      "grand": 1341,
      "stationary": 1342,
      "cer": 1343,
      "ign": 1344,
      "om": 1345,
      "bet": 1346,
      "onte": 1347,
      "exact": 1348,
      "nowhere": 1349,
      "stress": 1350,
      "err": 1351,
      "Mini": 1352,
      "sistent": 1353,
      "drifted": 1354,
      "until": 1355,
      "OU": 1356,
      "xi": 1357,
      "total": 1358,
      "split": 1359,
      "pay": 1360,
      "cred": 1361,
      "prem": 1362,
      "docu": 1363,
      "0007": 1364,
      "document": 1365,
      "ES": 1366,
      "LL": 1367,
      "Rel": 1368,
      "ógio": 1369,
      "incred": 1370,
      "claims": 1371,
      "expect": 1372,
      "Relógio": 1373,
      "each": 1374,
      "structural": 1375,
      "Ponte": 1376,
      "ial": 1377,
      "ument": 1378,
      "corre": 1379,
      "Monument": 1380,
      "Monumental": 1381,
      "Abri": 1382,
      "Hy": 1383,
      "IT": 1384,
      "sli": 1385,
      "gest": 1386,
      "undai": 1387,
      "steer": 1388,
      "Abril": 1389,
      "Hyundai": 1390,
      "19": 1391,
      "tri": 1392,
      "maintaining": 1393,
      "reme": 1394,
      "0005": 1395,
      "ibly": 1396,
      "plate": 1397,
      "firm": 1398,
      "visibility": 1399,
      "premium": 1400,
      "incredibly": 1401,
      "Bra": 1402,
      "ok": 1403,
      "tally": 1404,
      "totally": 1405,
      "shar": 1406,
      "ween": 1407,
      "straight": 1408,
      "big": 1409,
      "between": 1410,
      "NE": 1411,
      "OR": 1412,
      "St": 1413,
      "pear": 1414,
      "ical": 1415,
      "appear": 1416,
      "replace": 1417,
      "hurt": 1418,
      "don": 1419,
      "slowed": 1420,
      "Funch": 1421,
      "PS": 1422,
      "under": 1423,
      "streets": 1424,
      "entirely": 1425,
      "first": 1426,
      "touched": 1427,
      "formation": 1428,
      "Funchal": 1429,
      "Le": 1430,
      "NO": 1431,
      "inspe": 1432,
      "occur": 1433,
      "Braga": 1434,
      "di": 1435,
      "exchange": 1436,
      "little": 1437,
      "Oh": 1438,
      "lic": 1439,
      "braking": 1440,
      "noise": 1441,
      "prov": 1442,
      "0003": 1443,
      "phone": 1444,
      "everything": 1445,
      "Driver": 1446,
      "what": 1447,
      "sharp": 1448,
      "WAS": 1449,
      "cl": 1450,
      "cing": 1451,
      "look": 1452,
      "shop": 1453,
      "evid": 1454,
      "gent": 1455,
      "ude": 1456,
      "new": 1457,
      "coast": 1458,
      "prof": 1459,
      "running": 1460,
      "directly": 1461,
      "14": 1462,
      "CR": 1463,
      "Dac": 1464,
      "GPS": 1465,
      "control": 1466,
      "ize": 1467,
      "cycle": 1468,
      "thank": 1469,
      "And": 1470,
      "severe": 1471,
      "frustrating": 1472,
      "silver": 1473,
      "stressful": 1474,
      "Dacia": 1475,
      "Lu": 1476,
      "ês": 1477,
      "stone": 1478,
      "indicator": 1479,
      "junction": 1480,
      "pr": 1481,
      "enue": 1482,
      "trave": 1483,
      "mbly": 1484,
      "Marqu": 1485,
      "assembly": 1486,
      "ideswipe": 1487,
      "grazed": 1488,
      "Luí": 1489,
      "gi": 1490,
      "ang": 1491,
      "myself": 1492,
      "ENT": 1493,
      "Marquês": 1494,
      "ELY": 1495,
      "iped": 1496,
      "avenue": 1497,
      "replacement": 1498,
      "Every": 1499,
      "hour": 1500,
      "wall": 1501,
      "drive": 1502,
      "though": 1503,
      "paper": 1504,
      "0010": 1505,
      "mbal": 1506,
      "Pombal": 1507,
      "evidence": 1508,
      "Sideswipe": 1509,
      "nast": 1510,
      "shed": 1511,
      "well": 1512,
      "dented": 1513,
      "dog": 1514,
      "rushed": 1515,
      "sitting": 1516,
      "signaled": 1517,
      "allel": 1518,
      "nasty": 1519,
      "air": 1520,
      "outer": 1521,
      "parallel": 1522,
      "exp": 1523,
      "Citroen": 1524,
      "usual": 1525,
      "simply": 1526,
      "realized": 1527,
      "perfectly": 1528,
      "attention": 1529,
      "hing": 1530,
      "tin": 1531,
      "ão": 1532,
      "reas": 1533,
      "rail": 1534,
      "0000": 1535,
      "taxi": 1536,
      "post": 1537,
      "fixed": 1538,
      "Nac": 1539,
      "Tod": 1540,
      "ero": 1541,
      "requ": 1542,
      "alt": 1543,
      "lie": 1544,
      "guard": 1545,
      "Luísa": 1546,
      "Todi": 1547,
      "xious": 1548,
      "information": 1549,
      "anxious": 1550,
      "ita": 1551,
      "lad": 1552,
      "keep": 1553,
      "exper": 1554,
      "notic": 1555,
      "pos": 1556,
      "safely": 1557,
      "break": 1558,
      "Nacional": 1559,
      "IV": 1560,
      "Sk": 1561,
      "va": 1562,
      "upset": 1563,
      "Physics": 1564,
      "certain": 1565,
      "flow": 1566,
      "oda": 1567,
      "inner": 1568,
      "sedan": 1569,
      "following": 1570,
      "Leon": 1571,
      "occurred": 1572,
      "tiny": 1573,
      "Skoda": 1574,
      "pri": 1575,
      "ined": 1576,
      "ery": 1577,
      "forcing": 1578,
      "scen": 1579,
      "attempted": 1580,
      "profess": 1581,
      "paperwork": 1582,
      "cha": 1583,
      "Com": 1584,
      "Everything": 1585,
      "IC": 1586,
      "onto": 1587,
      "black": 1588,
      "308": 1589,
      "accept": 1590,
      "handle": 1591,
      "cio": 1592,
      "extreme": 1593,
      "Phantom": 1594,
      "A4": 1595,
      "sy": 1596,
      "cooper": 1597,
      "headlamp": 1598,
      "cross": 1599,
      "standing": 1600,
      "Pere": 1601,
      "gar": 1602,
      "sped": 1603,
      "angle": 1604,
      "Pereira": 1605,
      "AM": 1606,
      "Ced": 1607,
      "eita": 1608,
      "entr": 1609,
      "love": 1610,
      "ofeita": 1611,
      "que": 1612,
      "spec": 1613,
      "approach": 1614,
      "reason": 1615,
      "Cedofeita": 1616,
      "reck": 1617,
      "also": 1618,
      "ontes": 1619,
      "motorcycle": 1620,
      "IM": 1621,
      "ield": 1622,
      "yield": 1623,
      "ative": 1624,
      "ashed": 1625,
      "broke": 1626,
      "Cooper": 1627,
      "descri": 1628,
      "correctly": 1629,
      "CO": 1630,
      "Fontes": 1631,
      "inj": 1632,
      "damaged": 1633,
      "Melo": 1634,
      "vie": 1635,
      "okay": 1636,
      "Smar": 1637,
      "Vi": 1638,
      "ave": 1639,
      "fu": 1640,
      "yed": 1641,
      "lect": 1642,
      "leaving": 1643,
      "soon": 1644,
      "changing": 1645,
      "good": 1646,
      "commu": 1647,
      "extensive": 1648,
      "Smart": 1649,
      "SH": 1650,
      "aw": 1651,
      "huge": 1652,
      "pite": 1653,
      "wet": 1654,
      "her": 1655,
      "its": 1656,
      "lap": 1657,
      "claimed": 1658,
      "caught": 1659,
      "person": 1660,
      "someone": 1661,
      "dro": 1662,
      "nud": 1663,
      "heavi": 1664,
      "most": 1665,
      "nothing": 1666,
      "0011": 1667,
      "getic": 1668,
      "apologetic": 1669,
      "Staged": 1670,
      "license": 1671,
      "noticed": 1672,
      "view": 1673,
      "jor": 1674,
      "two": 1675,
      "ree": 1676,
      "pected": 1677,
      "ters": 1678,
      "ruined": 1679,
      "major": 1680,
      "nexpected": 1681,
      "given": 1682,
      "lapse": 1683,
      "yel": 1684,
      "making": 1685,
      "usually": 1686,
      "trim": 1687,
      "extremely": 1688,
      "Gai": 1689,
      "struck": 1690,
      "ID": 1691,
      "hou": 1692,
      "rcio": 1693,
      "unexpected": 1694,
      "ércio": 1695,
      "leg": 1696,
      "reg": 1697,
      "chass": 1698,
      "mada": 1699,
      "exiting": 1700,
      "Almada": 1701,
      "guardrail": 1702,
      "Comércio": 1703,
      "specific": 1704,
      "Gaia": 1705,
      "chassis": 1706,
      "brushed": 1707,
      "sity": 1708,
      "ught": 1709,
      "anno": 1710,
      "owner": 1711,
      "viol": 1712,
      "slid": 1713,
      "apologized": 1714,
      "traveling": 1715,
      "heavily": 1716,
      "find": 1717,
      "immediate": 1718,
      "appeared": 1719,
      "professional": 1720,
      "60": 1721,
      "ber": 1722,
      "cra": 1723,
      "iver": 1724,
      "crac": 1725,
      "slick": 1726,
      "unfortunate": 1727,
      "NEW": 1728,
      "Tes": 1729,
      "class": 1730,
      "ially": 1731,
      "war": 1732,
      "smashed": 1733,
      "backed": 1734,
      "Tesla": 1735,
      "gri": 1736,
      "ish": 1737,
      "lio": 1738,
      "obser": 1739,
      "reckless": 1740,
      "yellow": 1741,
      "iversity": 1742,
      "22": 1743,
      "Clio": 1744,
      "GE": 1745,
      "ST": 1746,
      "Sand": 1747,
      "cru": 1748,
      "ince": 1749,
      "ising": 1750,
      "kept": 1751,
      "pres": 1752,
      "plan": 1753,
      "event": 1754,
      "backing": 1755,
      "conditions": 1756,
      "error": 1757,
      "airport": 1758,
      "possible": 1759,
      "Sandero": 1760,
      "bo": 1761,
      "stant": 1762,
      "action": 1763,
      "narrative": 1764,
      "exactly": 1765,
      "experience": 1766,
      "ughter": 1767,
      "gment": 1768,
      "pus": 1769,
      "ency": 1770,
      "clearance": 1771,
      "square": 1772,
      "sharply": 1773,
      "Vila": 1774,
      "pushed": 1775,
      "lu": 1776,
      "lim": 1777,
      "ater": 1778,
      "entering": 1779,
      "seems": 1780,
      "ured": 1781,
      "shock": 1782,
      "commute": 1783,
      "cracked": 1784,
      "MED": 1785,
      "ever": 1786,
      "ll": 1787,
      "since": 1788,
      "ze": 1789,
      "daughter": 1790,
      "nobody": 1791,
      "prepar": 1792,
      "EN125": 1793,
      "bike": 1794,
      "craw": 1795,
      "CAR": 1796,
      "DO": 1797,
      "ather": 1798,
      "coun": 1799,
      "jac": 1800,
      "res": 1801,
      "adjac": 1802,
      "old": 1803,
      "del": 1804,
      "0001": 1805,
      "company": 1806,
      "foot": 1807,
      "sition": 1808,
      "admitted": 1809,
      "norm": 1810,
      "approaching": 1811,
      "adjacent": 1812,
      "50": 1813,
      "call": 1814,
      "emer": 1815,
      "ient": 1816,
      "ably": 1817,
      "crash": 1818,
      "stepped": 1819,
      "simple": 1820,
      "At": 1821,
      "ek": 1822,
      "ff": 1823,
      "ned": 1824,
      "pi": 1825,
      "uro": 1826,
      "inside": 1827,
      "weather": 1828,
      "week": 1829,
      "0018": 1830,
      "everyone": 1831,
      "everywhere": 1832,
      "Nova": 1833,
      "expensive": 1834,
      "scene": 1835,
      "COMP": 1836,
      "limit": 1837,
      "DENT": 1838,
      "ces": 1839,
      "fine": 1840,
      "ppery": 1841,
      "position": 1842,
      "needs": 1843,
      "mark": 1844,
      "inconsistent": 1845,
      "slippery": 1846,
      "awful": 1847,
      "AV": 1848,
      "IAT": 1849,
      "Prat": 1850,
      "SCR": 1851,
      "Tran": 1852,
      "bone": 1853,
      "ifi": 1854,
      "might": 1855,
      "pá": 1856,
      "eng": 1857,
      "ase": 1858,
      "0004": 1859,
      "reverse": 1860,
      "frustrated": 1861,
      "Prata": 1862,
      "ensure": 1863,
      "tow": 1864,
      "rist": 1865,
      "align": 1866,
      "meters": 1867,
      "ket": 1868,
      "thankfully": 1869,
      "IMMED": 1870,
      "cruising": 1871,
      "IMMEDIAT": 1872,
      "Ben": 1873,
      "icious": 1874,
      "decid": 1875,
      "ague": 1876,
      "ficial": 1877,
      "past": 1878,
      "avoidable": 1879,
      "police": 1880,
      "housing": 1881,
      "Mo": 1882,
      "TER": 1883,
      "au": 1884,
      "mand": 1885,
      "belie": 1886,
      "forty": 1887,
      "ulti": 1888,
      "sorted": 1889,
      "Minor": 1890,
      "intern": 1891,
      "Transit": 1892,
      "decided": 1893,
      "gency": 1894,
      "vement": 1895,
      "ached": 1896,
      "necess": 1897,
      "stopping": 1898,
      "carefully": 1899,
      "shopping": 1900,
      "tourist": 1901,
      "inconven": 1902,
      "drove": 1903,
      "unexpectedly": 1904,
      "dude": 1905,
      "veered": 1906,
      "few": 1907,
      "0019": 1908,
      "lovely": 1909,
      "AB": 1910,
      "CA": 1911,
      "SO": 1912,
      "Sing": 1913,
      "das": 1914,
      "rong": 1915,
      "lost": 1916,
      "cafe": 1917,
      "confirm": 1918,
      "maneuvering": 1919,
      "silly": 1920,
      "aggressively": 1921,
      "Single": 1922,
      "Ro": 1923,
      "jo": 1924,
      "night": 1925,
      "rent": 1926,
      "pec": 1927,
      "008": 1928,
      "olla": 1929,
      "demand": 1930,
      "spect": 1931,
      "note": 1932,
      "single": 1933,
      "Corolla": 1934,
      "internal": 1935,
      "IG": 1936,
      "V40": 1937,
      "ee": 1938,
      "glad": 1939,
      "incl": 1940,
      "hear": 1941,
      "forced": 1942,
      "unavoidable": 1943,
      "spicious": 1944,
      "things": 1945,
      "stem": 1946,
      "squee": 1947,
      "unfortunately": 1948,
      "system": 1949,
      "emergency": 1950,
      "dan": 1951,
      "mess": 1952,
      "early": 1953,
      "mber": 1954,
      "merging": 1955,
      "violent": 1956,
      "stantly": 1957,
      "believe": 1958,
      "CH": 1959,
      "Ouro": 1960,
      "Spr": 1961,
      "UN": 1962,
      "cre": 1963,
      "would": 1964,
      "youn": 1965,
      "accoun": 1966,
      "cho": 1967,
      "otic": 1968,
      "confu": 1969,
      "wave": 1970,
      "dense": 1971,
      "feeling": 1972,
      "0024": 1973,
      "managed": 1974,
      "defensive": 1975,
      "calm": 1976,
      "guy": 1977,
      "apologize": 1978,
      "chaotic": 1979,
      "warning": 1980,
      "Sprinter": 1981,
      "account": 1982,
      "AD": 1983,
      "Oct": 1984,
      "WI": 1985,
      "emp": 1986,
      "she": 1987,
      "arch": 1988,
      "swiped": 1989,
      "prec": 1990,
      "avia": 1991,
      "superficial": 1992,
      "ified": 1993,
      "squeeze": 1994,
      "Octavia": 1995,
      "Two": 1996,
      "ded": 1997,
      "stup": 1998,
      "returned": 1999,
      "room": 2000,
      "impacted": 2001,
      "passing": 2002,
      "ForTwo": 2003,
      "paintwork": 2004,
      "highway": 2005,
      "gentle": 2006,
      "stupid": 2007,
      "23": 2008,
      "BU": 2009,
      "hon": 2010,
      "instantly": 2011,
      "ans": 2012,
      "asive": 2013,
      "ider": 2014,
      "ics": 2015,
      "meet": 2016,
      "claiming": 2017,
      "come": 2018,
      "judgment": 2019,
      "bound": 2020,
      "cir": 2021,
      "fl": 2022,
      "fer": 2023,
      "leave": 2024,
      "damp": 2025,
      "lied": 2026,
      "hoto": 2027,
      "paying": 2028,
      "detailed": 2029,
      "market": 2030,
      "several": 2031,
      "Driving": 2032,
      "despite": 2033,
      "OUT": 2034,
      "premiums": 2035,
      "70": 2036,
      "CLA": 2037,
      "UGE": 2038,
      "col": 2039,
      "line": 2040,
      "nu": 2041,
      "use": 2042,
      "wing": 2043,
      "init": 2044,
      "stri": 2045,
      "ident": 2046,
      "drivers": 2047,
      "espec": 2048,
      "blue": 2049,
      "Another": 2050,
      "LAW": 2051,
      "young": 2052,
      "especially": 2053,
      "Nar": 2054,
      "YER": 2055,
      "igh": 2056,
      "photo": 2057,
      "went": 2058,
      "within": 2059,
      "same": 2060,
      "0013": 2061,
      "getting": 2062,
      "ATCH": 2063,
      "reaction": 2064,
      "settle": 2065,
      "garage": 2066,
      "SCRATCH": 2067,
      "Benz": 2068,
      "LAWYER": 2069,
      "Ca": 2070,
      "HUGE": 2071,
      "XC": 2072,
      "bably": 2073,
      "hatch": 2074,
      "pick": 2075,
      "isn": 2076,
      "icy": 2077,
      "0026": 2078,
      "hap": 2079,
      "probably": 2080,
      "feels": 2081,
      "attempt": 2082,
      "shift": 2083,
      "cooperative": 2084,
      "crawling": 2085,
      "IGH": 2086,
      "Cap": 2087,
      "MA": 2088,
      "ef": 2089,
      "por": 2090,
      "sens": 2091,
      "tru": 2092,
      "actu": 2093,
      "university": 2094,
      "ption": 2095,
      "applied": 2096,
      "steady": 2097,
      "reversed": 2098,
      "regard": 2099,
      "IGHT": 2100,
      "HE": 2101,
      "edge": 2102,
      "ouble": 2103,
      "pavement": 2104,
      "bodywork": 2105,
      "perfect": 2106,
      "payout": 2107,
      "inspection": 2108,
      "keeping": 2109,
      "observed": 2110,
      "IMMEDIATELY": 2111,
      "inconvenience": 2112,
      "precise": 2113,
      "Un": 2114,
      "elect": 2115,
      "halt": 2116,
      "ron": 2117,
      "sta": 2118,
      "sub": 2119,
      "took": 2120,
      "scratched": 2121,
      "ously": 2122,
      "merged": 2123,
      "ERE": 2124,
      "ATTER": 2125,
      "struction": 2126,
      "steering": 2127,
      "So": 2128,
      "dy": 2129,
      "gap": 2130,
      "met": 2131,
      "speeding": 2132,
      "overly": 2133,
      "visit": 2134,
      "ACC": 2135,
      "necessary": 2136,
      "sensors": 2137,
      "27": 2138,
      "80": 2139,
      "ored": 2140,
      "tap": 2141,
      "fficult": 2142,
      "try": 2143,
      "trans": 2144,
      "physic": 2145,
      "pole": 2146,
      "focu": 2147,
      "shaking": 2148,
      "difficult": 2149,
      "looks": 2150,
      "require": 2151,
      "SHATTER": 2152,
      "luck": 2153,
      "includ": 2154,
      "Narrative": 2155,
      "truly": 2156,
      "DR": 2157,
      "Dam": 2158,
      "SE": 2159,
      "bloc": 2160,
      "ding": 2161,
      "nam": 2162,
      "inho": 2163,
      "issu": 2164,
      "ished": 2165,
      "beg": 2166,
      "peop": 2167,
      "009": 2168,
      "0020": 2169,
      "doors": 2170,
      "missed": 2171,
      "ugly": 2172,
      "wanted": 2173,
      "IC19": 2174,
      "people": 2175,
      "WIN": 2176,
      "stay": 2177,
      "almost": 2178,
      "dest": 2179,
      "consistent": 2180,
      "danger": 2181,
      "dynam": 2182,
      "repor": 2183,
      "rad": 2184,
      "dear": 2185,
      "doing": 2186,
      "contacted": 2187,
      "0017": 2188,
      "LET": 2189,
      "COMPLET": 2190,
      "town": 2191,
      "empty": 2192,
      "HIT": 2193,
      "bor": 2194,
      "cat": 2195,
      "hol": 2196,
      "iated": 2197,
      "sk": 2198,
      "yes": 2199,
      "hel": 2200,
      "ante": 2201,
      "mechan": 2202,
      "cob": 2203,
      "0015": 2204,
      "0016": 2205,
      "intention": 2206,
      "0028": 2207,
      "injured": 2208,
      "010": 2209,
      "AL": 2210,
      "Ag": 2211,
      "ening": 2212,
      "enjo": 2213,
      "does": 2214,
      "0014": 2215,
      "ossible": 2216,
      "concer": 2217,
      "handled": 2218,
      "XC40": 2219,
      "destro": 2220,
      "90": 2221,
      "ION": 2222,
      "ah": 2223,
      "eah": 2224,
      "gl": 2225,
      "iro": 2226,
      "sidesw": 2227,
      "vic": 2228,
      "asph": 2229,
      "law": 2230,
      "else": 2231,
      "timing": 2232,
      "upon": 2233,
      "operating": 2234,
      "breaking": 2235,
      "provided": 2236,
      "description": 2237,
      "annoying": 2238,
      "present": 2239,
      "prepare": 2240,
      "Model": 2241,
      "photos": 2242,
      "transfer": 2243,
      "asphalt": 2244,
      "IF": 2245,
      "chi": 2246,
      "dash": 2247,
      "007": 2248,
      "camer": 2249,
      "neck": 2250,
      "0027": 2251,
      "north": 2252,
      "goodness": 2253,
      "haps": 2254,
      "Captur": 2255,
      "cobble": 2256,
      "enjoying": 2257,
      "BRO": 2258,
      "Coll": 2259,
      "EL": 2260,
      "Re": 2261,
      "Yeah": 2262,
      "found": 2263,
      "ggest": 2264,
      "je": 2265,
      "lack": 2266,
      "ny": 2267,
      "ple": 2268,
      "least": 2269,
      "river": 2270,
      "ses": 2271,
      "suggest": 2272,
      "006": 2273,
      "exist": 2274,
      "0025": 2275,
      "orts": 2276,
      "grandson": 2277,
      "nudged": 2278,
      "meeting": 2279,
      "Collision": 2280,
      "band": 2281,
      "hus": 2282,
      "opp": 2283,
      "pour": 2284,
      "tled": 2285,
      "vious": 2286,
      "ically": 2287,
      "show": 2288,
      "panels": 2289,
      "affe": 2290,
      "concentr": 2291,
      "evening": 2292,
      "ONT": 2293,
      "sunny": 2294,
      "began": 2295,
      "glare": 2296,
      "BROK": 2297,
      "husband": 2298,
      "Now": 2299,
      "Sin": 2300,
      "i30": 2301,
      "later": 2302,
      "ori": 2303,
      "resol": 2304,
      "alco": 2305,
      "dep": 2306,
      "ired": 2307,
      "impossible": 2308,
      "compens": 2309,
      "ASS": 2310,
      "shoulder": 2311,
      "direction": 2312,
      "slipped": 2313,
      "NOW": 2314,
      "concentration": 2315,
      "BROKEN": 2316,
      "Sintra": 2317,
      "alcohol": 2318,
      "ecu": 2319,
      "i20": 2320,
      "ming": 2321,
      "imated": 2322,
      "parent": 2323,
      "execu": 2324,
      "fool": 2325,
      "something": 2326,
      "firmly": 2327,
      "pride": 2328,
      "normally": 2329,
      "BUMP": 2330,
      "regarding": 2331,
      "COMPLETELY": 2332,
      "intentionally": 2333,
      "sideswiped": 2334,
      "35": 2335,
      "A1": 2336,
      "LIV": 2337,
      "Su": 2338,
      "race": 2339,
      "ÇÕ": 2340,
      "iness": 2341,
      "let": 2342,
      "beau": 2343,
      "sco": 2344,
      "tiful": 2345,
      "crunch": 2346,
      "RECLA": 2347,
      "NOT": 2348,
      "specifically": 2349,
      "hatchback": 2350,
      "MAÇÕ": 2351,
      "SHATTERED": 2352,
      "destroyed": 2353,
      "LIVRO": 2354,
      "beautiful": 2355,
      "RECLAMAÇÕ": 2356,
      "RECLAMAÇÕES": 2357,
      "18": 2358,
      "Lar": 2359,
      "OT": 2360,
      "UST": 2361,
      "fil": 2362,
      "swit": 2363,
      "tone": 2364,
      "vague": 2365,
      "wri": 2366,
      "lying": 2367,
      "imal": 2368,
      "0030": 2369,
      "sports": 2370,
      "grey": 2371,
      "stead": 2372,
      "business": 2373,
      "coastal": 2374,
      "gentleman": 2375,
      "initiated": 2376,
      "Damage": 2377,
      "concerned": 2378,
      "Man": 2379,
      "Mis": 2380,
      "bly": 2381,
      "fill": 2382,
      "rather": 2383,
      "suff": 2384,
      "003": 2385,
      "004": 2386,
      "005": 2387,
      "local": 2388,
      "cauti": 2389,
      "slowing": 2390,
      "cannot": 2391,
      "covers": 2392,
      "bris": 2393,
      "standstill": 2394,
      "assess": 2395,
      "ACK": 2396,
      "documentation": 2397,
      "legal": 2398,
      "actually": 2399,
      "Some": 2400,
      "foolish": 2401,
      "45": 2402,
      "OF": 2403,
      "Ve": 2404,
      "na": 2405,
      "ues": 2406,
      "terrace": 2407,
      "REAR": 2408,
      "granddaughter": 2409,
      "documented": 2410,
      "tourists": 2411,
      "SOME": 2412,
      "DRIV": 2413,
      "Aggressive": 2414,
      "Largo": 2415,
      "switch": 2416,
      "Vehicle": 2417,
      "Ex": 2418,
      "Just": 2419,
      "Mú": 2420,
      "Multi": 2421,
      "N125": 2422,
      "XX": 2423,
      "fying": 2424,
      "hal": 2425,
      "ren": 2426,
      "ves": 2427,
      "lamed": 2428,
      "beside": 2429,
      "daily": 2430,
      "offic": 2431,
      "debris": 2432,
      "caf": 2433,
      "trouble": 2434,
      "shattering": 2435,
      "pressed": 2436,
      "terrifying": 2437,
      "sica": 2438,
      "Casa": 2439,
      "gently": 2440,
      "certainly": 2441,
      "ABLE": 2442,
      "spiciously": 2443,
      "child": 2444,
      "Música": 2445,
      "16": 2446,
      "AI": 2447,
      "EPT": 2448,
      "br": 2449,
      "having": 2450,
      "ip": 2451,
      "mine": 2452,
      "ref": 2453,
      "suspect": 2454,
      "adjust": 2455,
      "agre": 2456,
      "und": 2457,
      "urther": 2458,
      "amber": 2459,
      "scratching": 2460,
      "perhaps": 2461,
      "pedal": 2462,
      "proceeded": 2463,
      "polite": 2464,
      "closely": 2465,
      "provide": 2466,
      "pile": 2467,
      "heart": 2468,
      "AP": 2469,
      "Dude": 2470,
      "UL": 2471,
      "bed": 2472,
      "bright": 2473,
      "zone": 2474,
      "ção": 2475,
      "stan": 2476,
      "told": 2477,
      "ora": 2478,
      "aved": 2479,
      "taking": 2480,
      "tires": 2481,
      "tailg": 2482,
      "THERE": 2483,
      "needed": 2484,
      "steered": 2485,
      "safety": 2486,
      "Algar": 2487,
      "obvious": 2488,
      "nudge": 2489,
      "annoyed": 2490,
      "number": 2491,
      "electron": 2492,
      "dangerous": 2493,
      "children": 2494,
      "agreed": 2495,
      "Algarve": 2496,
      "11": 2497,
      "28": 2498,
      "29": 2499,
      "Alamed": 2500,
      "How": 2501,
      "JUST": 2502,
      "case": 2503,
      "eyes": 2504,
      "ig": 2505,
      "lid": 2506,
      "mare": 2507,
      "pan": 2508,
      "waved": 2509,
      "ised": 2510,
      "lay": 2511,
      "insurer": 2512,
      "thre": 2513,
      "pain": 2514,
      "seeing": 2515,
      "roads": 2516,
      "taillight": 2517,
      "Albu": 2518,
      "rolled": 2519,
      "ACT": 2520,
      "engine": 2521,
      "nightmare": 2522,
      "HEAD": 2523,
      "café": 2524,
      "Alameda": 2525,
      "BE": 2526,
      "Des": 2527,
      "High": 2528,
      "Imp": 2529,
      "Well": 2530,
      "gro": 2531,
      "pon": 2532,
      "strong": 2533,
      "rel": 2534,
      "veer": 2535,
      "inding": 2536,
      "tech": 2537,
      "sight": 2538,
      "congest": 2539,
      "indicating": 2540,
      "worse": 2541,
      "alongside": 2542,
      "appo": 2543,
      "utes": 2544,
      "lady": 2545,
      "confusing": 2546,
      "ACCEPT": 2547,
      "BUMPER": 2548,
      "21": 2549,
      "CT": 2550,
      "RA": 2551,
      "Upon": 2552,
      "mont": 2553,
      "oa": 2554,
      "sides": 2555,
      "vora": 2556,
      "ões": 2557,
      "rest": 2558,
      "oter": 2559,
      "sured": 2560,
      "three": 2561,
      "earli": 2562,
      "repaired": 2563,
      "anyone": 2564,
      "throughout": 2565,
      "Insured": 2566,
      "responsible": 2567,
      "CALL": 2568,
      "rental": 2569,
      "UNACCEPT": 2570,
      "WILL": 2571,
      "dynamics": 2572,
      "help": 2573,
      "month": 2574,
      "UNACCEPTABLE": 2575,
      "Ave": 2576,
      "HAS": 2577,
      "Tues": 2578,
      "YOU": 2579,
      "bender": 2580,
      "din": 2581,
      "far": 2582,
      "ration": 2583,
      "sen": 2584,
      "Évora": 2585,
      "inct": 2586,
      "arri": 2587,
      "seat": 2588,
      "Their": 2589,
      "scre": 2590,
      "fficient": 2591,
      "consu": 2592,
      "comprom": 2593,
      "Costa": 2594,
      "deliber": 2595,
      "approached": 2596,
      "straightforward": 2597,
      "pie": 2598,
      "aligned": 2599,
      "pouring": 2600,
      "compensation": 2601,
      "scooter": 2602,
      "office": 2603,
      "earlier": 2604,
      "Aveiro": 2605,
      "Tuesday": 2606,
      "Both": 2607,
      "Bai": 2608,
      "But": 2609,
      "SI": 2610,
      "lle": 2611,
      "used": 2612,
      "xa": 2613,
      "yet": 2614,
      "atched": 2615,
      "relie": 2616,
      "ordin": 2617,
      "ands": 2618,
      "those": 2619,
      "accidentally": 2620,
      "hoping": 2621,
      "Port": 2622,
      "point": 2623,
      "LAMP": 2624,
      "motorcyclist": 2625,
      "legally": 2626,
      "grille": 2627,
      "including": 2628,
      "However": 2629,
      "techn": 2630,
      "Baixa": 2631,
      "09": 2632,
      "Ev": 2633,
      "ak": 2634,
      "fin": 2635,
      "further": 2636,
      "job": 2637,
      "many": 2638,
      "vent": 2639,
      "watched": 2640,
      "yest": 2641,
      "erday": 2642,
      "ones": 2643,
      "buil": 2644,
      "ading": 2645,
      "fee": 2646,
      "likely": 2647,
      "fog": 2648,
      "downtown": 2649,
      "intent": 2650,
      "anything": 2651,
      "touch": 2652,
      "direct": 2653,
      "realize": 2654,
      "replac": 2655,
      "policy": 2656,
      "inspect": 2657,
      "normal": 2658,
      "stayed": 2659,
      "Mismatch": 2660,
      "suffered": 2661,
      "threat": 2662,
      "compromised": 2663,
      "relieved": 2664,
      "technical": 2665,
      "yesterday": 2666,
      "Hon": 2667,
      "Li": 2668,
      "Out": 2669,
      "cent": 2670,
      "cof": 2671,
      "fre": 2672,
      "pu": 2673,
      "pace": 2674,
      "tw": 2675,
      "wer": 2676,
      "wrong": 2677,
      "rely": 2678,
      "recor": 2679,
      "best": 2680,
      "icip": 2681,
      "import": 2682,
      "stori": 2683,
      "Lisboa": 2684,
      "Parque": 2685,
      "apparent": 2686,
      "evasive": 2687,
      "ARK": 2688,
      "dealing": 2689,
      "marks": 2690,
      "identified": 2691,
      "sensor": 2692,
      "SIDE": 2693,
      "Honda": 2694,
      "coffee": 2695,
      "Cir": 2696,
      "IOT": 2697,
      "Kia": 2698,
      "Swo": 2699,
      "Wave": 2700,
      "multi": 2701,
      "scho": 2702,
      "inve": 2703,
      "inte": 2704,
      "stig": 2705,
      "rict": 2706,
      "alone": 2707,
      "beach": 2708,
      "formed": 2709,
      "ury": 2710,
      "ending": 2711,
      "proxim": 2712,
      "vanished": 2713,
      "minutes": 2714,
      "0023": 2715,
      "INTO": 2716,
      "current": 2717,
      "rushing": 2718,
      "embarrassing": 2719,
      "serious": 2720,
      "grandchildren": 2721,
      "IDIOT": 2722,
      "substan": 2723,
      "cameras": 2724,
      "Despite": 2725,
      "Highway": 2726,
      "important": 2727,
      "Swoop": 2728,
      "school": 2729,
      "investig": 2730,
      "proximity": 2731,
      "AY": 2732,
      "Gu": 2733,
      "fright": 2734,
      "sent": 2735,
      "ublica": 2736,
      "les": 2737,
      "icul": 2738,
      "icked": 2739,
      "scree": 2740,
      "thud": 2741,
      "medical": 2742,
      "misaligned": 2743,
      "your": 2744,
      "0029": 2745,
      "ANT": 2746,
      "waited": 2747,
      "osite": 2748,
      "navigate": 2749,
      "Republica": 2750,
      "riding": 2751,
      "guess": 2752,
      "tory": 2753,
      "coverage": 2754,
      "start": 2755,
      "ground": 2756,
      "CRACK": 2757,
      "entrance": 2758,
      "settlement": 2759,
      "Cais": 2760,
      "radio": 2761,
      "opposite": 2762,
      "consumed": 2763,
      "Evasive": 2764,
      "screech": 2765,
      "Nor": 2766,
      "Sod": 2767,
      "Th": 2768,
      "Vague": 2769,
      "WH": 2770,
      "hot": 2771,
      "iot": 2772,
      "ump": 2773,
      "val": 2774,
      "zz": 2775,
      "infl": 2776,
      "arm": 2777,
      "enty": 2778,
      "idiot": 2779,
      "outside": 2780,
      "ages": 2781,
      "cam": 2782,
      "cos": 2783,
      "taken": 2784,
      "trail": 2785,
      "distre": 2786,
      "days": 2787,
      "pret": 2788,
      "prevent": 2789,
      "plenty": 2790,
      "rider": 2791,
      "failing": 2792,
      "Ant": 2793,
      "ension": 2794,
      "gesture": 2795,
      "physical": 2796,
      "doesn": 2797,
      "executed": 2798,
      "Suspiciously": 2799,
      "ordinated": 2800,
      "13": 2801,
      "17": 2802,
      "67": 2803,
      "EV": 2804,
      "FR": 2805,
      "Gom": 2806,
      "LIGHT": 2807,
      "aç": 2808,
      "non": 2809,
      "ré": 2810,
      "water": 2811,
      "asing": 2812,
      "ries": 2813,
      "seen": 2814,
      "sequ": 2815,
      "alha": 2816,
      "allow": 2817,
      "susp": 2818,
      "dead": 2819,
      "model": 2820,
      "distinct": 2821,
      "district": 2822,
      "happy": 2823,
      "parts": 2824,
      "correct": 2825,
      "planned": 2826,
      "DOW": 2827,
      "alignment": 2828,
      "confused": 2829,
      "focusing": 2830,
      "WINDOW": 2831,
      "ject": 2832,
      "resolve": 2833,
      "Exagger": 2834,
      "pileup": 2835,
      "relative": 2836,
      "intentional": 2837,
      "fresh": 2838,
      "Sodré": 2839,
      "hotel": 2840,
      "pretty": 2841,
      "Gomes": 2842,
      "65": 2843,
      "72": 2844,
      "81": 2845,
      "FOR": 2846,
      "Mare": 2847,
      "MAND": 2848,
      "PRO": 2849,
      "She": 2850,
      "bay": 2851,
      "done": 2852,
      "ix": 2853,
      "ither": 2854,
      "stud": 2855,
      "aren": 2856,
      "iding": 2857,
      "drizz": 2858,
      "rop": 2859,
      "chal": 2860,
      "esses": 2861,
      "ability": 2862,
      "whel": 2863,
      "rearview": 2864,
      "swear": 2865,
      "performed": 2866,
      "bless": 2867,
      "witnessed": 2868,
      "overwhel": 2869,
      "processed": 2870,
      "covered": 2871,
      "hands": 2872,
      "fortunately": 2873,
      "urely": 2874,
      "DEMAND": 2875,
      "required": 2876,
      "cooperate": 2877,
      "grity": 2878,
      "reporting": 2879,
      "dashcam": 2880,
      "reflect": 2881,
      "congestion": 2882,
      "screen": 2883,
      "building": 2884,
      "multiple": 2885,
      "integrity": 2886,
      "Marechal": 2887,
      "student": 2888,
      "34": 2889,
      "51": 2890,
      "84": 2891,
      "A2": 2892,
      "By": 2893,
      "Con": 2894,
      "Thi": 2895,
      "catch": 2896,
      "cling": 2897,
      "fled": 2898,
      "function": 2899,
      "ki": 2900,
      "lunch": 2901,
      "nesses": 2902,
      "ten": 2903,
      "ual": 2904,
      "watch": 2905,
      "stones": 2906,
      "reached": 2907,
      "atement": 2908,
      "mean": 2909,
      "outh": 2910,
      "lived": 2911,
      "witnesses": 2912,
      "unable": 2913,
      "GOING": 2914,
      "lighting": 2915,
      "rub": 2916,
      "nowled": 2917,
      "acknowled": 2918,
      "focus": 2919,
      "Inf": 2920,
      "astrop": 2921,
      "file": 2922,
      "standard": 2923,
      "alleged": 2924,
      "Statement": 2925,
      "Road": 2926,
      "honked": 2927,
      "metic": 2928,
      "visiting": 2929,
      "issues": 2930,
      "catastrop": 2931,
      "shows": 2932,
      "cautiously": 2933,
      "push": 2934,
      "currently": 2935,
      "cosmetic": 2936,
      "distressed": 2937,
      "FRONT": 2938,
      "relatively": 2939,
      "Third": 2940,
      "12": 2941,
      "31": 2942,
      "37": 2943,
      "54": 2944,
      "56": 2945,
      "59": 2946,
      "71": 2947,
      "79": 2948,
      "85": 2949,
      "88": 2950,
      "89": 2951,
      "FIX": 2952,
      "His": 2953,
      "PARK": 2954,
      "VED": 2955,
      "cun": 2956,
      "fall": 2957,
      "ife": 2958,
      "put": 2959,
      "south": 2960,
      "indep": 2961,
      "endent": 2962,
      "enced": 2963,
      "read": 2964,
      "reach": 2965,
      "dec": 2966,
      "thori": 2967,
      "contin": 2968,
      "icated": 2969,
      "behavi": 2970,
      "fair": 2971,
      "erest": 2972,
      "careless": 2973,
      "pedestrians": 2974,
      "why": 2975,
      "ignored": 2976,
      "ESS": 2977,
      "understanding": 2978,
      "inspected": 2979,
      "footage": 2980,
      "cessive": 2981,
      "authori": 2982,
      "demanding": 2983,
      "icycle": 2984,
      "University": 2985,
      "issue": 2986,
      "skid": 2987,
      "DRIVING": 2988,
      "underest": 2989,
      "Circun": 2990,
      "suspension": 2991,
      "Infante": 2992,
      "independent": 2993,
      "behavior": 2994,
      "100": 2995,
      "32": 2996,
      "52": 2997,
      "73": 2998,
      "74": 2999,
      "82": 3000,
      "87": 3001,
      "DON": 3002,
      "Honest": 3003,
      "bent": 3004,
      "casing": 3005,
      "fri": 3006,
      "lling": 3007,
      "licated": 3008,
      "uries": 3009,
      "wide": 3010,
      "waving": 3011,
      "veloc": 3012,
      "typ": 3013,
      "surpri": 3014,
      "liability": 3015,
      "coordinated": 3016,
      "tell": 3017,
      "ama": 3018,
      "lamps": 3019,
      "complicated": 3020,
      "ification": 3021,
      "clipping": 3022,
      "crow": 3023,
      "failure": 3024,
      "object": 3025,
      "LAY": 3026,
      "DELAY": 3027,
      "vala": 3028,
      "handlebar": 3029,
      "queue": 3030,
      "injuries": 3031,
      "DENTED": 3032,
      "Roma": 3033,
      "WITH": 3034,
      "honk": 3035,
      "circle": 3036,
      "physically": 3037,
      "cobblestones": 3038,
      "affect": 3039,
      "assessment": 3040,
      "tailgate": 3041,
      "months": 3042,
      "arrived": 3043,
      "armac": 3044,
      "underestimated": 3045,
      "Honestly": 3046,
      "55": 3047,
      "58": 3048,
      "61": 3049,
      "75": 3050,
      "76": 3051,
      "77": 3052,
      "78": 3053,
      "Ar": 3054,
      "Hen": 3055,
      "Naç": 3056,
      "bon": 3057,
      "five": 3058,
      "kid": 3059,
      "leng": 3060,
      "scar": 3061,
      "tion": 3062,
      "vider": 3063,
      "won": 3064,
      "insist": 3065,
      "ond": 3066,
      "arily": 3067,
      "hic": 3068,
      "respect": 3069,
      "loss": 3070,
      "ations": 3071,
      "acting": 3072,
      "unit": 3073,
      "moder": 3074,
      "construction": 3075,
      "makes": 3076,
      "anticip": 3077,
      "ively": 3078,
      "works": 3079,
      "comm": 3080,
      "significantly": 3081,
      "faster": 3082,
      "reacted": 3083,
      "divider": 3084,
      "driveway": 3085,
      "described": 3086,
      "calmly": 3087,
      "WIND": 3088,
      "reported": 3089,
      "suggesting": 3090,
      "halted": 3091,
      "pieces": 3092,
      "replaced": 3093,
      "inflation": 3094,
      "kilo": 3095,
      "FIXED": 3096,
      "continu": 3097,
      "Circunvala": 3098,
      "velocity": 3099,
      "Henri": 3100,
      "Nações": 3101,
      "length": 3102,
      "Circunvalação": 3103,
      "39": 3104,
      "63": 3105,
      "95": 3106,
      "ALL": 3107,
      "Hit": 3108,
      "IEL": 3109,
      "On": 3110,
      "PE": 3111,
      "Pun": 3112,
      "Ta": 3113,
      "WANT": 3114,
      "bag": 3115,
      "cked": 3116,
      "gon": 3117,
      "mist": 3118,
      "ule": 3119,
      "une": 3120,
      "yond": 3121,
      "instead": 3122,
      "ank": 3123,
      "arre": 3124,
      "return": 3125,
      "ray": 3126,
      "radi": 3127,
      "sufficient": 3128,
      "depart": 3129,
      "neigh": 3130,
      "dents": 3131,
      "qui": 3132,
      "said": 3133,
      "passed": 3134,
      "aster": 3135,
      "EST": 3136,
      "clum": 3137,
      "experi": 3138,
      "scenar": 3139,
      "SHIEL": 3140,
      "pressure": 3141,
      "planter": 3142,
      "prepared": 3143,
      "strike": 3144,
      "blocking": 3145,
      "mechanical": 3146,
      "existing": 3147,
      "filled": 3148,
      "CALLING": 3149,
      "Like": 3150,
      "Norte": 3151,
      "drizzle": 3152,
      "skidded": 3153,
      "kids": 3154,
      "WINDSHIEL": 3155,
      "Punto": 3156,
      "Taxi": 3157,
      "gonna": 3158,
      "neighbor": 3159,
      "WINDSHIELD": 3160,
      "33": 3161,
      "53": 3162,
      "64": 3163,
      "69": 3164,
      "86": 3165,
      "91": 3166,
      "92": 3167,
      "94": 3168,
      "Back": 3169,
      "Mat": 3170,
      "Mou": 3171,
      "SW": 3172,
      "Ti": 3173,
      "Wit": 3174,
      "fac": 3175,
      "hass": 3176,
      "horn": 3177,
      "jarr": 3178,
      "moun": 3179,
      "minding": 3180,
      "pract": 3181,
      "series": 3182,
      "uck": 3183,
      "vib": 3184,
      "wife": 3185,
      "zero": 3186,
      "step": 3187,
      "oncoming": 3188,
      "orrow": 3189,
      "alk": 3190,
      "although": 3191,
      "lig": 3192,
      "sched": 3193,
      "indic": 3194,
      "unsafe": 3195,
      "collide": 3196,
      "spo": 3197,
      "swi": 3198,
      "swalk": 3199,
      "times": 3200,
      "timão": 3201,
      "maxim": 3202,
      "Portimão": 3203,
      "tomorrow": 3204,
      "mirante": 3205,
      "minimal": 3206,
      "fell": 3207,
      "terribly": 3208,
      "exaggerated": 3209,
      "osinho": 3210,
      "navigation": 3211,
      "crosswalk": 3212,
      "Almirante": 3213,
      "accelerating": 3214,
      "open": 3215,
      "disappo": 3216,
      "errands": 3217,
      "remember": 3218,
      "NEED": 3219,
      "chaos": 3220,
      "AVE": 3221,
      "colored": 3222,
      "precisely": 3223,
      "lucky": 3224,
      "luckily": 3225,
      "block": 3226,
      "northbound": 3227,
      "Reis": 3228,
      "watching": 3229,
      "clumsy": 3230,
      "Matosinho": 3231,
      "SWER": 3232,
      "hassle": 3233,
      "jarring": 3234,
      "disappoin": 3235,
      "Matosinhos": 3236,
      "36": 3237,
      "48": 3238,
      "57": 3239,
      "62": 3240,
      "66": 3241,
      "83": 3242,
      "Dom": 3243,
      "LED": 3244,
      "Over": 3245,
      "Squ": 3246,
      "hall": 3247,
      "jump": 3248,
      "kind": 3249,
      "knew": 3250,
      "mone": 3251,
      "pla": 3252,
      "pot": 3253,
      "pted": 3254,
      "tre": 3255,
      "tch": 3256,
      "using": 3257,
      "zinho": 3258,
      "inity": 3259,
      "suspicious": 3260,
      "robor": 3261,
      "delay": 3262,
      "neg": 3263,
      "absent": 3264,
      "store": 3265,
      "whipl": 3266,
      "proced": 3267,
      "stretch": 3268,
      "overtake": 3269,
      "windscreen": 3270,
      "Inconsistent": 3271,
      "shame": 3272,
      "corrobor": 3273,
      "bang": 3274,
      "ify": 3275,
      "movement": 3276,
      "squat": 3277,
      "thankful": 3278,
      "events": 3279,
      "actions": 3280,
      "creating": 3281,
      "radic": 3282,
      "vicinity": 3283,
      "affected": 3284,
      "Someone": 3285,
      "electronic": 3286,
      "panicked": 3287,
      "substanti": 3288,
      "typical": 3289,
      "crowded": 3290,
      "scenario": 3291,
      "Mouzinho": 3292,
      "Squat": 3293,
      "money": 3294,
      "whiplash": 3295,
      "41": 3296,
      "42": 3297,
      "44": 3298,
      "46": 3299,
      "93": 3300,
      "96": 3301,
      "98": 3302,
      "99": 3303,
      "Car": 3304,
      "Cont": 3305,
      "cial": 3306,
      "fam": 3307,
      "mot": 3308,
      "twent": 3309,
      "ubro": 3310,
      "vous": 3311,
      "errat": 3312,
      "orough": 3313,
      "vel": 3314,
      "clean": 3315,
      "beyond": 3316,
      "ado": 3317,
      "dece": 3318,
      "thorough": 3319,
      "excessive": 3320,
      "span": 3321,
      "ties": 3322,
      "track": 3323,
      "known": 3324,
      "manage": 3325,
      "result": 3326,
      "curve": 3327,
      "crossed": 3328,
      "solid": 3329,
      "settled": 3330,
      "severity": 3331,
      "maintained": 3332,
      "nervous": 3333,
      "entral": 3334,
      "board": 3335,
      "called": 3336,
      "Motor": 3337,
      "SOL": 3338,
      "obviously": 3339,
      "threats": 3340,
      "Outubro": 3341,
      "PROC": 3342,
      "reflecting": 3343,
      "catastrophic": 3344,
      "authorities": 3345,
      "departure": 3346,
      "practically": 3347,
      "schedule": 3348,
      "procedure": 3349,
      "twenty": 3350,
      "38": 3351,
      "68": 3352,
      "97": 3353,
      "GL": 3354,
      "Kan": 3355,
      "Sal": 3356,
      "Swer": 3357,
      "ceries": 3358,
      "ior": 3359,
      "iate": 3360,
      "purely": 3361,
      "rout": 3362,
      "tt": 3363,
      "stran": 3364,
      "atic": 3365,
      "atur": 3366,
      "lease": 3367,
      "isance": 3368,
      "chain": 3369,
      "outing": 3370,
      "assist": 3371,
      "unnecessary": 3372,
      "sibly": 3373,
      "say": 3374,
      "feira": 3375,
      "tram": 3376,
      "hadn": 3377,
      "goo": 3378,
      "great": 3379,
      "exited": 3380,
      "afterward": 3381,
      "blinding": 3382,
      "Claims": 3383,
      "seconds": 3384,
      "thinking": 3385,
      "accelerate": 3386,
      "momentarily": 3387,
      "graze": 3388,
      "understand": 3389,
      "expla": 3390,
      "possibly": 3391,
      "IDA": 3392,
      "CAME": 3393,
      "nuisance": 3394,
      "Unfortunately": 3395,
      "dashboard": 3396,
      "cobblestone": 3397,
      "write": 3398,
      "steadily": 3399,
      "Albufeira": 3400,
      "groceries": 3401,
      "deliberately": 3402,
      "Portug": 3403,
      "investigation": 3404,
      "Antas": 3405,
      "ixo": 3406,
      "functional": 3407,
      "friend": 3408,
      "Henrique": 3409,
      "substantial": 3410,
      "Kangoo": 3411,
      "43": 3412,
      "47": 3413,
      "AG": 3414,
      "Astra": 3415,
      "A22": 3416,
      "CONT": 3417,
      "De": 3418,
      "Def": 3419,
      "EF": 3420,
      "Lack": 3421,
      "VW": 3422,
      "bla": 3423,
      "bill": 3424,
      "flying": 3425,
      "jam": 3426,
      "kin": 3427,
      "lens": 3428,
      "sider": 3429,
      "ts": 3430,
      "ism": 3431,
      "ache": 3432,
      "oul": 3433,
      "icit": 3434,
      "tering": 3435,
      "unidentified": 3436,
      "short": 3437,
      "miscalcul": 3438,
      "median": 3439,
      "repaint": 3440,
      "estimated": 3441,
      "intending": 3442,
      "deeply": 3443,
      "swerving": 3444,
      "anywhere": 3445,
      "ortun": 3446,
      "INT": 3447,
      "headlights": 3448,
      "brief": 3449,
      "forms": 3450,
      "drifting": 3451,
      "totaled": 3452,
      "documents": 3453,
      "controlled": 3454,
      "severely": 3455,
      "giving": 3456,
      "loves": 3457,
      "yielding": 3458,
      "injury": 3459,
      "crawl": 3460,
      "olding": 3461,
      "AVEN": 3462,
      "messed": 3463,
      "striking": 3464,
      "focused": 3465,
      "brand": 3466,
      "record": 3467,
      "overwhelming": 3468,
      "scary": 3469,
      "kilometers": 3470,
      "vibration": 3471,
      "ligence": 3472,
      "jumped": 3473,
      "family": 3474,
      "motion": 3475,
      "strange": 3476,
      "CONTACT": 3477,
      "03": 3478,
      "07": 3479,
      "49": 3480,
      "BR": 3481,
      "Ber": 3482,
      "Bat": 3483,
      "Can": 3484,
      "PL": 3485,
      "Please": 3486,
      "Sul": 3487,
      "Vis": 3488,
      "Via": 3489,
      "bing": 3490,
      "bida": 3491,
      "bak": 3492,
      "bicycle": 3493,
      "clo": 3494,
      "crushed": 3495,
      "dinner": 3496,
      "gone": 3497,
      "hor": 3498,
      "nat": 3499,
      "nice": 3500,
      "rá": 3501,
      "sim": 3502,
      "smo": 3503,
      "tired": 3504,
      "uff": 3505,
      "stuck": 3506,
      "erque": 3507,
      "rec": 3508,
      "remain": 3509,
      "verified": 3510,
      "sea": 3511,
      "ime": 3512,
      "ram": 3513,
      "buck": 3514,
      "add": 3515,
      "querque": 3516,
      "shouting": 3517,
      "rules": 3518,
      "consider": 3519,
      "00015": 3520,
      "headache": 3521,
      "cleared": 3522,
      "working": 3523,
      "spots": 3524,
      "affor": 3525,
      "happens": 3526,
      "apprec": 3527,
      "offered": 3528,
      "othly": 3529,
      "talking": 3530,
      "lingo": 3531,
      "Praia": 3532,
      "ASH": 3533,
      "usion": 3534,
      "ONE": 3535,
      "fortune": 3536,
      "momentary": 3537,
      "alley": 3538,
      "visibly": 3539,
      "travelling": 3540,
      "prior": 3541,
      "DOOR": 3542,
      "limited": 3543,
      "electri": 3544,
      "mechanism": 3545,
      "XXX": 3546,
      "Albuquerque": 3547,
      "restor": 3548,
      "waterfront": 3549,
      "quiet": 3550,
      "kinda": 3551,
      "AVENIDA": 3552,
      "Berlingo": 3553,
      "Batalha": 3554,
      "bakery": 3555,
      "smoothly": 3556,
      "08": 3557,
      "Estori": 3558,
      "Espan": 3559,
      "Eixo": 3560,
      "Fran": 3561,
      "Lo": 3562,
      "Pand": 3563,
      "RI": 3564,
      "Scri": 3565,
      "Satur": 3566,
      "UT": 3567,
      "VE": 3568,
      "double": 3569,
      "ges": 3570,
      "give": 3571,
      "pur": 3572,
      "table": 3573,
      "yer": 3574,
      "ães": 3575,
      "inf": 3576,
      "inward": 3577,
      "stit": 3578,
      "array": 3579,
      "arães": 3580,
      "asked": 3581,
      "imarães": 3582,
      "ates": 3583,
      "older": 3584,
      "list": 3585,
      "scuff": 3586,
      "ontal": 3587,
      "rated": 3588,
      "lower": 3589,
      "kening": 3590,
      "miss": 3591,
      "conf": 3592,
      "00025": 3593,
      "00019": 3594,
      "cks": 3595,
      "roadside": 3596,
      "compan": 3597,
      "00119": 3598,
      "ounding": 3599,
      "parties": 3600,
      "adequ": 3601,
      "ptwri": 3602,
      "mercial": 3603,
      "walked": 3604,
      "sickening": 3605,
      "shocked": 3606,
      "surely": 3607,
      "shouldn": 3608,
      "badly": 3609,
      "followed": 3610,
      "expected": 3611,
      "disaster": 3612,
      "cery": 3613,
      "IVE": 3614,
      "circling": 3615,
      "CLAIM": 3616,
      "shifted": 3617,
      "includes": 3618,
      "dynamic": 3619,
      "lawyer": 3620,
      "camera": 3621,
      "resolved": 3622,
      "AIL": 3623,
      "electronics": 3624,
      "HEADLIGHT": 3625,
      "grocery": 3626,
      "centime": 3627,
      "twice": 3628,
      "Guimarães": 3629,
      "trailing": 3630,
      "southbound": 3631,
      "Arrá": 3632,
      "experienced": 3633,
      "negligence": 3634,
      "PROCESS": 3635,
      "blame": 3636,
      "horri": 3637,
      "afford": 3638,
      "restoration": 3639,
      "Estoril": 3640,
      "Espanha": 3641,
      "Panda": 3642,
      "Saturday": 3643,
      "ptwriter": 3644,
      "Arrábida": 3645,
      "Du": 3646,
      "En": 3647,
      "FA": 3648,
      "Gama": 3649,
      "Garre": 3650,
      "IMP": 3651,
      "LI": 3652,
      "QU": 3653,
      "RU": 3654,
      "Vas": 3655,
      "aim": 3656,
      "bend": 3657,
      "vit": 3658,
      "atient": 3659,
      "rehear": 3660,
      "ory": 3661,
      "verages": 3662,
      "rap": 3663,
      "beverages": 3664,
      "surged": 3665,
      "shallow": 3666,
      "colliding": 3667,
      "bumpers": 3668,
      "lightly": 3669,
      "impacting": 3670,
      "promp": 3671,
      "0002": 3672,
      "00115": 3673,
      "00114": 3674,
      "misjudgment": 3675,
      "marking": 3676,
      "portion": 3677,
      "ASAP": 3678,
      "sister": 3679,
      "interior": 3680,
      "design": 3681,
      "house": 3682,
      "planning": 3683,
      "calling": 3684,
      "weekend": 3685,
      "IMMEDIATE": 3686,
      "created": 3687,
      "SEAT": 3688,
      "alcoholic": 3689,
      "half": 3690,
      "Impact": 3691,
      "sequence": 3692,
      "moderate": 3693,
      "anticipated": 3694,
      "Tipo": 3695,
      "With": 3696,
      "swiping": 3697,
      "Carmo": 3698,
      "erratic": 3699,
      "deceler": 3700,
      "GLASS": 3701,
      "Swerving": 3702,
      "miscalculation": 3703,
      "ortunist": 3704,
      "adequate": 3705,
      "horrible": 3706,
      "Garrett": 3707,
      "Vasco": 3708,
      "rehearsed": 3709,
      "Bridge": 3710,
      "EX": 3711,
      "FRO": 3712,
      "HAD": 3713,
      "IME": 3714,
      "OTH": 3715,
      "STO": 3716,
      "TE": 3717,
      "TIME": 3718,
      "UR": 3719,
      "Wh": 3720,
      "You": 3721,
      "bin": 3722,
      "bas": 3723,
      "jer": 3724,
      "ker": 3725,
      "mal": 3726,
      "once": 3727,
      "animal": 3728,
      "leading": 3729,
      "regre": 3730,
      "ionally": 3731,
      "loading": 3732,
      "scri": 3733,
      "nel": 3734,
      "ards": 3735,
      "spin": 3736,
      "mobi": 3737,
      "traum": 3738,
      "proportion": 3739,
      "00024": 3740,
      "00040": 3741,
      "00014": 3742,
      "00028": 3743,
      "theirs": 3744,
      "faint": 3745,
      "pharmac": 3746,
      "smash": 3747,
      "ISN": 3748,
      "plicit": 3749,
      "commercial": 3750,
      "END": 3751,
      "101": 3752,
      "suppor": 3753,
      "REP": 3754,
      "motorway": 3755,
      "professionally": 3756,
      "mostly": 3757,
      "positioned": 3758,
      "sheer": 3759,
      "SCRATCHED": 3760,
      "actual": 3761,
      "staying": 3762,
      "cato": 3763,
      "suggests": 3764,
      "deplo": 3765,
      "cautious": 3766,
      "OFF": 3767,
      "SOMEONE": 3768,
      "DRIVER": 3769,
      "HEADLAMP": 3770,
      "deliberate": 3771,
      "twist": 3772,
      "icular": 3773,
      "pushing": 3774,
      "fairly": 3775,
      "surprised": 3776,
      "DELAYS": 3777,
      "PECT": 3778,
      "bags": 3779,
      "Defensive": 3780,
      "appreciate": 3781,
      "purpo": 3782,
      "companies": 3783,
      "centimeters": 3784,
      "Ducato": 3785,
      "STOP": 3786,
      "AX": 3787,
      "Ale": 3788,
      "Be": 3789,
      "DA": 3790,
      "Dis": 3791,
      "HAND": 3792,
      "Is": 3793,
      "MASS": 3794,
      "Pass": 3795,
      "Sof": 3796,
      "Vise": 3797,
      "cou": 3798,
      "cado": 3799,
      "central": 3800,
      "east": 3801,
      "either": 3802,
      "gg": 3803,
      "gy": 3804,
      "han": 3805,
      "patter": 3806,
      "rac": 3807,
      "ining": 3808,
      "hesit": 3809,
      "stine": 3810,
      "stated": 3811,
      "ers": 3812,
      "entially": 3813,
      "hidden": 3814,
      "hill": 3815,
      "histori": 3816,
      "ordeal": 3817,
      "imm": 3818,
      "imate": 3819,
      "beat": 3820,
      "mention": 3821,
      "adher": 3822,
      "outdoor": 3823,
      "deformation": 3824,
      "thous": 3825,
      "cean": 3826,
      "unknown": 3827,
      "bumping": 3828,
      "explicit": 3829,
      "constant": 3830,
      "00020": 3831,
      "00030": 3832,
      "00023": 3833,
      "00027": 3834,
      "0012": 3835,
      "somewhere": 3836,
      "intment": 3837,
      "intended": 3838,
      "0021": 3839,
      "EN10": 3840,
      "ATION": 3841,
      "windows": 3842,
      "ARE": 3843,
      "strugg": 3844,
      "cutting": 3845,
      "interaction": 3846,
      "ifying": 3847,
      "RESOL": 3848,
      "motorbike": 3849,
      "pristine": 3850,
      "regul": 3851,
      "regist": 3852,
      "boot": 3853,
      "SCRATCHES": 3854,
      "LAWYERS": 3855,
      "lateral": 3856,
      "appointment": 3857,
      "screeching": 3858,
      "That": 3859,
      "PARKING": 3860,
      "radius": 3861,
      "neighborhood": 3862,
      "steps": 3863,
      "thoroughly": 3864,
      "Motorcycle": 3865,
      "closer": 3866,
      "electrical": 3867,
      "Scriptwriter": 3868,
      "PROCESSED": 3869,
      "IMPACT": 3870,
      "Without": 3871,
      "pharmacy": 3872,
      "MASSIVE": 3873,
      "Sofia": 3874,
      "Viseu": 3875,
      "pattern": 3876,
      "01": 3877,
      "05": 3878,
      "Ci": 3879,
      "CLE": 3880,
      "DAM": 3881,
      "FT": 3882,
      "HAVE": 3883,
      "IRE": 3884,
      "Jo": 3885,
      "LO": 3886,
      "LIS": 3887,
      "PED": 3888,
      "Rain": 3889,
      "Tr": 3890,
      "TOD": 3891,
      "ULL": 3892,
      "VAN": 3893,
      "bought": 3894,
      "brun": 3895,
      "eed": 3896,
      "fle": 3897,
      "har": 3898,
      "ição": 3899,
      "kill": 3900,
      "lor": 3901,
      "mind": 3902,
      "molding": 3903,
      "prom": 3904,
      "rty": 3905,
      "ém": 3906,
      "stic": 3907,
      "ering": 3908,
      "resolu": 3909,
      "riz": 3910,
      "rial": 3911,
      "oring": 3912,
      "life": 3913,
      "thirty": 3914,
      "usting": 3915,
      "ustrial": 3916,
      "camp": 3917,
      "cabin": 3918,
      "rattled": 3919,
      "neither": 3920,
      "abl": 3921,
      "inevit": 3922,
      "ung": 3923,
      "shards": 3924,
      "six": 3925,
      "swing": 3926,
      "hopping": 3927,
      "horiz": 3928,
      "chest": 3929,
      "confir": 3930,
      "cky": 3931,
      "vans": 3932,
      "loose": 3933,
      "oversight": 3934,
      "establ": 3935,
      "press": 3936,
      "0022": 3937,
      "place": 3938,
      "Claiming": 3939,
      "rainy": 3940,
      "appropri": 3941,
      "distraction": 3942,
      "guide": 3943,
      "extent": 3944,
      "sunset": 3945,
      "grinding": 3946,
      "involvement": 3947,
      "darted": 3948,
      "supermarket": 3949,
      "structure": 3950,
      "disappeared": 3951,
      "attent": 3952,
      "ignoring": 3953,
      "tricky": 3954,
      "appears": 3955,
      "noticing": 3956,
      "upsetting": 3957,
      "flowing": 3958,
      "priori": 3959,
      "furi": 3960,
      "observing": 3961,
      "positioning": 3962,
      "SCRAP": 3963,
      "Rocha": 3964,
      "danha": 3965,
      "BUT": 3966,
      "SET": 3967,
      "ULT": 3968,
      "tailgating": 3969,
      "iculous": 3970,
      "value": 3971,
      "rubbed": 3972,
      "acknowledge": 3973,
      "continued": 3974,
      "maximum": 3975,
      "Overly": 3976,
      "radictory": 3977,
      "Saldanha": 3978,
      "Portugal": 3979,
      "markings": 3980,
      "designated": 3981,
      "EXPECT": 3982,
      "FROM": 3983,
      "purpose": 3984,
      "eastbound": 3985,
      "hanging": 3986,
      "Civic": 3987,
      "CLEAR": 3988,
      "João": 3989,
      "resolution": 3990,
      "inevitable": 3991,
      "confirmed": 3992,
      "SCRAPED": 3993,
      "04": 3994,
      "CI": 3995,
      "Do": 3996,
      "Fender": 3997,
      "Lag": 3998,
      "PAY": 3999,
      "Rever": 4000,
      "RIGHT": 4001,
      "Serr": 4002,
      "TA": 4003,
      "TR": 4004,
      "TAIL": 4005,
      "V60": 4006,
      "WAV": 4007,
      "cup": 4008,
      "eas": 4009,
      "fish": 4010,
      "iv": 4011,
      "matter": 4012,
      "ocean": 4013,
      "rarely": 4014,
      "sort": 4015,
      "sense": 4016,
      "uel": 4017,
      "uição": 4018,
      "wreck": 4019,
      "xury": 4020,
      "za": 4021,
      "hect": 4022,
      "ener": 4023,
      "ria": 4024,
      "orchest": 4025,
      "alright": 4026,
      "alves": 4027,
      "driven": 4028,
      "statements": 4029,
      "uster": 4030,
      "unaccept": 4031,
      "fica": 4032,
      "traje": 4033,
      "misunderstanding": 4034,
      "nearly": 4035,
      "perform": 4036,
      "00010": 4037,
      "west": 4038,
      "goes": 4039,
      "overreact": 4040,
      "ested": 4041,
      "Fortwo": 4042,
      "gress": 4043,
      "steep": 4044,
      "IND": 4045,
      "often": 4046,
      "blinded": 4047,
      "trucks": 4048,
      "ridiculous": 4049,
      "langu": 4050,
      "themsel": 4051,
      "slamming": 4052,
      "culating": 4053,
      "obstruction": 4054,
      "startled": 4055,
      "patient": 4056,
      "grap": 4057,
      "gravel": 4058,
      "admitting": 4059,
      "hurry": 4060,
      "payment": 4061,
      "underground": 4062,
      "profuse": 4063,
      "describe": 4064,
      "drop": 4065,
      "warped": 4066,
      "book": 4067,
      "luxury": 4068,
      "weeks": 4069,
      "Benfica": 4070,
      "ABOUT": 4071,
      "violently": 4072,
      "circulating": 4073,
      "effort": 4074,
      "metro": 4075,
      "please": 4076,
      "existent": 4077,
      "AIR": 4078,
      "ULLY": 4079,
      "finish": 4080,
      "weren": 4081,
      "Exaggerated": 4082,
      "Constit": 4083,
      "plaza": 4084,
      "EFULLY": 4085,
      "FAULT": 4086,
      "prompt": 4087,
      "mobile": 4088,
      "REPAIR": 4089,
      "twisted": 4090,
      "HANDLED": 4091,
      "Passat": 4092,
      "historic": 4093,
      "immense": 4094,
      "struggling": 4095,
      "RESOLVED": 4096,
      "registration": 4097,
      "brunt": 4098,
      "lorry": 4099,
      "Serralves": 4100,
      "WAVED": 4101,
      "hectic": 4102,
      "orchestrated": 4103,
      "unacceptable": 4104,
      "trajec": 4105,
      "overreacting": 4106,
      "language": 4107,
      "themselves": 4108,
      "profusely": 4109,
      "Constituição": 4110,
      "110": 4111,
      "BO": 4112,
      "BACK": 4113,
      "CK": 4114,
      "FI": 4115,
      "Fer": 4116,
      "HERE": 4117,
      "MOR": 4118,
      "Navig": 4119,
      "OID": 4120,
      "Ped": 4121,
      "Prac": 4122,
      "SC": 4123,
      "SATION": 4124,
      "Shopping": 4125,
      "VI": 4126,
      "VER": 4127,
      "Yes": 4128,
      "ax": 4129,
      "bother": 4130,
      "cour": 4131,
      "ctor": 4132,
      "efficient": 4133,
      "oop": 4134,
      "pic": 4135,
      "info": 4136,
      "stac": 4137,
      "ona": 4138,
      "toge": 4139,
      "itated": 4140,
      "buff": 4141,
      "lies": 4142,
      "net": 4143,
      "tapping": 4144,
      "speeds": 4145,
      "swung": 4146,
      "swoop": 4147,
      "misread": 4148,
      "provo": 4149,
      "tive": 4150,
      "alled": 4151,
      "signs": 4152,
      "suddenness": 4153,
      "ultane": 4154,
      "downpour": 4155,
      "Comer": 4156,
      "ANY": 4157,
      "ENSATION": 4158,
      "ERAT": 4159,
      "Head": 4160,
      "talk": 4161,
      "247": 4162,
      "marked": 4163,
      "eval": 4164,
      "Also": 4165,
      "obsc": 4166,
      "setup": 4167,
      "LAINT": 4168,
      "midday": 4169,
      "dealt": 4170,
      "LEFT": 4171,
      "gave": 4172,
      "occup": 4173,
      "OUS": 4174,
      "gestured": 4175,
      "trip": 4176,
      "appearing": 4177,
      "providing": 4178,
      "personal": 4179,
      "grill": 4180,
      "luence": 4181,
      "CAREFULLY": 4182,
      "COMPENSATION": 4183,
      "COMPLAINT": 4184,
      "AVOID": 4185,
      "inconvenient": 4186,
      "sky": 4187,
      "IONS": 4188,
      "NOWHERE": 4189,
      "filing": 4190,
      "localized": 4191,
      "threatening": 4192,
      "trailer": 4193,
      "bonnet": 4194,
      "indication": 4195,
      "disappointed": 4196,
      "jammed": 4197,
      "buckled": 4198,
      "alleyway": 4199,
      "influence": 4200,
      "confusion": 4201,
      "RUA": 4202,
      "aiming": 4203,
      "OTHER": 4204,
      "regret": 4205,
      "proportionate": 4206,
      "adhering": 4207,
      "thousands": 4208,
      "TODAY": 4209,
      "attentive": 4210,
      "efforts": 4211,
      "trajectory": 4212,
      "Navigating": 4213,
      "Pedestrian": 4214,
      "Praca": 4215,
      "efficiently": 4216,
      "together": 4217,
      "Comercio": 4218,
      "02": 4219,
      "AU": 4220,
      "COU": 4221,
      "Ceed": 4222,
      "Dr": 4223,
      "FE": 4224,
      "Fr": 4225,
      "Flo": 4226,
      "Gir": 4227,
      "GER": 4228,
      "Hard": 4229,
      "Muse": 4230,
      "OL": 4231,
      "Opp": 4232,
      "PASS": 4233,
      "Sun": 4234,
      "XY": 4235,
      "YING": 4236,
      "bir": 4237,
      "brushing": 4238,
      "fat": 4239,
      "glan": 4240,
      "hav": 4241,
      "iria": 4242,
      "pin": 4243,
      "rounding": 4244,
      "soul": 4245,
      "wise": 4246,
      "inc": 4247,
      "inch": 4248,
      "inting": 4249,
      "incho": 4250,
      "erly": 4251,
      "ath": 4252,
      "ator": 4253,
      "ently": 4254,
      "recall": 4255,
      "ishing": 4256,
      "lable": 4257,
      "aldo": 4258,
      "suspiciously": 4259,
      "peak": 4260,
      "chance": 4261,
      "outra": 4262,
      "destruction": 4263,
      "agent": 4264,
      "idea": 4265,
      "thday": 4266,
      "accidents": 4267,
      "ild": 4268,
      "avai": 4269,
      "test": 4270,
      "eline": 4271,
      "fract": 4272,
      "exceed": 4273,
      "otherwise": 4274,
      "paid": 4275,
      "mishap": 4276,
      "00022": 4277,
      "timeline": 4278,
      "traction": 4279,
      "compre": 4280,
      "distres": 4281,
      "partially": 4282,
      "avoiding": 4283,
      "gets": 4284,
      "estimate": 4285,
      "Forum": 4286,
      "client": 4287,
      "workshop": 4288,
      "stray": 4289,
      "Mercado": 4290,
      "INS": 4291,
      "ENGER": 4292,
      "elderly": 4293,
      "agem": 4294,
      "sunlight": 4295,
      "bacalha": 4296,
      "lots": 4297,
      "optim": 4298,
      "disregard": 4299,
      "better": 4300,
      "errand": 4301,
      "Leiria": 4302,
      "provider": 4303,
      "WASTE": 4304,
      "ENTIRE": 4305,
      "hours": 4306,
      "requested": 4307,
      "IC2": 4308,
      "classic": 4309,
      "grip": 4310,
      "GET": 4311,
      "STRA": 4312,
      "demands": 4313,
      "crepan": 4314,
      "choice": 4315,
      "color": 4316,
      "Damages": 4317,
      "executing": 4318,
      "filed": 4319,
      "piece": 4320,
      "Portagem": 4321,
      "Guincho": 4322,
      "Thank": 4323,
      "respective": 4324,
      "spoke": 4325,
      "opened": 4326,
      "SWERVE": 4327,
      "disappointing": 4328,
      "corroborating": 4329,
      "route": 4330,
      "simultane": 4331,
      "remained": 4332,
      "QUEST": 4333,
      "jerked": 4334,
      "Discrepan": 4335,
      "mentioned": 4336,
      "horizontal": 4337,
      "gressor": 4338,
      "axle": 4339,
      "obscured": 4340,
      "Flores": 4341,
      "Giraldo": 4342,
      "Opportunist": 4343,
      "PASSENGER": 4344,
      "birthday": 4345,
      "available": 4346,
      "distressing": 4347,
      "bacalhau": 4348,
      "STRAIGHT": 4349,
      "Discrepancy": 4350,
      "06": 4351,
      "Air": 4352,
      "CAS": 4353,
      "Ju": 4354,
      "KE": 4355,
      "Mé": 4356,
      "Our": 4357,
      "VCI": 4358,
      "cence": 4359,
      "du": 4360,
      "nch": 4361,
      "nio": 4362,
      "pend": 4363,
      "pred": 4364,
      "tarmac": 4365,
      "vice": 4366,
      "vable": 4367,
      "wid": 4368,
      "wild": 4369,
      "zed": 4370,
      "ço": 4371,
      "ónio": 4372,
      "inno": 4373,
      "intim": 4374,
      "stif": 4375,
      "atized": 4376,
      "ana": 4377,
      "reo": 4378,
      "orm": 4379,
      "veira": 4380,
      "verification": 4381,
      "secu": 4382,
      "itself": 4383,
      "accor": 4384,
      "ades": 4385,
      "char": 4386,
      "meter": 4387,
      "Then": 4388,
      "ago": 4389,
      "agno": 4390,
      "acted": 4391,
      "locked": 4392,
      "iring": 4393,
      "accidental": 4394,
      "justifying": 4395,
      "denting": 4396,
      "docks": 4397,
      "urgently": 4398,
      "sio": 4399,
      "spun": 4400,
      "saying": 4401,
      "train": 4402,
      "perpend": 4403,
      "00026": 4404,
      "denying": 4405,
      "bypass": 4406,
      "web": 4407,
      "izing": 4408,
      "overtook": 4409,
      "THEN": 4410,
      "minal": 4411,
      "applying": 4412,
      "Incident": 4413,
      "signals": 4414,
      "INC": 4415,
      "exaggerating": 4416,
      "accepted": 4417,
      "Maria": 4418,
      "ARD": 4419,
      "obstac": 4420,
      "starting": 4421,
      "himself": 4422,
      "forceful": 4423,
      "larger": 4424,
      "Foz": 4425,
      "opening": 4426,
      "crim": 4427,
      "grandkids": 4428,
      "plates": 4429,
      "diagno": 4430,
      "clut": 4431,
      "shops": 4432,
      "angry": 4433,
      "requiring": 4434,
      "cooperating": 4435,
      "commuting": 4436,
      "observe": 4437,
      "ifiable": 4438,
      "joy": 4439,
      "strictly": 4440,
      "subsequ": 4441,
      "requires": 4442,
      "dangerously": 4443,
      "showing": 4444,
      "parents": 4445,
      "filtering": 4446,
      "adjusting": 4447,
      "Impatient": 4448,
      "seriously": 4449,
      "substances": 4450,
      "frightening": 4451,
      "WHI": 4452,
      "António": 4453,
      "Exaggeration": 4454,
      "buildings": 4455,
      "decision": 4456,
      "handlebars": 4457,
      "insisting": 4458,
      "common": 4459,
      "spoken": 4460,
      "SWERVED": 4461,
      "bills": 4462,
      "CONTACTING": 4463,
      "mission": 4464,
      "rapid": 4465,
      "traumatized": 4466,
      "Alecrim": 4467,
      "courier": 4468,
      "Rainha": 4469,
      "priority": 4470,
      "Lagos": 4471,
      "Reversing": 4472,
      "TRYING": 4473,
      "describes": 4474,
      "evaluation": 4475,
      "Museum": 4476,
      "XYZ": 4477,
      "haven": 4478,
      "QUESTIONS": 4479,
      "Mégane": 4480,
      "width": 4481,
      "innocence": 4482,
      "intimid": 4483,
      "stiff": 4484,
      "perpendicular": 4485,
      "diagnostic": 4486,
      "AE": 4487,
      "BY": 4488,
      "Cid": 4489,
      "Cam": 4490,
      "Cru": 4491,
      "City": 4492,
      "CLI": 4493,
      "Dou": 4494,
      "Eri": 4495,
      "God": 4496,
      "HO": 4497,
      "LAN": 4498,
      "PA": 4499,
      "Run": 4500,
      "cil": 4501,
      "dr": 4502,
      "fit": 4503,
      "iven": 4504,
      "kicked": 4505,
      "lately": 4506,
      "osed": 4507,
      "osing": 4508,
      "vision": 4509,
      "instruction": 4510,
      "insufficient": 4511,
      "held": 4512,
      "sted": 4513,
      "stad": 4514,
      "story": 4515,
      "onent": 4516,
      "arrow": 4517,
      "assu": 4518,
      "alib": 4519,
      "rag": 4520,
      "below": 4521,
      "busted": 4522,
      "00308": 4523,
      "live": 4524,
      "liable": 4525,
      "agree": 4526,
      "actively": 4527,
      "scatter": 4528,
      "indent": 4529,
      "industrial": 4530,
      "ceira": 4531,
      "illegal": 4532,
      "illegally": 4533,
      "unusually": 4534,
      "unprovo": 4535,
      "tex": 4536,
      "extra": 4537,
      "haul": 4538,
      "amic": 4539,
      "hole": 4540,
      "fect": 4541,
      "notification": 4542,
      "damaging": 4543,
      "proactively": 4544,
      "alling": 4545,
      "blew": 4546,
      "harder": 4547,
      "component": 4548,
      "antar": 4549,
      "blin": 4550,
      "weaving": 4551,
      "turns": 4552,
      "00126": 4553,
      "crashed": 4554,
      "god": 4555,
      "overlooking": 4556,
      "overhaul": 4557,
      "somehow": 4558,
      "intense": 4559,
      "ibility": 4560,
      "00215": 4561,
      "mancil": 4562,
      "roughly": 4563,
      "cycling": 4564,
      "cracks": 4565,
      "deliver": 4566,
      "fif": 4567,
      "AST": 4568,
      "THEY": 4569,
      "cular": 4570,
      "Almancil": 4571,
      "hensive": 4572,
      "highly": 4573,
      "responsibly": 4574,
      "disproportionate": 4575,
      "documenting": 4576,
      "airbags": 4577,
      "recklessly": 4578,
      "box": 4579,
      "DOS": 4580,
      "counter": 4581,
      "choreo": 4582,
      "XC60": 4583,
      "submit": 4584,
      "Aggressor": 4585,
      "laws": 4586,
      "riverfront": 4587,
      "compensated": 4588,
      "insurers": 4589,
      "congested": 4590,
      "YOUR": 4591,
      "replacing": 4592,
      "overwhelmed": 4593,
      "Statements": 4594,
      "declar": 4595,
      "radiator": 4596,
      "mountain": 4597,
      "maximize": 4598,
      "trecamp": 4599,
      "delays": 4600,
      "Contradictory": 4601,
      "procedures": 4602,
      "assistance": 4603,
      "Visual": 4604,
      "Visibility": 4605,
      "rammed": 4606,
      "França": 4607,
      "Look": 4608,
      "Entrecamp": 4609,
      "halfway": 4610,
      "spinning": 4611,
      "supported": 4612,
      "STOPPED": 4613,
      "hesitated": 4614,
      "LOW": 4615,
      "CLEARLY": 4616,
      "graphed": 4617,
      "increas": 4618,
      "outrage": 4619,
      "comprehensive": 4620,
      "Thankfully": 4621,
      "Juke": 4622,
      "predic": 4623,
      "according": 4624,
      "clutch": 4625,
      "AEC": 4626,
      "Cidade": 4627,
      "Cruising": 4628,
      "Ericeira": 4629,
      "LANE": 4630,
      "stadium": 4631,
      "unprovoked": 4632,
      "choreographed": 4633,
      "Entrecampos": 4634,
      "120": 4635,
      "3008": 4636,
      "A5": 4637,
      "Af": 4638,
      "Bicycle": 4639,
      "Center": 4640,
      "CCT": 4641,
      "CBR": 4642,
      "Dire": 4643,
      "DID": 4644,
      "Even": 4645,
      "Euro": 4646,
      "FF": 4647,
      "Fab": 4648,
      "GS": 4649,
      "IR": 4650,
      "KING": 4651,
      "Kona": 4652,
      "Let": 4653,
      "Lour": 4654,
      "Loul": 4655,
      "Made": 4656,
      "OP": 4657,
      "PO": 4658,
      "Yama": 4659,
      "blow": 4660,
      "dit": 4661,
      "dim": 4662,
      "dull": 4663,
      "dread": 4664,
      "ms": 4665,
      "oe": 4666,
      "ost": 4667,
      "tar": 4668,
      "ture": 4669,
      "tree": 4670,
      "ura": 4671,
      "uma": 4672,
      "zy": 4673,
      "enade": 4674,
      "enço": 4675,
      "encounter": 4676,
      "stalled": 4677,
      "ential": 4678,
      "tori": 4679,
      "tocol": 4680,
      "rele": 4681,
      "refu": 4682,
      "itating": 4683,
      "itão": 4684,
      "aces": 4685,
      "drivable": 4686,
      "logio": 4687,
      "ments": 4688,
      "buy": 4689,
      "ghost": 4690,
      "adow": 4691,
      "surrounding": 4692,
      "ustered": 4693,
      "terna": 4694,
      "shadow": 4695,
      "istic": 4696,
      "urgent": 4697,
      "exce": 4698,
      "excess": 4699,
      "exchanging": 4700,
      "frontal": 4701,
      "spider": 4702,
      "trauma": 4703,
      "contradic": 4704,
      "notori": 4705,
      "prove": 4706,
      "protocol": 4707,
      "indicated": 4708,
      "upcoming": 4709,
      "trace": 4710,
      "worth": 4711,
      "signage": 4712,
      "channel": 4713,
      "00140": 4714,
      "00160": 4715,
      "00123": 4716,
      "00170": 4717,
      "00127": 4718,
      "sometimes": 4719,
      "anymore": 4720,
      "judge": 4721,
      "00219": 4722,
      "00214": 4723,
      "00270": 4724,
      "00227": 4725,
      "00290": 4726,
      "00218": 4727,
      "00229": 4728,
      "Peix": 4729,
      "applic": 4730,
      "stelo": 4731,
      "Infl": 4732,
      "astron": 4733,
      "approve": 4734,
      "moments": 4735,
      "momentum": 4736,
      "grab": 4737,
      "slide": 4738,
      "assessed": 4739,
      "bread": 4740,
      "apologies": 4741,
      "poorly": 4742,
      "discu": 4743,
      "disheart": 4744,
      "omical": 4745,
      "expecting": 4746,
      "ITING": 4747,
      "hurts": 4748,
      "Everyone": 4749,
      "expense": 4750,
      "posted": 4751,
      "handles": 4752,
      "describing": 4753,
      "sliding": 4754,
      "crump": 4755,
      "necessitating": 4756,
      "confirms": 4757,
      "systems": 4758,
      "accounts": 4759,
      "honking": 4760,
      "flustered": 4761,
      "collect": 4762,
      "idential": 4763,
      "identify": 4764,
      "Castelo": 4765,
      "Capitão": 4766,
      "effect": 4767,
      "blocked": 4768,
      "ALLY": 4769,
      "Relogio": 4770,
      "opposing": 4771,
      "scope": 4772,
      "switching": 4773,
      "refle": 4774,
      "finished": 4775,
      "recorded": 4776,
      "EVEN": 4777,
      "acknowledged": 4778,
      "WITHOUT": 4779,
      "anticipate": 4780,
      "facing": 4781,
      "routine": 4782,
      "explain": 4783,
      "shortly": 4784,
      "What": 4785,
      "basically": 4786,
      "smashing": 4787,
      "deployed": 4788,
      "explicitly": 4789,
      "regulations": 4790,
      "DAMAG": 4791,
      "Trusting": 4792,
      "promenade": 4793,
      "appropriately": 4794,
      "furious": 4795,
      "picking": 4796,
      "ERATED": 4797,
      "Sunday": 4798,
      "fatal": 4799,
      "inching": 4800,
      "optimal": 4801,
      "simultaneously": 4802,
      "obstacle": 4803,
      "rapidly": 4804,
      "Camões": 4805,
      "assume": 4806,
      "indentation": 4807,
      "components": 4808,
      "declaration": 4809,
      "CCTV": 4810,
      "Direita": 4811,
      "Lourenço": 4812,
      "Loulé": 4813,
      "Madeira": 4814,
      "Yamaha": 4815,
      "ditch": 4816,
      "notoriously": 4817,
      "channels": 4818,
      "Peixinho": 4819,
      "application": 4820,
      "Inflated": 4821,
      "astronomical": 4822,
      "disheartening": 4823,
      "2008": 4824,
      "Ac": 4825,
      "Av": 4826,
      "Bor": 4827,
      "Bel": 4828,
      "CX": 4829,
      "Cint": 4830,
      "CUT": 4831,
      "DEN": 4832,
      "Dai": 4833,
      "FULL": 4834,
      "GH": 4835,
      "GU": 4836,
      "Given": 4837,
      "HARD": 4838,
      "Ive": 4839,
      "KNOW": 4840,
      "Mun": 4841,
      "Noth": 4842,
      "OK": 4843,
      "RT": 4844,
      "RUN": 4845,
      "Sil": 4846,
      "Santar": 4847,
      "TRA": 4848,
      "UP": 4849,
      "WA": 4850,
      "WHIT": 4851,
      "ben": 4852,
      "bot": 4853,
      "cash": 4854,
      "cloud": 4855,
      "dram": 4856,
      "fas": 4857,
      "fact": 4858,
      "fund": 4859,
      "gou": 4860,
      "gger": 4861,
      "hold": 4862,
      "mstan": 4863,
      "plow": 4864,
      "play": 4865,
      "sna": 4866,
      "uh": 4867,
      "vast": 4868,
      "inted": 4869,
      "ened": 4870,
      "encing": 4871,
      "ster": 4872,
      "stat": 4873,
      "erally": 4874,
      "hibit": 4875,
      "ingly": 4876,
      "level": 4877,
      "reira": 4878,
      "restore": 4879,
      "ric": 4880,
      "ribut": 4881,
      "order": 4882,
      "verify": 4883,
      "ital": 4884,
      "rot": 4885,
      "roof": 4886,
      "rock": 4887,
      "ateful": 4888,
      "load": 4889,
      "locking": 4890,
      "capt": 4891,
      "ilar": 4892,
      "ilty": 4893,
      "quest": 4894,
      "unmarked": 4895,
      "doctor": 4896,
      "caution": 4897,
      "exped": 4898,
      "whether": 4899,
      "hair": 4900,
      "aming": 4901,
      "spital": 4902,
      "hospital": 4903,
      "essentially": 4904,
      "mishaps": 4905,
      "allic": 4906,
      "upright": 4907,
      "00110": 4908,
      "roundabouts": 4909,
      "overtaking": 4910,
      "cumstan": 4911,
      "longer": 4912,
      "backward": 4913,
      "00226": 4914,
      "00210": 4915,
      "00250": 4916,
      "00223": 4917,
      "00235": 4918,
      "00213": 4919,
      "mbo": 4920,
      "manner": 4921,
      "apply": 4922,
      "Interna": 4923,
      "smaller": 4924,
      "commit": 4925,
      "INV": 4926,
      "costly": 4927,
      "Heavy": 4928,
      "aching": 4929,
      "ship": 4930,
      "literally": 4931,
      "guilty": 4932,
      "grateful": 4933,
      "formal": 4934,
      "ROW": 4935,
      "iffer": 4936,
      "rolling": 4937,
      "TOMOR": 4938,
      "service": 4939,
      "seemingly": 4940,
      "discer": 4941,
      "trigger": 4942,
      "cluster": 4943,
      "Coming": 4944,
      "violate": 4945,
      "violations": 4946,
      "boom": 4947,
      "residential": 4948,
      "emerged": 4949,
      "include": 4950,
      "UND": 4951,
      "create": 4952,
      "precision": 4953,
      "circumstan": 4954,
      "flick": 4955,
      "metallic": 4956,
      "ACCEL": 4957,
      "focuses": 4958,
      "COMPLETE": 4959,
      "helped": 4960,
      "Manuel": 4961,
      "related": 4962,
      "arrive": 4963,
      "screaming": 4964,
      "icipal": 4965,
      "investigate": 4966,
      "WHEN": 4967,
      "allowed": 4968,
      "PARKED": 4969,
      "tells": 4970,
      "boned": 4971,
      "modern": 4972,
      "indicates": 4973,
      "potentially": 4974,
      "pothole": 4975,
      "afterwards": 4976,
      "PLAT": 4977,
      "nata": 4978,
      "nature": 4979,
      "similar": 4980,
      "Entering": 4981,
      "Why": 4982,
      "ENDER": 4983,
      "deploy": 4984,
      "flee": 4985,
      "established": 4986,
      "westbound": 4987,
      "Ferreira": 4988,
      "occupying": 4989,
      "instructions": 4990,
      "FFIC": 4991,
      "Fabia": 4992,
      "dreadful": 4993,
      "contradicts": 4994,
      "effectively": 4995,
      "Borges": 4996,
      "Cintura": 4997,
      "Daily": 4998,
      "Iveco": 4999,
      "Nothing": 5000,
      "Santarém": 5001,
      "TRAFFIC": 5002,
      "WHITE": 5003,
      "dramatic": 5004,
      "funds": 5005,
      "plowed": 5006,
      "capture": 5007,
      "question": 5008,
      "TOMORROW": 5009,
      "discern": 5010,
      "circumstances": 5011,
      "ACCELERATED": 5012,
      "App": 5013,
      "AGE": 5014,
      "C4": 5015,
      "CE": 5016,
      "Central": 5017,
      "DI": 5018,
      "DDEN": 5019,
      "ET": 5020,
      "FAR": 5021,
      "Further": 5022,
      "FAST": 5023,
      "FENDER": 5024,
      "LD": 5025,
      "LX": 5026,
      "Mal": 5027,
      "Mic": 5028,
      "MENT": 5029,
      "Master": 5030,
      "Near": 5031,
      "NING": 5032,
      "PRE": 5033,
      "POR": 5034,
      "PULL": 5035,
      "Ri": 5036,
      "RAN": 5037,
      "Ros": 5038,
      "SM": 5039,
      "Ser": 5040,
      "São": 5041,
      "SLOW": 5042,
      "Truck": 5043,
      "US": 5044,
      "Ugh": 5045,
      "USE": 5046,
      "VN": 5047,
      "VNO": 5048,
      "X1": 5049,
      "cis": 5050,
      "cia": 5051,
      "cket": 5052,
      "dry": 5053,
      "ey": 5054,
      "estate": 5055,
      "final": 5056,
      "gan": 5057,
      "gust": 5058,
      "gard": 5059,
      "gue": 5060,
      "glar": 5061,
      "gener": 5062,
      "hund": 5063,
      "mad": 5064,
      "oh": 5065,
      "ome": 5066,
      "patch": 5067,
      "pounding": 5068,
      "ring": 5069,
      "rying": 5070,
      "tic": 5071,
      "uct": 5072,
      "ually": 5073,
      "vate": 5074,
      "vil": 5075,
      "wish": 5076,
      "ás": 5077,
      "inst": 5078,
      "height": 5079,
      "eno": 5080,
      "thedr": 5081,
      "ert": 5082,
      "eristic": 5083,
      "ony": 5084,
      "onso": 5085,
      "aturely": 5086,
      "entry": 5087,
      "ased": 5088,
      "asking": 5089,
      "leged": 5090,
      "toll": 5091,
      "resa": 5092,
      "ress": 5093,
      "ripped": 5094,
      "verifiable": 5095,
      "itional": 5096,
      "aced": 5097,
      "acher": 5098,
      "ros": 5099,
      "lombo": 5100,
      "mpo": 5101,
      "olice": 5102,
      "These": 5103,
      "degre": 5104,
      "acteristic": 5105,
      "forgot": 5106,
      "incidents": 5107,
      "lock": 5108,
      "throw": 5109,
      "thump": 5110,
      "belt": 5111,
      "ird": 5112,
      "cast": 5113,
      "justified": 5114,
      "assoc": 5115,
      "queno": 5116,
      "unfair": 5117,
      "unloading": 5118,
      "unpredic": 5119,
      "genuinely": 5120,
      "collusion": 5121,
      "frank": 5122,
      "exha": 5123,
      "exhibit": 5124,
      "haz": 5125,
      "impatient": 5126,
      "implies": 5127,
      "spaces": 5128,
      "noted": 5129,
      "trap": 5130,
      "perce": 5131,
      "singly": 5132,
      "roadworks": 5133,
      "eping": 5134,
      "antic": 5135,
      "bled": 5136,
      "blur": 5137,
      "weird": 5138,
      "00120": 5139,
      "00125": 5140,
      "passengers": 5141,
      "repainting": 5142,
      "intens": 5143,
      "Colombo": 5144,
      "00216": 5145,
      "Pequeno": 5146,
      "needing": 5147,
      "maneuvered": 5148,
      "Claimant": 5149,
      "Marina": 5150,
      "processing": 5151,
      "fied": 5152,
      "secondary": 5153,
      "centers": 5154,
      "marina": 5155,
      "Santo": 5156,
      "Alleged": 5157,
      "property": 5158,
      "forming": 5159,
      "formally": 5160,
      "wheels": 5161,
      "gray": 5162,
      "sistency": 5163,
      "support": 5164,
      "invit": 5165,
      "asses": 5166,
      "roll": 5167,
      "TOO": 5168,
      "SUDDEN": 5169,
      "inconsistency": 5170,
      "lesson": 5171,
      "disappearing": 5172,
      "display": 5173,
      "attend": 5174,
      "prematurely": 5175,
      "provides": 5176,
      "coastline": 5177,
      "Luís": 5178,
      "railing": 5179,
      "breakage": 5180,
      "special": 5181,
      "Viana": 5182,
      "fuss": 5183,
      "aware": 5184,
      "awaren": 5185,
      "nudging": 5186,
      "violation": 5187,
      "cracking": 5188,
      "boy": 5189,
      "boar": 5190,
      "preparing": 5191,
      "weekly": 5192,
      "engaged": 5193,
      "ABSOL": 5194,
      "confirming": 5195,
      "emptive": 5196,
      "initially": 5197,
      "Campo": 5198,
      "concern": 5199,
      "lawless": 5200,
      "chilling": 5201,
      "lacks": 5202,
      "meetings": 5203,
      "crunching": 5204,
      "filming": 5205,
      "suffering": 5206,
      "brought": 5207,
      "brás": 5208,
      "adjuster": 5209,
      "adjusters": 5210,
      "layout": 5211,
      "seatbelt": 5212,
      "Liv": 5213,
      "centre": 5214,
      "North": 5215,
      "valuation": 5216,
      "EVR": 5217,
      "nonsense": 5218,
      "Exaggerating": 5219,
      "functioning": 5220,
      "rubbing": 5221,
      "Roadside": 5222,
      "catastrophe": 5223,
      "falling": 5224,
      "reaching": 5225,
      "surprisingly": 5226,
      "commun": 5227,
      "commenced": 5228,
      "experiencing": 5229,
      "Witness": 5230,
      "swift": 5231,
      "potential": 5232,
      "Motorway": 5233,
      "explained": 5234,
      "friendly": 5235,
      "briefly": 5236,
      "records": 5237,
      "Canal": 5238,
      "additional": 5239,
      "considerable": 5240,
      "ASHED": 5241,
      "Francis": 5242,
      "decelerate": 5243,
      "script": 5244,
      "supporting": 5245,
      "SETT": 5246,
      "energy": 5247,
      "promptly": 5248,
      "COULD": 5249,
      "Frontal": 5250,
      "glanced": 5251,
      "fracture": 5252,
      "disregarded": 5253,
      "characteristic": 5254,
      "subsequent": 5255,
      "outrageous": 5256,
      "Afonso": 5257,
      "DIDN": 5258,
      "surroundings": 5259,
      "spiderweb": 5260,
      "Accident": 5261,
      "Belém": 5262,
      "WAITING": 5263,
      "bench": 5264,
      "fascia": 5265,
      "snapped": 5266,
      "flickering": 5267,
      "fleeing": 5268,
      "discernible": 5269,
      "Appro": 5270,
      "Furthermore": 5271,
      "Malveira": 5272,
      "Micra": 5273,
      "Ribe": 5274,
      "Rossio": 5275,
      "Serra": 5276,
      "SLOWLY": 5277,
      "eye": 5278,
      "glaring": 5279,
      "hundred": 5280,
      "instinct": 5281,
      "thedral": 5282,
      "resale": 5283,
      "frankly": 5284,
      "intensity": 5285,
      "SUDDENLY": 5286,
      "awareness": 5287,
      "ABSOLUT": 5288,
      "Francisco": 5289,
      "200": 5290,
      "320": 5291,
      "A25": 5292,
      "BAN": 5293,
      "Bair": 5294,
      "BAM": 5295,
      "BRA": 5296,
      "Did": 5297,
      "During": 5298,
      "DARK": 5299,
      "Duster": 5300,
      "Hall": 5301,
      "HIS": 5302,
      "IA": 5303,
      "IZ": 5304,
      "LOT": 5305,
      "MO": 5306,
      "MT": 5307,
      "Monte": 5308,
      "NT": 5309,
      "Not": 5310,
      "Neither": 5311,
      "Ob": 5312,
      "Oe": 5313,
      "Or": 5314,
      "OVER": 5315,
      "Pal": 5316,
      "Pic": 5317,
      "PCX": 5318,
      "Police": 5319,
      "Q3": 5320,
      "Quel": 5321,
      "RS": 5322,
      "Rover": 5323,
      "Rio": 5324,
      "RID": 5325,
      "SP": 5326,
      "SNT": 5327,
      "TUR": 5328,
      "UGH": 5329,
      "WOR": 5330,
      "YED": 5331,
      "ais": 5332,
      "aking": 5333,
      "cous": 5334,
      "dust": 5335,
      "dge": 5336,
      "ety": 5337,
      "fab": 5338,
      "flic": 5339,
      "free": 5340,
      "flawless": 5341,
      "hu": 5342,
      "hy": 5343,
      "hão": 5344,
      "holding": 5345,
      "ier": 5346,
      "ios": 5347,
      "jag": 5348,
      "lur": 5349,
      "mmer": 5350,
      "matic": 5351,
      "não": 5352,
      "oil": 5353,
      "rant": 5354,
      "render": 5355,
      "sad": 5356,
      "tun": 5357,
      "tling": 5358,
      "uv": 5359,
      "uz": 5360,
      "usible": 5361,
      "yway": 5362,
      "órd": 5363,
      "ins": 5364,
      "inde": 5365,
      "infuri": 5366,
      "hes": 5367,
      "enorm": 5368,
      "eric": 5369,
      "atial": 5370,
      "ange": 5371,
      "ances": 5372,
      "asion": 5373,
      "lear": 5374,
      "idades": 5375,
      "rity": 5376,
      "vember": 5377,
      "acked": 5378,
      "access": 5379,
      "accur": 5380,
      "oup": 5381,
      "alive": 5382,
      "alert": 5383,
      "ramp": 5384,
      "beep": 5385,
      "myster": 5386,
      "pean": 5387,
      "log": 5388,
      "losing": 5389,
      "ication": 5390,
      "official": 5391,
      "adrant": 5392,
      "decor": 5393,
      "devast": 5394,
      "parica": 5395,
      "aging": 5396,
      "activ": 5397,
      "scru": 5398,
      "terminal": 5399,
      "iras": 5400,
      "rating": 5401,
      "ilit": 5402,
      "abr": 5403,
      "ques": 5404,
      "quadrant": 5405,
      "unsure": 5406,
      "unhurt": 5407,
      "unverified": 5408,
      "unidades": 5409,
      "shut": 5410,
      "shunt": 5411,
      "tel": 5412,
      "dodge": 5413,
      "sobri": 5414,
      "sober": 5415,
      "exter": 5416,
      "amoun": 5417,
      "spatial": 5418,
      "hitch": 5419,
      "meditated": 5420,
      "cony": 5421,
      "proble": 5422,
      "hardly": 5423,
      "signalling": 5424,
      "distances": 5425,
      "00124": 5426,
      "00122": 5427,
      "00129": 5428,
      "ization": 5429,
      "paneling": 5430,
      "avoidance": 5431,
      "ceding": 5432,
      "sometime": 5433,
      "THRO": 5434,
      "premeditated": 5435,
      "winding": 5436,
      "00230": 5437,
      "00240": 5438,
      "00222": 5439,
      "manoe": 5440,
      "plus": 5441,
      "terrified": 5442,
      "matching": 5443,
      "maneuvers": 5444,
      "mut": 5445,
      "corners": 5446,
      "fenders": 5447,
      "narrowed": 5448,
      "narrowness": 5449,
      "bizarre": 5450,
      "tighter": 5451,
      "however": 5452,
      "ASK": 5453,
      "operate": 5454,
      "ONG": 5455,
      "Alpor": 5456,
      "biker": 5457,
      "Anyway": 5458,
      "particular": 5459,
      "group": 5460,
      "November": 5461,
      "ROUND": 5462,
      "ROYED": 5463,
      "embank": 5464,
      "dealer": 5465,
      "DEST": 5466,
      "involving": 5467,
      "balcony": 5468,
      "hurting": 5469,
      "nerves": 5470,
      "grazing": 5471,
      "barriers": 5472,
      "crit": 5473,
      "incredible": 5474,
      "slip": 5475,
      "NEAR": 5476,
      "ORT": 5477,
      "travel": 5478,
      "driveable": 5479,
      "papers": 5480,
      "primar": 5481,
      "private": 5482,
      "Comunidades": 5483,
      "ICUL": 5484,
      "synch": 5485,
      "headlamps": 5486,
      "reasonable": 5487,
      "persona": 5488,
      "specifics": 5489,
      "finding": 5490,
      "recklessness": 5491,
      "presence": 5492,
      "plans": 5493,
      "CAPS": 5494,
      "incline": 5495,
      "messy": 5496,
      "creeping": 5497,
      "Cathedral": 5498,
      "Caparica": 5499,
      "pickup": 5500,
      "shifting": 5501,
      "DRAG": 5502,
      "SEE": 5503,
      "begin": 5504,
      "skir": 5505,
      "mechanics": 5506,
      "destroying": 5507,
      "vices": 5508,
      "victim": 5509,
      "riverside": 5510,
      "opportunist": 5511,
      "original": 5512,
      "BUMPED": 5513,
      "Suspicious": 5514,
      "Miseric": 5515,
      "uesas": 5516,
      "Excessive": 5517,
      "painted": 5518,
      "helpful": 5519,
      "finishing": 5520,
      "recording": 5521,
      "frightened": 5522,
      "startling": 5523,
      "CRACKED": 5524,
      "WHERE": 5525,
      "friction": 5526,
      "scared": 5527,
      "wonder": 5528,
      "insisted": 5529,
      "kilometer": 5530,
      "continuing": 5531,
      "continuous": 5532,
      "kinds": 5533,
      "playing": 5534,
      "excessively": 5535,
      "tracks": 5536,
      "explaining": 5537,
      "Portuguesas": 5538,
      "Detected": 5539,
      "address": 5540,
      "inwards": 5541,
      "listening": 5542,
      "deceleration": 5543,
      "malicious": 5544,
      "traumatic": 5545,
      "Before": 5546,
      "DAMAGE": 5547,
      "harbor": 5548,
      "appropriate": 5549,
      "TAKING": 5550,
      "easier": 5551,
      "course": 5552,
      "testify": 5553,
      "exceeding": 5554,
      "security": 5555,
      "WHILE": 5556,
      "alibi": 5557,
      "scattered": 5558,
      "text": 5559,
      "blinker": 5560,
      "increasing": 5561,
      "European": 5562,
      "shadows": 5563,
      "expenses": 5564,
      "reflex": 5565,
      "gouges": 5566,
      "rotunda": 5567,
      "expedite": 5568,
      "ifferent": 5569,
      "triggered": 5570,
      "PLATE": 5571,
      "SMASHED": 5572,
      "associated": 5573,
      "specialized": 5574,
      "SETTLED": 5575,
      "Approaching": 5576,
      "instinctively": 5577,
      "ABSOLUTELY": 5578,
      "320d": 5579,
      "Bairro": 5580,
      "Didn": 5581,
      "Oeiras": 5582,
      "Queluz": 5583,
      "RIDICUL": 5584,
      "TURN": 5585,
      "aisle": 5586,
      "fabric": 5587,
      "jagged": 5588,
      "lurched": 5589,
      "uvre": 5590,
      "órdia": 5591,
      "infuriating": 5592,
      "enormous": 5593,
      "mysterious": 5594,
      "activated": 5595,
      "sobriety": 5596,
      "THROUGH": 5597,
      "manoeuvre": 5598,
      "Alportel": 5599,
      "ROUNDABOUT": 5600,
      "embankment": 5601,
      "DESTROYED": 5602,
      "synchron": 5603,
      "Misericórdia": 5604,
      "RIDICULOUS": 5605,
      "114": 5606,
      "180": 5607,
      "Act": 5608,
      "Bar": 5609,
      "Bol": 5610,
      "BAR": 5611,
      "BLA": 5612,
      "BLE": 5613,
      "BEL": 5614,
      "Chi": 5615,
      "Cha": 5616,
      "CAT": 5617,
      "Clar": 5618,
      "Cros": 5619,
      "Don": 5620,
      "DIS": 5621,
      "Estre": 5622,
      "Fra": 5623,
      "FIND": 5624,
      "GM": 5625,
      "Her": 5626,
      "HOU": 5627,
      "HIND": 5628,
      "IEV": 5629,
      "LING": 5630,
      "Ma": 5631,
      "Mend": 5632,
      "MAN": 5633,
      "MIR": 5634,
      "Oc": 5635,
      "Ok": 5636,
      "PR": 5637,
      "SA": 5638,
      "Send": 5639,
      "SIN": 5640,
      "SER": 5641,
      "Scan": 5642,
      "Since": 5643,
      "SANT": 5644,
      "SORT": 5645,
      "TT": 5646,
      "Tot": 5647,
      "TING": 5648,
      "UD": 5649,
      "VGS": 5650,
      "WAR": 5651,
      "audi": 5652,
      "brush": 5653,
      "cla": 5654,
      "cally": 5655,
      "crushing": 5656,
      "dustrial": 5657,
      "ece": 5658,
      "fla": 5659,
      "flo": 5660,
      "fli": 5661,
      "grid": 5662,
      "ied": 5663,
      "iating": 5664,
      "iping": 5665,
      "iles": 5666,
      "iece": 5667,
      "kno": 5668,
      "kward": 5669,
      "lin": 5670,
      "land": 5671,
      "latch": 5672,
      "lantic": 5673,
      "miles": 5674,
      "niece": 5675,
      "ove": 5676,
      "oked": 5677,
      "pure": 5678,
      "ptive": 5679,
      "prag": 5680,
      "rse": 5681,
      "rand": 5682,
      "rate": 5683,
      "sand": 5684,
      "site": 5685,
      "send": 5686,
      "sence": 5687,
      "tes": 5688,
      "tten": 5689,
      "tuck": 5690,
      "ute": 5691,
      "uced": 5692,
      "vant": 5693,
      "wob": 5694,
      "inent": 5695,
      "enance": 5696,
      "therap": 5697,
      "stating": 5698,
      "stery": 5699,
      "storm": 5700,
      "onça": 5701,
      "atting": 5702,
      "atically": 5703,
      "ares": 5704,
      "ento": 5705,
      "ason": 5706,
      "aside": 5707,
      "asant": 5708,
      "hig": 5709,
      "hicular": 5710,
      "lead": 5711,
      "idling": 5712,
      "idual": 5713,
      "top": 5714,
      "tober": 5715,
      "reim": 5716,
      "returning": 5717,
      "resta": 5718,
      "reliable": 5719,
      "organ": 5720,
      "vehicular": 5721,
      "sess": 5722,
      "oura": 5723,
      "lausible": 5724,
      "impec": 5725,
      "atever": 5726,
      "mento": 5727,
      "bunch": 5728,
      "burse": 5729,
      "dad": 5730,
      "admin": 5731,
      "esca": 5732,
      "ational": 5733,
      "outskir": 5734,
      "det": 5735,
      "devices": 5736,
      "surd": 5737,
      "suring": 5738,
      "lihood": 5739,
      "lives": 5740,
      "sche": 5741,
      "scam": 5742,
      "uding": 5743,
      "indiv": 5744,
      "ulent": 5745,
      "cap": 5746,
      "cable": 5747,
      "above": 5748,
      "absurd": 5749,
      "unlit": 5750,
      "unload": 5751,
      "shining": 5752,
      "teen": 5753,
      "istrative": 5754,
      "urant": 5755,
      "sole": 5756,
      "sore": 5757,
      "exam": 5758,
      "fraudulent": 5759,
      "GONE": 5760,
      "spans": 5761,
      "spread": 5762,
      "swa": 5763,
      "moped": 5764,
      "rupted": 5765,
      "notified": 5766,
      "contradictory": 5767,
      "constit": 5768,
      "lamppost": 5769,
      "perip": 5770,
      "protr": 5771,
      "tire": 5772,
      "areas": 5773,
      "maint": 5774,
      "mathem": 5775,
      "tran": 5776,
      "roadway": 5777,
      "roadworth": 5778,
      "worry": 5779,
      "signpost": 5780,
      "composed": 5781,
      "phs": 5782,
      "bling": 5783,
      "blic": 5784,
      "pointing": 5785,
      "ills": 5786,
      "complex": 5787,
      "odd": 5788,
      "slower": 5789,
      "THOR": 5790,
      "backseat": 5791,
      "previous": 5792,
      "preceding": 5793,
      "visual": 5794,
      "cliff": 5795,
      "anyway": 5796,
      "Coordinated": 5797,
      "scrapes": 5798,
      "placed": 5799,
      "Industrial": 5800,
      "comfort": 5801,
      "reduced": 5802,
      "signalization": 5803,
      "INA": 5804,
      "ashing": 5805,
      "EN1": 5806,
      "aio": 5807,
      "ERY": 5808,
      "navigated": 5809,
      "105": 5810,
      "mistakes": 5811,
      "Poor": 5812,
      "lamoura": 5813,
      "THEM": 5814,
      "culpri": 5815,
      "ARDR": 5816,
      "ARINA": 5817,
      "vocally": 5818,
      "ruption": 5819,
      "handling": 5820,
      "correspon": 5821,
      "respray": 5822,
      "bank": 5823,
      "graphs": 5824,
      "fixing": 5825,
      "fixture": 5826,
      "realizing": 5827,
      "ROR": 5828,
      "ifies": 5829,
      "supposed": 5830,
      "bollards": 5831,
      "READ": 5832,
      "apologizing": 5833,
      "SURE": 5834,
      "reports": 5835,
      "whatever": 5836,
      "gather": 5837,
      "attribut": 5838,
      "criminal": 5839,
      "straighten": 5840,
      "lications": 5841,
      "classes": 5842,
      "CRASH": 5843,
      "explo": 5844,
      "motorcycles": 5845,
      "COI": 5846,
      "Vilamoura": 5847,
      "goods": 5848,
      "awkward": 5849,
      "heral": 5850,
      "droplan": 5851,
      "heavier": 5852,
      "crazy": 5853,
      "limits": 5854,
      "llent": 5855,
      "zebra": 5856,
      "Atlantic": 5857,
      "UNBEL": 5858,
      "wouldn": 5859,
      "younger": 5860,
      "defensively": 5861,
      "OUTRA": 5862,
      "photographs": 5863,
      "transmission": 5864,
      "skills": 5865,
      "helping": 5866,
      "mechanic": 5867,
      "ALREAD": 5868,
      "sideswiping": 5869,
      "transferred": 5870,
      "jeep": 5871,
      "pleasant": 5872,
      "directions": 5873,
      "execute": 5874,
      "Super": 5875,
      "filter": 5876,
      "written": 5877,
      "eyesight": 5878,
      "panic": 5879,
      "threw": 5880,
      "painting": 5881,
      "BEHIND": 5882,
      "Impossible": 5883,
      "furthermore": 5884,
      "build": 5885,
      "foggy": 5886,
      "Circular": 5887,
      "grounding": 5888,
      "inflating": 5889,
      "EVERY": 5890,
      "LIGHTS": 5891,
      "Conflic": 5892,
      "acknowledging": 5893,
      "decades": 5894,
      "insists": 5895,
      "Henriques": 5896,
      "unequi": 5897,
      "ESTIG": 5898,
      "Tiago": 5899,
      "facilit": 5900,
      "mounting": 5901,
      "trem": 5902,
      "treacher": 5903,
      "erratically": 5904,
      "cleaned": 5905,
      "says": 5906,
      "strangely": 5907,
      "BRG": 5908,
      "PLASH": 5909,
      "LIB": 5910,
      "jerk": 5911,
      "malfunctioning": 5912,
      "scripted": 5913,
      "nelas": 5914,
      "hesitation": 5915,
      "appointments": 5916,
      "campus": 5917,
      "establish": 5918,
      "easily": 5919,
      "performance": 5920,
      "BOOK": 5921,
      "FILE": 5922,
      "Fernão": 5923,
      "courtes": 5924,
      "COMPLAINTS": 5925,
      "skyro": 5926,
      "AUTHOR": 5927,
      "COURT": 5928,
      "FEET": 5929,
      "glancing": 5930,
      "fractured": 5931,
      "Airbags": 5932,
      "WHIPLASH": 5933,
      "intimidating": 5934,
      "Douro": 5935,
      "PAID": 5936,
      "livelihood": 5937,
      "amicable": 5938,
      "fifty": 5939,
      "fifteen": 5940,
      "targe": 5941,
      "excellent": 5942,
      "discuss": 5943,
      "DAMAGES": 5944,
      "GUARDR": 5945,
      "Municipal": 5946,
      "bottle": 5947,
      "hairline": 5948,
      "INVESTIG": 5949,
      "PRETT": 5950,
      "garden": 5951,
      "degrees": 5952,
      "unpredictable": 5953,
      "hazard": 5954,
      "emptively": 5955,
      "COULDN": 5956,
      "IZED": 5957,
      "Ornelas": 5958,
      "SPOT": 5959,
      "cousin": 5960,
      "hydroplan": 5961,
      "indeed": 5962,
      "decorative": 5963,
      "scrutiny": 5964,
      "amount": 5965,
      "mutual": 5966,
      "dealership": 5967,
      "primary": 5968,
      "textbook": 5969,
      "Bolhão": 5970,
      "Chiado": 5971,
      "Chain": 5972,
      "CATARINA": 5973,
      "Clara": 5974,
      "Crossing": 5975,
      "Estrela": 5976,
      "Fraud": 5977,
      "HOURS": 5978,
      "IEVABLE": 5979,
      "Mendonça": 5980,
      "MIRROR": 5981,
      "October": 5982,
      "Okay": 5983,
      "Scania": 5984,
      "SANTA": 5985,
      "WARNING": 5986,
      "audible": 5987,
      "flag": 5988,
      "pragmatic": 5989,
      "therapy": 5990,
      "reimburse": 5991,
      "restaurant": 5992,
      "organized": 5993,
      "impeccable": 5994,
      "administrative": 5995,
      "outskirts": 5996,
      "individual": 5997,
      "constitutes": 5998,
      "peripheral": 5999,
      "protruding": 6000,
      "maintenance": 6001,
      "mathematically": 6002,
      "roadworthy": 6003,
      "culprit": 6004,
      "corresponding": 6005,
      "UNBELIEVABLE": 6006,
      "OUTRAGE": 6007,
      "ALREADY": 6008,
      "Conflicting": 6009,
      "unequivocally": 6010,
      "facilitate": 6011,
      "treacherous": 6012,
      "courtesy": 6013,
      "GUARDRAIL": 6014,
      "PRETTY": 6015,
      "reimbursement": 6016,
      "Ab": 6017,
      "Au": 6018,
      "Bento": 6019,
      "CB": 6020,
      "CU": 6021,
      "Di": 6022,
      "Dist": 6023,
      "Due": 6024,
      "DAY": 6025,
      "EED": 6026,
      "FN": 6027,
      "FRA": 6028,
      "FLED": 6029,
      "GAI": 6030,
      "If": 6031,
      "JO": 6032,
      "Jos": 6033,
      "JOR": 6034,
      "LG": 6035,
      "Land": 6036,
      "LUN": 6037,
      "Mit": 6038,
      "MAR": 6039,
      "MMED": 6040,
      "ND": 6041,
      "N10": 6042,
      "N22": 6043,
      "NESS": 6044,
      "OCK": 6045,
      "PH": 6046,
      "Pre": 6047,
      "Pri": 6048,
      "Pes": 6049,
      "Paç": 6050,
      "RENT": 6051,
      "Spe": 6052,
      "SAN": 6053,
      "Sport": 6054,
      "SLA": 6055,
      "S60": 6056,
      "SWI": 6057,
      "Tu": 6058,
      "TEN": 6059,
      "Thur": 6060,
      "UM": 6061,
      "VA": 6062,
      "VO": 6063,
      "VIS": 6064,
      "Will": 6065,
      "WIT": 6066,
      "YES": 6067,
      "ait": 6068,
      "aes": 6069,
      "ball": 6070,
      "blam": 6071,
      "cust": 6072,
      "cage": 6073,
      "cson": 6074,
      "dra": 6075,
      "dget": 6076,
      "drag": 6077,
      "egre": 6078,
      "fly": 6079,
      "fal": 6080,
      "fur": 6081,
      "fried": 6082,
      "gas": 6083,
      "gir": 6084,
      "gious": 6085,
      "hug": 6086,
      "ile": 6087,
      "ili": 6088,
      "iper": 6089,
      "ky": 6090,
      "mud": 6091,
      "mory": 6092,
      "math": 6093,
      "nit": 6094,
      "nap": 6095,
      "obe": 6096,
      "option": 6097,
      "pen": 6098,
      "pud": 6099,
      "packed": 6100,
      "rates": 6101,
      "sat": 6102,
      "sis": 6103,
      "sla": 6104,
      "sday": 6105,
      "sideswipe": 6106,
      "tact": 6107,
      "ubal": 6108,
      "vs": 6109,
      "vão": 6110,
      "wear": 6111,
      "wiper": 6112,
      "ysio": 6113,
      "ções": 6114,
      "éri": 6115,
      "infr": 6116,
      "staging": 6117,
      "strand": 6118,
      "ata": 6119,
      "atent": 6120,
      "atant": 6121,
      "ano": 6122,
      "anto": 6123,
      "ared": 6124,
      "arro": 6125,
      "idence": 6126,
      "rece": 6127,
      "review": 6128,
      "represent": 6129,
      "rebuild": 6130,
      "rived": 6131,
      "risk": 6132,
      "seum": 6133,
      "ities": 6134,
      "ishi": 6135,
      "island": 6136,
      "lysis": 6137,
      "acle": 6138,
      "acking": 6139,
      "lage": 6140,
      "alar": 6141,
      "ality": 6142,
      "imize": 6143,
      "rada": 6144,
      "beli": 6145,
      "become": 6146,
      "sucks": 6147,
      "summer": 6148,
      "pet": 6149,
      "peel": 6150,
      "peace": 6151,
      "logy": 6152,
      "mentos": 6153,
      "bul": 6154,
      "buses": 6155,
      "budget": 6156,
      "mptom": 6157,
      "mela": 6158,
      "memory": 6159,
      "deer": 6160,
      "dete": 6161,
      "devaluation": 6162,
      "ligent": 6163,
      "livious": 6164,
      "card": 6165,
      "cart": 6166,
      "carrying": 6167,
      "ager": 6168,
      "usted": 6169,
      "term": 6170,
      "caved": 6171,
      "rattling": 6172,
      "nected": 6173,
      "neath": 6174,
      "justification": 6175,
      "justifies": 6176,
      "gear": 6177,
      "geome": 6178,
      "ardo": 6179,
      "quality": 6180,
      "cod": 6181,
      "cool": 6182,
      "cobri": 6183,
      "coordin": 6184,
      "uninjured": 6185,
      "unintentional": 6186,
      "unjustified": 6187,
      "unbeli": 6188,
      "shot": 6189,
      "speak": 6190,
      "solo": 6191,
      "excu": 6192,
      "implying": 6193,
      "ountain": 6194,
      "items": 6195,
      "save": 6196,
      "swatting": 6197,
      "ches": 6198,
      "conven": 6199,
      "consul": 6200,
      "constantly": 6201,
      "connected": 6202,
      "waste": 6203,
      "tible": 6204,
      "contacts": 6205,
      "contacting": 6206,
      "denial": 6207,
      "density": 6208,
      "broker": 6209,
      "rightmost": 6210,
      "timed": 6211,
      "uphol": 6212,
      "male": 6213,
      "mações": 6214,
      "Porsche": 6215,
      "signed": 6216,
      "signalled": 6217,
      "compared": 6218,
      "physio": 6219,
      "passage": 6220,
      "blatant": 6221,
      "pop": 6222,
      "Bocage": 6223,
      "gos": 6224,
      "erely": 6225,
      "repainted": 6226,
      "overpass": 6227,
      "cuses": 6228,
      "avoids": 6229,
      "avoided": 6230,
      "downplaying": 6231,
      "greater": 6232,
      "clip": 6233,
      "minute": 6234,
      "Comb": 6235,
      "sitive": 6236,
      "ISION": 6237,
      "happening": 6238,
      "Merging": 6239,
      "manife": 6240,
      "mansla": 6241,
      "aftermath": 6242,
      "detailing": 6243,
      "comes": 6244,
      "misjudge": 6245,
      "INTER": 6246,
      "shape": 6247,
      "shaky": 6248,
      "bushes": 6249,
      "museum": 6250,
      "102": 6251,
      "104": 6252,
      "106": 6253,
      "107": 6254,
      "108": 6255,
      "calib": 6256,
      "ATOR": 6257,
      "ATIC": 6258,
      "canal": 6259,
      "shook": 6260,
      "ASTER": 6261,
      "THEIR": 6262,
      "operational": 6263,
      "evable": 6264,
      "AROU": 6265,
      "Alc": 6266,
      "covering": 6267,
      "oblivious": 6268,
      "umn": 6269,
      "structed": 6270,
      "runs": 6271,
      "checks": 6272,
      "corrupted": 6273,
      "sunroof": 6274,
      "brick": 6275,
      "deser": 6276,
      "squarely": 6277,
      "supplies": 6278,
      "Focuses": 6279,
      "LYING": 6280,
      "REVER": 6281,
      "polished": 6282,
      "balance": 6283,
      "ACE": 6284,
      "structing": 6285,
      "Setubal": 6286,
      "disruption": 6287,
      "LLISION": 6288,
      "underneath": 6289,
      "evident": 6290,
      "newer": 6291,
      "ENTION": 6292,
      "hinges": 6293,
      "acceptance": 6294,
      "symptom": 6295,
      "crossroads": 6296,
      "COLLISION": 6297,
      "SHION": 6298,
      "SHOCK": 6299,
      "yelled": 6300,
      "legit": 6301,
      "STB": 6302,
      "STUP": 6303,
      "eventually": 6304,
      "AVR": 6305,
      "engage": 6306,
      "pastel": 6307,
      "TERRI": 6308,
      "necessitated": 6309,
      "CAUSE": 6310,
      "emphas": 6311,
      "deduct": 6312,
      "column": 6313,
      "initiate": 6314,
      "initiating": 6315,
      "identifiable": 6316,
      "Narrow": 6317,
      "attempts": 6318,
      "MAKE": 6319,
      "MAJOR": 6320,
      "HEAR": 6321,
      "subishi": 6322,
      "requirements": 6323,
      "included": 6324,
      "ALSO": 6325,
      "ALIA": 6326,
      "lawfully": 6327,
      "Recla": 6328,
      "Missing": 6329,
      "BECAUSE": 6330,
      "Descobri": 6331,
      "CTION": 6332,
      "restored": 6333,
      "Portas": 6334,
      "finan": 6335,
      "IDIOTIC": 6336,
      "WHAT": 6337,
      "EVO": 6338,
      "drizzly": 6339,
      "putting": 6340,
      "carelessness": 6341,
      "authorized": 6342,
      "typically": 6343,
      "surprise": 6344,
      "crowd": 6345,
      "bonus": 6346,
      "Only": 6347,
      "factory": 6348,
      "mounts": 6349,
      "indicate": 6350,
      "corroborates": 6351,
      "Contrived": 6352,
      "PROCEED": 6353,
      "trams": 6354,
      "blindingly": 6355,
      "Definitely": 6356,
      "EFFE": 6357,
      "natural": 6358,
      "buckling": 6359,
      "addition": 6360,
      "electric": 6361,
      "scuffing": 6362,
      "aimed": 6363,
      "basic": 6364,
      "malice": 6365,
      "regrett": 6366,
      "ENDED": 6367,
      "cadores": 6368,
      "regular": 6369,
      "LISTEN": 6370,
      "Trying": 6371,
      "flew": 6372,
      "harsh": 6373,
      "placement": 6374,
      "prioriti": 6375,
      "wreckage": 6376,
      "patiently": 6377,
      "graphic": 6378,
      "REPAIRED": 6379,
      "FILING": 6380,
      "MORON": 6381,
      "SCAM": 6382,
      "picture": 6383,
      "trips": 6384,
      "AUDI": 6385,
      "exceeds": 6386,
      "providers": 6387,
      "Airport": 6388,
      "analysis": 6389,
      "subsequently": 6390,
      "intimidate": 6391,
      "Doutor": 6392,
      "PAINT": 6393,
      "alibis": 6394,
      "texting": 6395,
      "amicably": 6396,
      "blink": 6397,
      "delivering": 6398,
      "increase": 6399,
      "blowing": 6400,
      "released": 6401,
      "relevant": 6402,
      "discussed": 6403,
      "crumpled": 6404,
      "DAMAGED": 6405,
      "Silva": 6406,
      "Silveira": 6407,
      "facts": 6408,
      "committed": 6409,
      "village": 6410,
      "thrown": 6411,
      "castle": 6412,
      "exhausted": 6413,
      "invitation": 6414,
      "Livro": 6415,
      "Ribeira": 6416,
      "Obser": 6417,
      "Palmela": 6418,
      "Picanto": 6419,
      "human": 6420,
      "devastated": 6421,
      "exterior": 6422,
      "particularly": 6423,
      "fabricated": 6424,
      "synchronized": 6425,
      "BLACK": 6426,
      "SERI": 6427,
      "Totally": 6428,
      "knocked": 6429,
      "lines": 6430,
      "detached": 6431,
      "swapped": 6432,
      "gathered": 6433,
      "exploit": 6434,
      "Supermarket": 6435,
      "EVERYWHERE": 6436,
      "skyrocket": 6437,
      "AUTHORIZED": 6438,
      "Absence": 6439,
      "CUSHION": 6440,
      "José": 6441,
      "LUNATIC": 6442,
      "Mitsubishi": 6443,
      "NESSES": 6444,
      "Pescadores": 6445,
      "Paço": 6446,
      "RENTAL": 6447,
      "Speed": 6448,
      "Sportage": 6449,
      "SLAMMED": 6450,
      "Tucson": 6451,
      "Thursday": 6452,
      "WITNESSES": 6453,
      "aesthe": 6454,
      "egregious": 6455,
      "false": 6456,
      "furnit": 6457,
      "girl": 6458,
      "puddle": 6459,
      "stranded": 6460,
      "atentes": 6461,
      "geometry": 6462,
      "unbelievable": 6463,
      "excuse": 6464,
      "upholstery": 6465,
      "physiotherapy": 6466,
      "Combatentes": 6467,
      "manifest": 6468,
      "manslaughter": 6469,
      "AROUND": 6470,
      "REVERS": 6471,
      "STUPID": 6472,
      "TERRIBLE": 6473,
      "deductible": 6474,
      "ALIADOS": 6475,
      "Reclamações": 6476,
      "Descobrimentos": 6477,
      "EFFECT": 6478,
      "pictures": 6479,
      "CUSHIONED": 6480,
      "furniture": 6481,
      "Ad": 6482,
      "Ap": 6483,
      "Aleg": 6484,
      "Aron": 6485,
      "Amad": 6486,
      "BG": 6487,
      "BL": 6488,
      "BN": 6489,
      "BOD": 6490,
      "Bus": 6491,
      "BOTH": 6492,
      "CD": 6493,
      "CZ": 6494,
      "CED": 6495,
      "CON": 6496,
      "Cabr": 6497,
      "Dio": 6498,
      "DRO": 6499,
      "DIRE": 6500,
      "FO": 6501,
      "FX": 6502,
      "Fre": 6503,
      "FEL": 6504,
      "GR": 6505,
      "Gal": 6506,
      "GEN": 6507,
      "Ho": 6508,
      "HIC": 6509,
      "Home": 6510,
      "IB": 6511,
      "IP": 6512,
      "IRO": 6513,
      "ILL": 6514,
      "IBAN": 6515,
      "Je": 6516,
      "JUL": 6517,
      "KEPT": 6518,
      "Ló": 6519,
      "LERAT": 6520,
      "LGS": 6521,
      "MOD": 6522,
      "NIS": 6523,
      "Nob": 6524,
      "Need": 6525,
      "N247": 6526,
      "N114": 6527,
      "OW": 6528,
      "Pa": 6529,
      "Pu": 6530,
      "Pro": 6531,
      "PAN": 6532,
      "PEN": 6533,
      "Pay": 6534,
      "PING": 6535,
      "Paio": 6536,
      "Qu": 6537,
      "QAI": 6538,
      "QASH": 6539,
      "Rent": 6540,
      "RED": 6541,
      "RAD": 6542,
      "SD": 6543,
      "Sá": 6544,
      "Sou": 6545,
      "Sina": 6546,
      "Spec": 6547,
      "SPE": 6548,
      "TED": 6549,
      "TUN": 6550,
      "TAI": 6551,
      "TENTION": 6552,
      "Unexpected": 6553,
      "VING": 6554,
      "Very": 6555,
      "VOL": 6556,
      "VLG": 6557,
      "WR": 6558,
      "WAY": 6559,
      "Wait": 6560,
      "YY": 6561,
      "Zoe": 6562,
      "ao": 6563,
      "amp": 6564,
      "aquar": 6565,
      "ahon": 6566,
      "adays": 6567,
      "bam": 6568,
      "batter": 6569,
      "bloo": 6570,
      "bran": 6571,
      "base": 6572,
      "blamed": 6573,
      "cm": 6574,
      "civ": 6575,
      "clock": 6576,
      "date": 6577,
      "dition": 6578,
      "dule": 6579,
      "different": 6580,
      "effic": 6581,
      "eating": 6582,
      "euro": 6583,
      "ejo": 6584,
      "fad": 6585,
      "frequ": 6586,
      "fountain": 6587,
      "gil": 6588,
      "gled": 6589,
      "grated": 6590,
      "hã": 6591,
      "hate": 6592,
      "harm": 6593,
      "ipped": 6594,
      "ived": 6595,
      "iency": 6596,
      "jest": 6597,
      "lv": 6598,
      "lashing": 6599,
      "mat": 6600,
      "mil": 6601,
      "mun": 6602,
      "mother": 6603,
      "mous": 6604,
      "oking": 6605,
      "oily": 6606,
      "py": 6607,
      "pag": 6608,
      "pul": 6609,
      "pack": 6610,
      "pio": 6611,
      "ptible": 6612,
      "rust": 6613,
      "rural": 6614,
      "sal": 6615,
      "sion": 6616,
      "slo": 6617,
      "sses": 6618,
      "snap": 6619,
      "tid": 6620,
      "tall": 6621,
      "tense": 6622,
      "ume": 6623,
      "umin": 6624,
      "vol": 6625,
      "vation": 6626,
      "via": 6627,
      "vention": 6628,
      "warr": 6629,
      "xand": 6630,
      "yan": 6631,
      "zipped": 6632,
      "Álv": 6633,
      "ÃO": 6634,
      "ácer": 6635,
      "ípio": 6636,
      "ink": 6637,
      "incur": 6638,
      "incoming": 6639,
      "inoper": 6640,
      "inattention": 6641,
      "income": 6642,
      "informed": 6643,
      "incorrect": 6644,
      "instructed": 6645,
      "hest": 6646,
      "encro": 6647,
      "theater": 6648,
      "erable": 6649,
      "ators": 6650,
      "atory": 6651,
      "anony": 6652,
      "arly": 6653,
      "arate": 6654,
      "aria": 6655,
      "aspe": 6656,
      "assure": 6657,
      "hiking": 6658,
      "lev": 6659,
      "leiro": 6660,
      "leaking": 6661,
      "toest": 6662,
      "toler": 6663,
      "torist": 6664,
      "reve": 6665,
      "retain": 6666,
      "recent": 6667,
      "reconstruction": 6668,
      "retired": 6669,
      "ris": 6670,
      "rising": 6671,
      "orter": 6672,
      "veill": 6673,
      "verized": 6674,
      "seven": 6675,
      "secur": 6676,
      "season": 6677,
      "ith": 6678,
      "iter": 6679,
      "acy": 6680,
      "acul": 6681,
      "oured": 6682,
      "laint": 6683,
      "laining": 6684,
      "aling": 6685,
      "allo": 6686,
      "immobi": 6687,
      "raught": 6688,
      "ramento": 6689,
      "sue": 6690,
      "rocks": 6691,
      "icion": 6692,
      "icípio": 6693,
      "bun": 6694,
      "separate": 6695,
      "adv": 6696,
      "ador": 6697,
      "advan": 6698,
      "admir": 6699,
      "mption": 6700,
      "mplaint": 6701,
      "means": 6702,
      "dego": 6703,
      "death": 6704,
      "device": 6705,
      "surveill": 6706,
      "lized": 6707,
      "agitated": 6708,
      "active": 6709,
      "forth": 6710,
      "claimant": 6711,
      "2020": 6712,
      "2019": 6713,
      "2018": 6714,
      "2021": 6715,
      "termin": 6716,
      "indifferent": 6717,
      "aneous": 6718,
      "ower": 6719,
      "irresponsible": 6720,
      "cave": 6721,
      "neiro": 6722,
      "unfore": 6723,
      "unus": 6724,
      "unusual": 6725,
      "unnecess": 6726,
      "unsight": 6727,
      "unlikely": 6728,
      "unlucky": 6729,
      "unhar": 6730,
      "unaware": 6731,
      "undriveable": 6732,
      "unnatural": 6733,
      "shine": 6734,
      "shred": 6735,
      "team": 6736,
      "urning": 6737,
      "soever": 6738,
      "explan": 6739,
      "impro": 6740,
      "impair": 6741,
      "implications": 6742,
      "taught": 6743,
      "size": 6744,
      "ounced": 6745,
      "iday": 6746,
      "spill": 6747,
      "sporter": 6748,
      "impacts": 6749,
      "swe": 6750,
      "movie": 6751,
      "module": 6752,
      "motorist": 6753,
      "fees": 6754,
      "female": 6755,
      "endous": 6756,
      "cheap": 6757,
      "paste": 6758,
      "ruin": 6759,
      "ruins": 6760,
      "notes": 6761,
      "misinter": 6762,
      "miscommun": 6763,
      "miserable": 6764,
      "contain": 6765,
      "conver": 6766,
      "consist": 6767,
      "nowadays": 6768,
      "perman": 6769,
      "propel": 6770,
      "profile": 6771,
      "produ": 6772,
      "propag": 6773,
      "icating": 6774,
      "denies": 6775,
      "gnarly": 6776,
      "rights": 6777,
      "headed": 6778,
      "worst": 6779,
      "worrying": 6780,
      "faith": 6781,
      "complaining": 6782,
      "stops": 6783,
      "changes": 6784,
      "distraught": 6785,
      "pocket": 6786,
      "turnoff": 6787,
      "illumin": 6788,
      "Book": 6789,
      "taillights": 6790,
      "miracle": 6791,
      "THAT": 6792,
      "intact": 6793,
      "Fortun": 6794,
      "visits": 6795,
      "exits": 6796,
      "minimize": 6797,
      "honesty": 6798,
      "windy": 6799,
      "Covil": 6800,
      "Complaint": 6801,
      "00221": 6802,
      "ISTA": 6803,
      "agency": 6804,
      "mangled": 6805,
      "Too": 6806,
      "Today": 6807,
      "merous": 6808,
      "steel": 6809,
      "offer": 6810,
      "signalized": 6811,
      "misjudging": 6812,
      "ENE": 6813,
      "costing": 6814,
      "tempor": 6815,
      "tempting": 6816,
      "music": 6817,
      "103": 6818,
      "109": 6819,
      "approval": 6820,
      "ATTENTION": 6821,
      "santo": 6822,
      "ANDAL": 6823,
      "mistaken": 6824,
      "wants": 6825,
      "evasion": 6826,
      "culano": 6827,
      "ARED": 6828,
      "torn": 6829,
      "Alto": 6830,
      "proceeds": 6831,
      "obstructing": 6832,
      "Animal": 6833,
      "staring": 6834,
      "handbrake": 6835,
      "willing": 6836,
      "setting": 6837,
      "extending": 6838,
      "Minimal": 6839,
      "partner": 6840,
      "midnight": 6841,
      "sunshine": 6842,
      "sounded": 6843,
      "vigil": 6844,
      "15h": 6845,
      "ROAD": 6846,
      "ROTUN": 6847,
      "admits": 6848,
      "bree": 6849,
      "REG": 6850,
      "RES": 6851,
      "TOLERAT": 6852,
      "involve": 6853,
      "involves": 6854,
      "SUR": 6855,
      "folded": 6856,
      "utility": 6857,
      "metalwork": 6858,
      "polish": 6859,
      "LEG": 6860,
      "follows": 6861,
      "servic": 6862,
      "darkness": 6863,
      "gauge": 6864,
      "closest": 6865,
      "dispu": 6866,
      "attack": 6867,
      "attached": 6868,
      "Monday": 6869,
      "Mondego": 6870,
      "Monsanto": 6871,
      "errors": 6872,
      "LLIGHT": 6873,
      "corrected": 6874,
      "Brake": 6875,
      "shared": 6876,
      "bigger": 6877,
      "Leite": 6878,
      "inspector": 6879,
      "lict": 6880,
      "whatsoever": 6881,
      "evidently": 6882,
      "ENTLY": 6883,
      "drivetrain": 6884,
      "dogs": 6885,
      "airbag": 6886,
      "possess": 6887,
      "scenery": 6888,
      "ICK": 6889,
      "specified": 6890,
      "commuters": 6891,
      "SHE": 6892,
      "dropped": 6893,
      "yelling": 6894,
      "IDENT": 6895,
      "finds": 6896,
      "warping": 6897,
      "pressing": 6898,
      "pressuring": 6899,
      "boss": 6900,
      "country": 6901,
      "emerging": 6902,
      "crashing": 6903,
      "Attempting": 6904,
      "positions": 6905,
      "marker": 6906,
      "AVISTA": 6907,
      "Transporter": 6908,
      "aligns": 6909,
      "TERDAY": 6910,
      "believing": 6911,
      "believed": 6912,
      "squeezed": 6913,
      "crept": 6914,
      "accountable": 6915,
      "collapse": 6916,
      "coloured": 6917,
      "numerous": 6918,
      "stripped": 6919,
      "identification": 6920,
      "identifying": 6921,
      "Came": 6922,
      "MAP": 6923,
      "sensation": 6924,
      "ACCIDENT": 6925,
      "SECTION": 6926,
      "HITTING": 6927,
      "cats": 6928,
      "helmet": 6929,
      "cobbled": 6930,
      "ALM": 6931,
      "ALONG": 6932,
      "lawful": 6933,
      "cobbles": 6934,
      "Real": 6935,
      "suggested": 6936,
      "exists": 6937,
      "existence": 6938,
      "opportun": 6939,
      "shower": 6940,
      "parently": 6941,
      "Such": 6942,
      "filling": 6943,
      "suffer": 6944,
      "assessor": 6945,
      "name": 6946,
      "officially": 6947,
      "cafes": 6948,
      "adjustment": 6949,
      "APPE": 6950,
      "igno": 6951,
      "ACTION": 6952,
      "Highly": 6953,
      "Implausible": 6954,
      "CTLY": 6955,
      "consumption": 6956,
      "Evidence": 6957,
      "finally": 6958,
      "inspecting": 6959,
      "freaking": 6960,
      "integrated": 6961,
      "importantly": 6962,
      "investigations": 6963,
      "starts": 6964,
      "distress": 6965,
      "riders": 6966,
      "suspicion": 6967,
      "FORD": 6968,
      "Concurrently": 6969,
      "allegedly": 6970,
      "affects": 6971,
      "Arcos": 6972,
      "misty": 6973,
      "department": 6974,
      "ESTRAD": 6975,
      "factor": 6976,
      "mount": 6977,
      "mounted": 6978,
      "vibrating": 6979,
      "blocks": 6980,
      "trees": 6981,
      "negligent": 6982,
      "corroborate": 6983,
      "corroboration": 6984,
      "Carneiro": 6985,
      "Contact": 6986,
      "Continent": 6987,
      "cleaning": 6988,
      "deceptive": 6989,
      "spanning": 6990,
      "GLC": 6991,
      "aturally": 6992,
      "understands": 6993,
      "friends": 6994,
      "Dealing": 6995,
      "miscalculating": 6996,
      "Canter": 6997,
      "PLUS": 6998,
      "buckle": 6999,
      "considering": 7000,
      "appreciated": 7001,
      "RIER": 7002,
      "Scripted": 7003,
      "VEHIC": 7004,
      "lawyers": 7005,
      "FAO": 7006,
      "QUICK": 7007,
      "vital": 7008,
      "prompting": 7009,
      "decelerating": 7010,
      "based": 7011,
      "scriptwriter": 7012,
      "AXI": 7013,
      "Alexand": 7014,
      "Because": 7015,
      "Beyond": 7016,
      "Disproportionate": 7017,
      "racing": 7018,
      "adherence": 7019,
      "thousand": 7020,
      "ATIONS": 7021,
      "regulated": 7022,
      "promise": 7023,
      "sticking": 7024,
      "purposely": 7025,
      "PAYMENT": 7026,
      "Reverse": 7027,
      "TAKE": 7028,
      "performing": 7029,
      "REPAIRS": 7030,
      "BOAVISTA": 7031,
      "BACKED": 7032,
      "SCENE": 7033,
      "SCANDAL": 7034,
      "VIL": 7035,
      "VIOL": 7036,
      "occupied": 7037,
      "regretful": 7038,
      "Friday": 7039,
      "OLVED": 7040,
      "pinning": 7041,
      "simultaneous": 7042,
      "securely": 7043,
      "HOOD": 7044,
      "deliveries": 7045,
      "submitted": 7046,
      "target": 7047,
      "refuse": 7048,
      "refused": 7049,
      "refusing": 7050,
      "except": 7051,
      "grabbing": 7052,
      "crumple": 7053,
      "Município": 7054,
      "cloudy": 7055,
      "statue": 7056,
      "status": 7057,
      "hairpin": 7058,
      "commitments": 7059,
      "INVOLVED": 7060,
      "deployment": 7061,
      "questions": 7062,
      "questioned": 7063,
      "VNF": 7064,
      "finalized": 7065,
      "general": 7066,
      "ticket": 7067,
      "exhausting": 7068,
      "exhibits": 7069,
      "exhibited": 7070,
      "perceptible": 7071,
      "Livramento": 7072,
      "communicating": 7073,
      "Ribeiro": 7074,
      "MORE": 7075,
      "WORK": 7076,
      "WORSE": 7077,
      "dusty": 7078,
      "rendered": 7079,
      "rendering": 7080,
      "tunnel": 7081,
      "abrasion": 7082,
      "problem": 7083,
      "ASKED": 7084,
      "critical": 7085,
      "critically": 7086,
      "wonderful": 7087,
      "reflexes": 7088,
      "Actually": 7089,
      "Barahon": 7090,
      "BARRIER": 7091,
      "DISASTER": 7092,
      "Herculano": 7093,
      "Majest": 7094,
      "floor": 7095,
      "flipping": 7096,
      "gridlocked": 7097,
      "wobble": 7098,
      "highest": 7099,
      "escaped": 7100,
      "transition": 7101,
      "complexity": 7102,
      "oddly": 7103,
      "comfortably": 7104,
      "trembling": 7105,
      "targeted": 7106,
      "INVESTIGATIONS": 7107,
      "hydroplaned": 7108,
      "flags": 7109,
      "individuals": 7110,
      "OUTRAGEOUS": 7111,
      "Autoest": 7112,
      "District": 7113,
      "FNC": 7114,
      "FRAUD": 7115,
      "GAIA": 7116,
      "PHN": 7117,
      "Prius": 7118,
      "SWIPED": 7119,
      "YESTERDAY": 7120,
      "drama": 7121,
      "obeying": 7122,
      "tactic": 7123,
      "wearing": 7124,
      "alarming": 7125,
      "detect": 7126,
      "codfish": 7127,
      "cooling": 7128,
      "coordinate": 7129,
      "consult": 7130,
      "INTERSECTION": 7131,
      "calibration": 7132,
      "Alcácer": 7133,
      "deserted": 7134,
      "symptoms": 7135,
      "legitimate": 7136,
      "PROCEEDED": 7137,
      "Observed": 7138,
      "SERIOUS": 7139,
      "aesthetic": 7140,
      "Addition": 7141,
      "Apparently": 7142,
      "Arona": 7143,
      "Amadora": 7144,
      "BODY": 7145,
      "Cabral": 7146,
      "Diogo": 7147,
      "DROVE": 7148,
      "Freixo": 7149,
      "FELT": 7150,
      "Galvão": 7151,
      "Hope": 7152,
      "Homem": 7153,
      "IP3": 7154,
      "JULHO": 7155,
      "Lóios": 7156,
      "MODEL": 7157,
      "NISSAN": 7158,
      "Nobody": 7159,
      "Public": 7160,
      "PANEL": 7161,
      "QASHQAI": 7162,
      "Rental": 7163,
      "Sinaleiro": 7164,
      "Specific": 7165,
      "SPEED": 7166,
      "TAILLIGHT": 7167,
      "Unexpectedly": 7168,
      "VOLVO": 7169,
      "ample": 7170,
      "aquarium": 7171,
      "battery": 7172,
      "civil": 7173,
      "efficiency": 7174,
      "faded": 7175,
      "matches": 7176,
      "municipal": 7177,
      "pulverized": 7178,
      "tidy": 7179,
      "volume": 7180,
      "warrant": 7181,
      "yanked": 7182,
      "Álvares": 7183,
      "incurred": 7184,
      "inoperable": 7185,
      "encroached": 7186,
      "anonymous": 7187,
      "aspect": 7188,
      "tolerate": 7189,
      "reveal": 7190,
      "retaining": 7191,
      "alloy": 7192,
      "immobilized": 7193,
      "admiring": 7194,
      "surveillance": 7195,
      "unforeseen": 7196,
      "unusable": 7197,
      "unnecessarily": 7198,
      "unsightly": 7199,
      "unharmed": 7200,
      "shredded": 7201,
      "explanation": 7202,
      "pasteis": 7203,
      "miscommunication": 7204,
      "produce": 7205,
      "illuminated": 7206,
      "Fortunately": 7207,
      "Covilhã": 7208,
      "Complaints": 7209,
      "vigilant": 7210,
      "ROTUNDA": 7211,
      "TOLERATE": 7212,
      "serviced": 7213,
      "opportunity": 7214,
      "APPEARED": 7215,
      "ESTRADA": 7216,
      "Continente": 7217,
      "VEHICLE": 7218,
      "Alexandre": 7219,
      "VIOLENTLY": 7220,
      "Barahona": 7221,
      "Majestic": 7222,
      "Autoestrada": 7223,
      "Additionally": 7224,
      "026": 7225,
      "1o": 7226,
      "AF": 7227,
      "AZ": 7228,
      "A23": 7229,
      "Abr": 7230,
      "A28": 7231,
      "BB": 7232,
      "Ban": 7233,
      "CM": 7234,
      "CY": 7235,
      "Cl": 7236,
      "Cent": 7237,
      "Cac": 7238,
      "Cic": 7239,
      "Cad": 7240,
      "Col": 7241,
      "Caf": 7242,
      "Cast": 7243,
      "CIT": 7244,
      "COR": 7245,
      "Carre": 7246,
      "CUR": 7247,
      "CSC": 7248,
      "Clear": 7249,
      "DV": 7250,
      "Dona": 7251,
      "EE": 7252,
      "EP": 7253,
      "EU": 7254,
      "EW": 7255,
      "Emer": 7256,
      "Este": 7257,
      "EIT": 7258,
      "Estac": 7259,
      "Edu": 7260,
      "Elev": 7261,
      "FH": 7262,
      "FESS": 7263,
      "Go": 7264,
      "Gor": 7265,
      "GUST": 7266,
      "GEST": 7267,
      "Had": 7268,
      "HAP": 7269,
      "IL": 7270,
      "Im": 7271,
      "IUM": 7272,
      "JK": 7273,
      "Jane": 7274,
      "Jard": 7275,
      "Justa": 7276,
      "Joa": 7277,
      "LU": 7278,
      "Lin": 7279,
      "Lon": 7280,
      "Lan": 7281,
      "Lou": 7282,
      "Late": 7283,
      "LIC": 7284,
      "LONG": 7285,
      "LBN": 7286,
      "Mr": 7287,
      "MIN": 7288,
      "M50": 7289,
      "MATTER": 7290,
      "MUST": 7291,
      "Maio": 7292,
      "Nort": 7293,
      "NAC": 7294,
      "N23": 7295,
      "NIGHT": 7296,
      "N37": 7297,
      "Naturally": 7298,
      "OM": 7299,
      "One": 7300,
      "OLE": 7301,
      "Ocean": 7302,
      "Pl": 7303,
      "Per": 7304,
      "Piz": 7305,
      "Pontes": 7306,
      "Photo": 7307,
      "Prace": 7308,
      "PRA": 7309,
      "PRI": 7310,
      "PUR": 7311,
      "PRT": 7312,
      "Q5": 7313,
      "R1": 7314,
      "RC": 7315,
      "Rá": 7316,
      "Ric": 7317,
      "Right": 7318,
      "Rural": 7319,
      "River": 7320,
      "Range": 7321,
      "SS": 7322,
      "Sh": 7323,
      "Sim": 7324,
      "SCO": 7325,
      "SMA": 7326,
      "Spain": 7327,
      "Surely": 7328,
      "SINT": 7329,
      "SBR": 7330,
      "Tor": 7331,
      "Tou": 7332,
      "Town": 7333,
      "Tavi": 7334,
      "Tour": 7335,
      "TRE": 7336,
      "Temp": 7337,
      "Twing": 7338,
      "TIGHT": 7339,
      "TRU": 7340,
      "TALLY": 7341,
      "Tejo": 7342,
      "Turning": 7343,
      "TAXI": 7344,
      "UE": 7345,
      "UCH": 7346,
      "V6": 7347,
      "Ver": 7348,
      "Van": 7349,
      "Vel": 7350,
      "Vista": 7351,
      "VR1": 7352,
      "WO": 7353,
      "WALL": 7354,
      "WARD": 7355,
      "WEE": 7356,
      "X3": 7357,
      "X5": 7358,
      "Xira": 7359,
      "Zone": 7360,
      "Zona": 7361,
      "ale": 7362,
      "afra": 7363,
      "awaiting": 7364,
      "apart": 7365,
      "ameters": 7366,
      "amento": 7367,
      "bt": 7368,
      "bod": 7369,
      "cas": 7370,
      "cate": 7371,
      "cation": 7372,
      "cow": 7373,
      "cking": 7374,
      "ccess": 7375,
      "crush": 7376,
      "cities": 7377,
      "dou": 7378,
      "diz": 7379,
      "dus": 7380,
      "dia": 7381,
      "dang": 7382,
      "differ": 7383,
      "data": 7384,
      "equ": 7385,
      "eper": 7386,
      "emot": 7387,
      "eager": 7388,
      "fâ": 7389,
      "fare": 7390,
      "fence": 7391,
      "flan": 7392,
      "fut": 7393,
      "factual": 7394,
      "fishing": 7395,
      "gate": 7396,
      "gging": 7397,
      "glove": 7398,
      "iac": 7399,
      "iving": 7400,
      "iod": 7401,
      "iest": 7402,
      "iage": 7403,
      "igu": 7404,
      "ienced": 7405,
      "ja": 7406,
      "jay": 7407,
      "kis": 7408,
      "ló": 7409,
      "lon": 7410,
      "lacking": 7411,
      "mall": 7412,
      "mbro": 7413,
      "mill": 7414,
      "mason": 7415,
      "merely": 7416,
      "nine": 7417,
      "nage": 7418,
      "nia": 7419,
      "ndia": 7420,
      "oing": 7421,
      "obl": 7422,
      "omit": 7423,
      "ology": 7424,
      "pun": 7425,
      "pida": 7426,
      "prid": 7427,
      "pão": 7428,
      "power": 7429,
      "ride": 7430,
      "rack": 7431,
      "rasing": 7432,
      "snow": 7433,
      "scare": 7434,
      "sided": 7435,
      "saving": 7436,
      "sorts": 7437,
      "sending": 7438,
      "sinc": 7439,
      "tent": 7440,
      "trol": 7441,
      "treme": 7442,
      "tably": 7443,
      "tension": 7444,
      "uing": 7445,
      "uate": 7446,
      "uch": 7447,
      "utr": 7448,
      "umb": 7449,
      "unex": 7450,
      "utory": 7451,
      "ufact": 7452,
      "vin": 7453,
      "vac": 7454,
      "wre": 7455,
      "wand": 7456,
      "wine": 7457,
      "ware": 7458,
      "wiped": 7459,
      "xis": 7460,
      "xpl": 7461,
      "ys": 7462,
      "yeah": 7463,
      "zes": 7464,
      "ÇA": 7465,
      "ËN": 7466,
      "ÍSA": 7467,
      "Índia": 7468,
      "éis": 7469,
      "ino": 7470,
      "inion": 7471,
      "incid": 7472,
      "ination": 7473,
      "infra": 7474,
      "inta": 7475,
      "insignificant": 7476,
      "invisible": 7477,
      "invo": 7478,
      "indade": 7479,
      "inched": 7480,
      "insistent": 7481,
      "instant": 7482,
      "hem": 7483,
      "heat": 7484,
      "heal": 7485,
      "heav": 7486,
      "ences": 7487,
      "ensuring": 7488,
      "engos": 7489,
      "sty": 7490,
      "stab": 7491,
      "stick": 7492,
      "stum": 7493,
      "stalling": 7494,
      "stile": 7495,
      "eded": 7496,
      "onounced": 7497,
      "atening": 7498,
      "anite": 7499,
      "arti": 7500,
      "arena": 7501,
      "argu": 7502,
      "arante": 7503,
      "argue": 7504,
      "entrap": 7505,
      "ask": 7506,
      "asset": 7507,
      "asms": 7508,
      "hip": 7509,
      "hide": 7510,
      "inging": 7511,
      "ley": 7512,
      "lean": 7513,
      "lever": 7514,
      "repe": 7515,
      "reco": 7516,
      "refer": 7517,
      "reading": 7518,
      "relies": 7519,
      "reatening": 7520,
      "rim": 7521,
      "ripp": 7522,
      "orange": 7523,
      "vet": 7524,
      "velo": 7525,
      "veget": 7526,
      "verca": 7527,
      "verge": 7528,
      "versing": 7529,
      "version": 7530,
      "washed": 7531,
      "sevent": 7532,
      "seaside": 7533,
      "itre": 7534,
      "isol": 7535,
      "acing": 7536,
      "accu": 7537,
      "actor": 7538,
      "acket": 7539,
      "acles": 7540,
      "accompan": 7541,
      "acao": 7542,
      "layed": 7543,
      "aline": 7544,
      "immin": 7545,
      "immobile": 7546,
      "imony": 7547,
      "ions": 7548,
      "ionamento": 7549,
      "raking": 7550,
      "raging": 7551,
      "becoming": 7552,
      "became": 7553,
      "besides": 7554,
      "sum": 7555,
      "suit": 7556,
      "suffic": 7557,
      "success": 7558,
      "rode": 7559,
      "ateur": 7560,
      "ices": 7561,
      "busi": 7562,
      "buying": 7563,
      "bull": 7564,
      "bummer": 7565,
      "adren": 7566,
      "admission": 7567,
      "chur": 7568,
      "chron": 7569,
      "mped": 7570,
      "000024": 7571,
      "000025": 7572,
      "000023": 7573,
      "000029": 7574,
      "000021": 7575,
      "eshopping": 7576,
      "dee": 7577,
      "dem": 7578,
      "depar": 7579,
      "deck": 7580,
      "deaf": 7581,
      "devi": 7582,
      "decl": 7583,
      "decent": 7584,
      "develo": 7585,
      "delayed": 7586,
      "parce": 7587,
      "parameters": 7588,
      "liance": 7589,
      "libr": 7590,
      "carnage": 7591,
      "aggress": 7592,
      "aggressor": 7593,
      "agony": 7594,
      "thick": 7595,
      "2015": 7596,
      "2022": 7597,
      "2023": 7598,
      "incidental": 7599,
      "scale": 7600,
      "tered": 7601,
      "types": 7602,
      "ulty": 7603,
      "iron": 7604,
      "sideways": 7605,
      "ppers": 7606,
      "rator": 7607,
      "rattle": 7608,
      "cept": 7609,
      "neutr": 7610,
      "iled": 7611,
      "iling": 7612,
      "abled": 7613,
      "inexpl": 7614,
      "ardrail": 7615,
      "quim": 7616,
      "quot": 7617,
      "coit": 7618,
      "coincid": 7619,
      "unimp": 7620,
      "unted": 7621,
      "unset": 7622,
      "undamaged": 7623,
      "unseen": 7624,
      "unbuckled": 7625,
      "unrelated": 7626,
      "unpleasant": 7627,
      "unidentifiable": 7628,
      "share": 7629,
      "shrub": 7630,
      "shunted": 7631,
      "tee": 7632,
      "teous": 7633,
      "teacher": 7634,
      "keeper": 7635,
      "istics": 7636,
      "urgency": 7637,
      "fragment": 7638,
      "frantic": 7639,
      "extr": 7640,
      "extor": 7641,
      "implausible": 7642,
      "tale": 7643,
      "taxis": 7644,
      "intox": 7645,
      "ambi": 7646,
      "ambul": 7647,
      "amateur": 7648,
      "item": 7649,
      "spend": 7650,
      "spray": 7651,
      "spasms": 7652,
      "spacing": 7653,
      "others": 7654,
      "safer": 7655,
      "sales": 7656,
      "swap": 7657,
      "sway": 7658,
      "ongoing": 7659,
      "hits": 7660,
      "hos": 7661,
      "hostile": 7662,
      "feat": 7663,
      "fear": 7664,
      "feet": 7665,
      "ends": 7666,
      "notably": 7667,
      "medication": 7668,
      "traversing": 7669,
      "misalignment": 7670,
      "misleading": 7671,
      "contra": 7672,
      "context": 7673,
      "consequ": 7674,
      "convin": 7675,
      "nod": 7676,
      "nology": 7677,
      "persistent": 7678,
      "permission": 7679,
      "perpet": 7680,
      "period": 7681,
      "project": 7682,
      "tier": 7683,
      "tipped": 7684,
      "000500": 7685,
      "000208": 7686,
      "000308": 7687,
      "000101": 7688,
      "seeking": 7689,
      "map": 7690,
      "trust": 7691,
      "trusting": 7692,
      "traces": 7693,
      "tractor": 7694,
      "headrest": 7695,
      "clearing": 7696,
      "roadwork": 7697,
      "world": 7698,
      "stresses": 7699,
      "shatters": 7700,
      "complications": 7701,
      "compliance": 7702,
      "stoplight": 7703,
      "phase": 7704,
      "phrasing": 7705,
      "bouti": 7706,
      "ants": 7707,
      "antes": 7708,
      "popped": 7709,
      "pointed": 7710,
      "positive": 7711,
      "owned": 7712,
      "001001": 7713,
      "001002": 7714,
      "001125": 7715,
      "001008": 7716,
      "001009": 7717,
      "001007": 7718,
      "001006": 7719,
      "001003": 7720,
      "001004": 7721,
      "001005": 7722,
      "00121": 7723,
      "illicit": 7724,
      "crying": 7725,
      "Bom": 7726,
      "gosh": 7727,
      "completed": 7728,
      "izes": 7729,
      "loop": 7730,
      "atedly": 7731,
      "odness": 7732,
      "hasn": 7733,
      "overhanging": 7734,
      "overstating": 7735,
      "tailed": 7736,
      "taillamp": 7737,
      "Figue": 7738,
      "somewhat": 7739,
      "THING": 7740,
      "prep": 7741,
      "preted": 7742,
      "preoccupied": 7743,
      "visor": 7744,
      "Park": 7745,
      "Coast": 7746,
      "Coina": 7747,
      "sits": 7748,
      "judged": 7749,
      "30h": 7750,
      "intersections": 7751,
      "manual": 7752,
      "manager": 7753,
      "maniac": 7754,
      "manufact": 7755,
      "Tobi": 7756,
      "apps": 7757,
      "Inês": 7758,
      "Intent": 7759,
      "fellow": 7760,
      "conduct": 7761,
      "offline": 7762,
      "offending": 7763,
      "foreign": 7764,
      "crooked": 7765,
      "INED": 7766,
      "INSU": 7767,
      "ENTO": 7768,
      "ENSE": 7769,
      "EN247": 7770,
      "osk": 7771,
      "sulted": 7772,
      "definite": 7773,
      "definit": 7774,
      "blindly": 7775,
      "ERM": 7776,
      "ERDA": 7777,
      "concise": 7778,
      "mornings": 7779,
      "paints": 7780,
      "mismatching": 7781,
      "Martim": 7782,
      "ioso": 7783,
      "rainfall": 7784,
      "approved": 7785,
      "field": 7786,
      "ATED": 7787,
      "ATING": 7788,
      "shocking": 7789,
      "shoppers": 7790,
      "Report": 7791,
      "sank": 7792,
      "tightly": 7793,
      "mainly": 7794,
      "faults": 7795,
      "portal": 7796,
      "ASKING": 7797,
      "solicit": 7798,
      "guengos": 7799,
      "guarante": 7800,
      "ONCE": 7801,
      "mayhem": 7802,
      "ARTED": 7803,
      "All": 7804,
      "Although": 7805,
      "Alverca": 7806,
      "Ana": 7807,
      "forcefully": 7808,
      "pato": 7809,
      "patrol": 7810,
      "sounds": 7811,
      "arrange": 7812,
      "granite": 7813,
      "grad": 7814,
      "gradu": 7815,
      "fortunate": 7816,
      "realign": 7817,
      "intervention": 7818,
      "intercept": 7819,
      "pillars": 7820,
      "ROËN": 7821,
      "supports": 7822,
      "barre": 7823,
      "Forest": 7824,
      "invite": 7825,
      "DEAL": 7826,
      "DETAIL": 7827,
      "DEEP": 7828,
      "DESCO": 7829,
      "TOTALLY": 7830,
      "fold": 7831,
      "folk": 7832,
      "foliage": 7833,
      "ACH": 7834,
      "jolted": 7835,
      "000800": 7836,
      "000810": 7837,
      "000840": 7838,
      "000860": 7839,
      "000850": 7840,
      "000880": 7841,
      "000890": 7842,
      "000835": 7843,
      "000845": 7844,
      "000809": 7845,
      "000872": 7846,
      "000881": 7847,
      "000834": 7848,
      "000851": 7849,
      "000884": 7850,
      "000831": 7851,
      "000837": 7852,
      "000854": 7853,
      "000856": 7854,
      "000859": 7855,
      "000871": 7856,
      "000879": 7857,
      "000885": 7858,
      "000888": 7859,
      "000889": 7860,
      "000852": 7861,
      "000873": 7862,
      "000874": 7863,
      "000882": 7864,
      "000887": 7865,
      "000855": 7866,
      "000858": 7867,
      "000875": 7868,
      "000876": 7869,
      "000877": 7870,
      "000878": 7871,
      "000839": 7872,
      "000895": 7873,
      "000833": 7874,
      "000853": 7875,
      "000886": 7876,
      "000891": 7877,
      "000892": 7878,
      "000894": 7879,
      "000848": 7880,
      "000857": 7881,
      "000883": 7882,
      "000841": 7883,
      "000842": 7884,
      "000844": 7885,
      "000846": 7886,
      "000893": 7887,
      "000896": 7888,
      "000898": 7889,
      "000899": 7890,
      "000897": 7891,
      "000847": 7892,
      "000803": 7893,
      "000807": 7894,
      "000808": 7895,
      "000801": 7896,
      "000805": 7897,
      "000804": 7898,
      "opinion": 7899,
      "000600": 7900,
      "000620": 7901,
      "000626": 7902,
      "000630": 7903,
      "000625": 7904,
      "000624": 7905,
      "000640": 7906,
      "000615": 7907,
      "000619": 7908,
      "000614": 7909,
      "000622": 7910,
      "000650": 7911,
      "000623": 7912,
      "000670": 7913,
      "000627": 7914,
      "000690": 7915,
      "000635": 7916,
      "000618": 7917,
      "000645": 7918,
      "000616": 7919,
      "000611": 7920,
      "000628": 7921,
      "000629": 7922,
      "000621": 7923,
      "000617": 7924,
      "000667": 7925,
      "000665": 7926,
      "000681": 7927,
      "000634": 7928,
      "000684": 7929,
      "000612": 7930,
      "000631": 7931,
      "000637": 7932,
      "000685": 7933,
      "000688": 7934,
      "000689": 7935,
      "000632": 7936,
      "000682": 7937,
      "000687": 7938,
      "000661": 7939,
      "000639": 7940,
      "000663": 7941,
      "000633": 7942,
      "000664": 7943,
      "000669": 7944,
      "000686": 7945,
      "000636": 7946,
      "000648": 7947,
      "000662": 7948,
      "000666": 7949,
      "000683": 7950,
      "000641": 7951,
      "000642": 7952,
      "000644": 7953,
      "000646": 7954,
      "000638": 7955,
      "000668": 7956,
      "000643": 7957,
      "000649": 7958,
      "000900": 7959,
      "000926": 7960,
      "000930": 7961,
      "000925": 7962,
      "000910": 7963,
      "000924": 7964,
      "000940": 7965,
      "000915": 7966,
      "000960": 7967,
      "000922": 7968,
      "000923": 7969,
      "000927": 7970,
      "000980": 7971,
      "000990": 7972,
      "000935": 7973,
      "000911": 7974,
      "000928": 7975,
      "000929": 7976,
      "000921": 7977,
      "000909": 7978,
      "000972": 7979,
      "000981": 7980,
      "000934": 7981,
      "000951": 7982,
      "000984": 7983,
      "000931": 7984,
      "000937": 7985,
      "000954": 7986,
      "000956": 7987,
      "000959": 7988,
      "000971": 7989,
      "000979": 7990,
      "000985": 7991,
      "000988": 7992,
      "000989": 7993,
      "000932": 7994,
      "000952": 7995,
      "000987": 7996,
      "000955": 7997,
      "000958": 7998,
      "000976": 7999,
      "000977": 8000,
      "000978": 8001,
      "000939": 8002,
      "000933": 8003,
      "000953": 8004,
      "000986": 8005,
      "000936": 8006,
      "000957": 8007,
      "000983": 8008,
      "000938": 8009,
      "000903": 8010,
      "000907": 8011,
      "000908": 8012,
      "000901": 8013,
      "000905": 8014,
      "000904": 8015,
      "000906": 8016,
      "disregarding": 8017,
      "discovered": 8018,
      "discou": 8019,
      "displacement": 8020,
      "disabled": 8021,
      "Moniz": 8022,
      "cription": 8023,
      "splitting": 8024,
      "credible": 8025,
      "000726": 8026,
      "000730": 8027,
      "000725": 8028,
      "000710": 8029,
      "000724": 8030,
      "000722": 8031,
      "000750": 8032,
      "000723": 8033,
      "000727": 8034,
      "000780": 8035,
      "000745": 8036,
      "000728": 8037,
      "000729": 8038,
      "000721": 8039,
      "000709": 8040,
      "000772": 8041,
      "000781": 8042,
      "000784": 8043,
      "000771": 8044,
      "000779": 8045,
      "000785": 8046,
      "000789": 8047,
      "000773": 8048,
      "000774": 8049,
      "000782": 8050,
      "000775": 8051,
      "000776": 8052,
      "000777": 8053,
      "000778": 8054,
      "000795": 8055,
      "000791": 8056,
      "000792": 8057,
      "000794": 8058,
      "000748": 8059,
      "000783": 8060,
      "000741": 8061,
      "000742": 8062,
      "000744": 8063,
      "000746": 8064,
      "000793": 8065,
      "000796": 8066,
      "000798": 8067,
      "000799": 8068,
      "000797": 8069,
      "000743": 8070,
      "000747": 8071,
      "000703": 8072,
      "000707": 8073,
      "000749": 8074,
      "000708": 8075,
      "000701": 8076,
      "000705": 8077,
      "000704": 8078,
      "000702": 8079,
      "000706": 8080,
      "ESY": 8081,
      "LLING": 8082,
      "ITY": 8083,
      "000510": 8084,
      "000560": 8085,
      "000570": 8086,
      "000580": 8087,
      "000590": 8088,
      "000509": 8089,
      "000567": 8090,
      "000565": 8091,
      "000572": 8092,
      "000581": 8093,
      "000551": 8094,
      "000584": 8095,
      "000554": 8096,
      "000556": 8097,
      "000559": 8098,
      "000571": 8099,
      "000579": 8100,
      "000585": 8101,
      "000588": 8102,
      "000552": 8103,
      "000573": 8104,
      "000574": 8105,
      "000558": 8106,
      "000561": 8107,
      "000576": 8108,
      "000578": 8109,
      "000563": 8110,
      "000595": 8111,
      "000553": 8112,
      "000564": 8113,
      "000569": 8114,
      "000591": 8115,
      "000592": 8116,
      "000594": 8117,
      "000557": 8118,
      "000562": 8119,
      "000566": 8120,
      "000593": 8121,
      "000596": 8122,
      "000598": 8123,
      "000599": 8124,
      "000568": 8125,
      "000597": 8126,
      "000503": 8127,
      "000508": 8128,
      "000501": 8129,
      "000505": 8130,
      "000504": 8131,
      "000502": 8132,
      "000506": 8133,
      "sharper": 8134,
      "underlying": 8135,
      "Left": 8136,
      "NOVA": 8137,
      "occurring": 8138,
      "died": 8139,
      "diligence": 8140,
      "licted": 8141,
      "000320": 8142,
      "000310": 8143,
      "000315": 8144,
      "000319": 8145,
      "000314": 8146,
      "000360": 8147,
      "000350": 8148,
      "000380": 8149,
      "000390": 8150,
      "000318": 8151,
      "000345": 8152,
      "000316": 8153,
      "000311": 8154,
      "000313": 8155,
      "000372": 8156,
      "000381": 8157,
      "000351": 8158,
      "000384": 8159,
      "000312": 8160,
      "000359": 8161,
      "000379": 8162,
      "000388": 8163,
      "000389": 8164,
      "000352": 8165,
      "000373": 8166,
      "000374": 8167,
      "000382": 8168,
      "000387": 8169,
      "000358": 8170,
      "000375": 8171,
      "000376": 8172,
      "000377": 8173,
      "000395": 8174,
      "000353": 8175,
      "000386": 8176,
      "000391": 8177,
      "000392": 8178,
      "000394": 8179,
      "000348": 8180,
      "000357": 8181,
      "000383": 8182,
      "000341": 8183,
      "000342": 8184,
      "000344": 8185,
      "000346": 8186,
      "000393": 8187,
      "000396": 8188,
      "000398": 8189,
      "000399": 8190,
      "000397": 8191,
      "000343": 8192,
      "000347": 8193,
      "000349": 8194,
      "shopkeeper": 8195,
      "CRAZ": 8196,
      "pronounced": 8197,
      "traveled": 8198,
      "ENTER": 8199,
      "replacements": 8200,
      "001020": 8201,
      "001026": 8202,
      "001030": 8203,
      "001025": 8204,
      "001010": 8205,
      "001024": 8206,
      "001015": 8207,
      "001019": 8208,
      "001014": 8209,
      "001060": 8210,
      "001022": 8211,
      "001070": 8212,
      "001018": 8213,
      "001016": 8214,
      "001011": 8215,
      "001028": 8216,
      "001029": 8217,
      "001021": 8218,
      "001013": 8219,
      "001067": 8220,
      "001065": 8221,
      "001051": 8222,
      "001054": 8223,
      "001056": 8224,
      "001059": 8225,
      "001052": 8226,
      "001055": 8227,
      "001058": 8228,
      "001061": 8229,
      "001063": 8230,
      "001095": 8231,
      "001053": 8232,
      "001064": 8233,
      "001069": 8234,
      "001091": 8235,
      "001092": 8236,
      "001094": 8237,
      "001057": 8238,
      "001062": 8239,
      "001093": 8240,
      "001096": 8241,
      "001098": 8242,
      "001099": 8243,
      "001097": 8244,
      "tiniest": 8245,
      "000026": 8246,
      "000030": 8247,
      "000060": 8248,
      "000050": 8249,
      "000070": 8250,
      "000080": 8251,
      "000090": 8252,
      "000045": 8253,
      "000067": 8254,
      "000072": 8255,
      "000081": 8256,
      "000051": 8257,
      "000084": 8258,
      "000054": 8259,
      "000056": 8260,
      "000059": 8261,
      "000071": 8262,
      "000079": 8263,
      "000085": 8264,
      "000088": 8265,
      "000089": 8266,
      "000052": 8267,
      "000073": 8268,
      "000074": 8269,
      "000082": 8270,
      "000087": 8271,
      "000055": 8272,
      "000058": 8273,
      "000061": 8274,
      "000075": 8275,
      "000076": 8276,
      "000077": 8277,
      "000078": 8278,
      "000053": 8279,
      "000064": 8280,
      "000086": 8281,
      "000048": 8282,
      "000057": 8283,
      "000062": 8284,
      "000066": 8285,
      "000041": 8286,
      "000042": 8287,
      "000044": 8288,
      "000046": 8289,
      "000068": 8290,
      "000043": 8291,
      "000047": 8292,
      "000049": 8293,
      "breaks": 8294,
      "breakfast": 8295,
      "price": 8296,
      "ICE": 8297,
      "ICALLY": 8298,
      "cooperation": 8299,
      "reasonably": 8300,
      "IMENTO": 8301,
      "descriptive": 8302,
      "COL": 8303,
      "Vito": 8304,
      "lecture": 8305,
      "commuter": 8306,
      "SH125": 8307,
      "SHOP": 8308,
      "hers": 8309,
      "lapsed": 8310,
      "personally": 8311,
      "dropping": 8312,
      "001100": 8313,
      "001120": 8314,
      "001124": 8315,
      "001140": 8316,
      "001115": 8317,
      "001119": 8318,
      "001114": 8319,
      "001160": 8320,
      "001122": 8321,
      "001127": 8322,
      "001180": 8323,
      "001135": 8324,
      "001116": 8325,
      "001111": 8326,
      "001129": 8327,
      "001121": 8328,
      "001113": 8329,
      "001117": 8330,
      "001172": 8331,
      "001181": 8332,
      "001134": 8333,
      "001184": 8334,
      "001112": 8335,
      "001131": 8336,
      "001171": 8337,
      "001179": 8338,
      "001185": 8339,
      "001189": 8340,
      "001132": 8341,
      "001173": 8342,
      "001174": 8343,
      "001182": 8344,
      "001187": 8345,
      "001175": 8346,
      "001176": 8347,
      "001177": 8348,
      "001178": 8349,
      "001139": 8350,
      "001133": 8351,
      "001136": 8352,
      "001138": 8353,
      "viewpoint": 8354,
      "GaiaShopping": 8355,
      "cramped": 8356,
      "warn": 8357,
      "observation": 8358,
      "STG": 8359,
      "STAND": 8360,
      "STILL": 8361,
      "STARTED": 8362,
      "crucial": 8363,
      "booth": 8364,
      "zembro": 8365,
      "000110": 8366,
      "000140": 8367,
      "000160": 8368,
      "000170": 8369,
      "000180": 8370,
      "000135": 8371,
      "000167": 8372,
      "000165": 8373,
      "000172": 8374,
      "000181": 8375,
      "000134": 8376,
      "000131": 8377,
      "000171": 8378,
      "000179": 8379,
      "000185": 8380,
      "000132": 8381,
      "000173": 8382,
      "000174": 8383,
      "000161": 8384,
      "000175": 8385,
      "000176": 8386,
      "000177": 8387,
      "000178": 8388,
      "000139": 8389,
      "000163": 8390,
      "000164": 8391,
      "000169": 8392,
      "000136": 8393,
      "000162": 8394,
      "000166": 8395,
      "000138": 8396,
      "000168": 8397,
      "football": 8398,
      "DENTS": 8399,
      "markers": 8400,
      "engaging": 8401,
      "000400": 8402,
      "000410": 8403,
      "000460": 8404,
      "000490": 8405,
      "000481": 8406,
      "000451": 8407,
      "000484": 8408,
      "000456": 8409,
      "000459": 8410,
      "000485": 8411,
      "000488": 8412,
      "000489": 8413,
      "000452": 8414,
      "000482": 8415,
      "000487": 8416,
      "000455": 8417,
      "000495": 8418,
      "000486": 8419,
      "000491": 8420,
      "000483": 8421,
      "000498": 8422,
      "pastries": 8423,
      "pastéis": 8424,
      "mandatory": 8425,
      "internally": 8426,
      "internship": 8427,
      "inconvenienced": 8428,
      "ABS": 8429,
      "ABRI": 8430,
      "ABSUR": 8431,
      "confirmation": 8432,
      "Roman": 8433,
      "jogging": 8434,
      "spectacles": 8435,
      "hearing": 8436,
      "message": 8437,
      "crew": 8438,
      "guys": 8439,
      "shell": 8440,
      "23rd": 8441,
      "flat": 8442,
      "flash": 8443,
      "flashed": 8444,
      "flashing": 8445,
      "ferry": 8446,
      "damper": 8447,
      "UGEOT": 8448,
      "collapsed": 8449,
      "linear": 8450,
      "uses": 8451,
      "initial": 8452,
      "strip": 8453,
      "strict": 8454,
      "stripping": 8455,
      "Narrated": 8456,
      "photographic": 8457,
      "Capuch": 8458,
      "true": 8459,
      "truth": 8460,
      "regardless": 8461,
      "Unknown": 8462,
      "Unverifiable": 8463,
      "Unreasonable": 8464,
      "meticul": 8465,
      "Narratives": 8466,
      "stays": 8467,
      "destination": 8468,
      "holder": 8469,
      "ALB": 8470,
      "ALG": 8471,
      "enjoy": 8472,
      "IONAL": 8473,
      "IONALLY": 8474,
      "glasses": 8475,
      "elsewhere": 8476,
      "transfers": 8477,
      "Relying": 8478,
      "Reguengos": 8479,
      "jected": 8480,
      "existed": 8481,
      "showers": 8482,
      "depth": 8483,
      "depends": 8484,
      "compensate": 8485,
      "ASSESS": 8486,
      "Suspect": 8487,
      "Larga": 8488,
      "USTRI": 8489,
      "switched": 8490,
      "writing": 8491,
      "OFEIT": 8492,
      "Exit": 8493,
      "Extreme": 8494,
      "bracket": 8495,
      "ipment": 8496,
      "refin": 8497,
      "politely": 8498,
      "hearts": 8499,
      "APPRO": 8500,
      "ULENT": 8501,
      "brightly": 8502,
      "117": 8503,
      "igue": 8504,
      "ACTICALLY": 8505,
      "Description": 8506,
      "Implied": 8507,
      "Impéri": 8508,
      "strongly": 8509,
      "veering": 8510,
      "technology": 8511,
      "resting": 8512,
      "sensitive": 8513,
      "arrival": 8514,
      "consuming": 8515,
      "compromise": 8516,
      "SIL": 8517,
      "points": 8518,
      "vento": 8519,
      "Lift": 8520,
      "public": 8521,
      "investigators": 8522,
      "Guardrail": 8523,
      "yours": 8524,
      "Three": 8525,
      "Threatening": 8526,
      "valacao": 8527,
      "prevented": 8528,
      "PROFESS": 8529,
      "students": 8530,
      "Bypass": 8531,
      "Convento": 8532,
      "kiosk": 8533,
      "lunchtime": 8534,
      "fallen": 8535,
      "continue": 8536,
      "fairing": 8537,
      "Circunvalacao": 8538,
      "WITHIN": 8539,
      "lengths": 8540,
      "lengthy": 8541,
      "PEUGEOT": 8542,
      "ESTA": 8543,
      "scenarios": 8544,
      "NorteShopping": 8545,
      "neighboring": 8546,
      "facility": 8547,
      "practic": 8548,
      "ligible": 8549,
      "SWERVING": 8550,
      "plained": 8551,
      "storefront": 8552,
      "corroborated": 8553,
      "substantiated": 8554,
      "Controlled": 8555,
      "famili": 8556,
      "manageable": 8557,
      "Salgue": 8558,
      "Salitre": 8559,
      "Swerve": 8560,
      "Swerved": 8561,
      "understandably": 8562,
      "IDADE": 8563,
      "AGG": 8564,
      "Defender": 8565,
      "Demand": 8566,
      "Debris": 8567,
      "Detailed": 8568,
      "Dezembro": 8569,
      "blade": 8570,
      "motioned": 8571,
      "BRIMENTO": 8572,
      "closing": 8573,
      "remains": 8574,
      "remaining": 8575,
      "000150": 8576,
      "000151": 8577,
      "000152": 8578,
      "000153": 8579,
      "000154": 8580,
      "000155": 8581,
      "000156": 8582,
      "000157": 8583,
      "000158": 8584,
      "000159": 8585,
      "alleys": 8586,
      "Franca": 8587,
      "Loss": 8588,
      "Logan": 8589,
      "Looked": 8590,
      "Looking": 8591,
      "UTION": 8592,
      "pursue": 8593,
      "inflate": 8594,
      "inflicted": 8595,
      "arrays": 8596,
      "scuffed": 8597,
      "confident": 8598,
      "conflict": 8599,
      "000250": 8600,
      "000251": 8601,
      "000253": 8602,
      "000254": 8603,
      "000255": 8604,
      "000256": 8605,
      "000257": 8606,
      "000258": 8607,
      "000259": 8608,
      "000191": 8609,
      "000192": 8610,
      "000193": 8611,
      "000194": 8612,
      "000195": 8613,
      "000196": 8614,
      "000197": 8615,
      "000198": 8616,
      "000199": 8617,
      "001191": 8618,
      "001192": 8619,
      "001193": 8620,
      "001194": 8621,
      "001195": 8622,
      "001196": 8623,
      "001197": 8624,
      "001198": 8625,
      "001199": 8626,
      "centimeter": 8627,
      "LIKE": 8628,
      "RUINED": 8629,
      "000200": 8630,
      "000226": 8631,
      "000230": 8632,
      "000225": 8633,
      "000210": 8634,
      "000224": 8635,
      "000280": 8636,
      "000290": 8637,
      "001150": 8638,
      "001151": 8639,
      "001152": 8640,
      "001154": 8641,
      "001155": 8642,
      "001156": 8643,
      "001157": 8644,
      "001159": 8645,
      "001141": 8646,
      "001142": 8647,
      "001143": 8648,
      "001144": 8649,
      "001145": 8650,
      "001146": 8651,
      "001147": 8652,
      "001148": 8653,
      "001149": 8654,
      "designed": 8655,
      "decelerated": 8656,
      "000241": 8657,
      "000243": 8658,
      "000244": 8659,
      "000245": 8660,
      "000247": 8661,
      "000248": 8662,
      "000249": 8663,
      "000401": 8664,
      "000402": 8665,
      "000403": 8666,
      "000404": 8667,
      "000405": 8668,
      "000407": 8669,
      "000408": 8670,
      "000409": 8671,
      "000141": 8672,
      "000142": 8673,
      "000143": 8674,
      "000144": 8675,
      "000145": 8676,
      "000146": 8677,
      "000147": 8678,
      "000149": 8679,
      "000281": 8680,
      "000282": 8681,
      "000283": 8682,
      "000284": 8683,
      "000285": 8684,
      "000286": 8685,
      "000288": 8686,
      "000289": 8687,
      "twisting": 8688,
      "PECTIONS": 8689,
      "purposes": 8690,
      "Alegre": 8691,
      "Being": 8692,
      "Beja": 8693,
      "Passing": 8694,
      "couple": 8695,
      "historical": 8696,
      "immacul": 8697,
      "mentioning": 8698,
      "000201": 8699,
      "000202": 8700,
      "000203": 8701,
      "000204": 8702,
      "000205": 8703,
      "000206": 8704,
      "000207": 8705,
      "000209": 8706,
      "000301": 8707,
      "000302": 8708,
      "000303": 8709,
      "000304": 8710,
      "000305": 8711,
      "000306": 8712,
      "000307": 8713,
      "000309": 8714,
      "000231": 8715,
      "000232": 8716,
      "000234": 8717,
      "000235": 8718,
      "000236": 8719,
      "000238": 8720,
      "000239": 8721,
      "000271": 8722,
      "000272": 8723,
      "000273": 8724,
      "000275": 8725,
      "000276": 8726,
      "000277": 8727,
      "000278": 8728,
      "001200": 8729,
      "EN109": 8730,
      "RESOLUTION": 8731,
      "registered": 8732,
      "patterns": 8733,
      "LOOK": 8734,
      "Trindade": 8735,
      "TODI": 8736,
      "fleet": 8737,
      "killed": 8738,
      "prominent": 8739,
      "horizon": 8740,
      "establishing": 8741,
      "attentiven": 8742,
      "CIRC": 8743,
      "Does": 8744,
      "Lago": 8745,
      "eased": 8746,
      "matters": 8747,
      "000102": 8748,
      "000103": 8749,
      "000104": 8750,
      "000105": 8751,
      "000106": 8752,
      "000107": 8753,
      "INDUSTRI": 8754,
      "books": 8755,
      "bookstore": 8756,
      "BOOM": 8757,
      "FIESTA": 8758,
      "VII": 8759,
      "VILA": 8760,
      "bothered": 8761,
      "bothering": 8762,
      "courteous": 8763,
      "buffing": 8764,
      "provocation": 8765,
      "evaluate": 8766,
      "AUGUST": 8767,
      "Front": 8768,
      "OLD": 8769,
      "Sunlight": 8770,
      "fatigue": 8771,
      "pinned": 8772,
      "pinpoint": 8773,
      "outraged": 8774,
      "testimony": 8775,
      "000221": 8776,
      "000222": 8777,
      "000223": 8778,
      "000227": 8779,
      "000228": 8780,
      "000229": 8781,
      "INSPECTIONS": 8782,
      "GETTING": 8783,
      "Opportunistic": 8784,
      "Airbag": 8785,
      "CASE": 8786,
      "duty": 8787,
      "dumb": 8788,
      "wildly": 8789,
      "secure": 8790,
      "charge": 8791,
      "000260": 8792,
      "obstacles": 8793,
      "intimidation": 8794,
      "HOME": 8795,
      "drink": 8796,
      "submitting": 8797,
      "After": 8798,
      "Europa": 8799,
      "OPQ": 8800,
      "OPEL": 8801,
      "POLE": 8802,
      "POLO": 8803,
      "encountered": 8804,
      "crumpling": 8805,
      "reflection": 8806,
      "bottom": 8807,
      "gouged": 8808,
      "vastly": 8809,
      "statutory": 8810,
      "expedit": 8811,
      "PLATES": 8812,
      "captures": 8813,
      "questioning": 8814,
      "LXA": 8815,
      "LXG": 8816,
      "PULLED": 8817,
      "RANCE": 8818,
      "VNG": 8819,
      "finalize": 8820,
      "generic": 8821,
      "madness": 8822,
      "degree": 8823,
      "throwing": 8824,
      "unpredictably": 8825,
      "hazards": 8826,
      "perception": 8827,
      "blurry": 8828,
      "inviting": 8829,
      "attendant": 8830,
      "swiftly": 8831,
      "scripts": 8832,
      "BANG": 8833,
      "Object": 8834,
      "Palla": 8835,
      "Picaria": 8836,
      "flawlessly": 8837,
      "insane": 8838,
      "learning": 8839,
      "learned": 8840,
      "accurate": 8841,
      "accurately": 8842,
      "accuracy": 8843,
      "logistics": 8844,
      "extern": 8845,
      "problems": 8846,
      "beginning": 8847,
      "wondering": 8848,
      "Barata": 8849,
      "BARELY": 8850,
      "DISGR": 8851,
      "GMR": 8852,
      "GMS": 8853,
      "Mafra": 8854,
      "PRACTICALLY": 8855,
      "floored": 8856,
      "flip": 8857,
      "higher": 8858,
      "sessions": 8859,
      "escape": 8860,
      "captur": 8861,
      "solely": 8862,
      "exams": 8863,
      "attributing": 8864,
      "awkwardly": 8865,
      "tremendous": 8866,
      "LIBERDA": 8867,
      "targeting": 8868,
      "INVESTIGATOR": 8869,
      "hydroplaning": 8870,
      "Diu": 8871,
      "Dias": 8872,
      "JOB": 8873,
      "MARG": 8874,
      "N221": 8875,
      "N222": 8876,
      "blaming": 8877,
      "blames": 8878,
      "custom": 8879,
      "dragged": 8880,
      "dragging": 8881,
      "hugging": 8882,
      "ilize": 8883,
      "érigos": 8884,
      "infractions": 8885,
      "arroz": 8886,
      "received": 8887,
      "representative": 8888,
      "peeling": 8889,
      "peacefully": 8890,
      "convenience": 8891,
      "convenient": 8892,
      "blatantly": 8893,
      "emphasis": 8894,
      "financial": 8895,
      "regrettable": 8896,
      "regrettably": 8897,
      "prioritize": 8898,
      "REVERSED": 8899,
      "REVERSING": 8900,
      "Alegria": 8901,
      "CEDOFEIT": 8902,
      "DIRECTLY": 8903,
      "Jeep": 8904,
      "Papa": 8905,
      "Proactive": 8906,
      "PENED": 8907,
      "Quinta": 8908,
      "Sousa": 8909,
      "WRITING": 8910,
      "blood": 8911,
      "branch": 8912,
      "baseless": 8913,
      "euros": 8914,
      "frequent": 8915,
      "milk": 8916,
      "pylon": 8917,
      "package": 8918,
      "slope": 8919,
      "recently": 8920,
      "risked": 8921,
      "secured": 8922,
      "iterated": 8923,
      "bunched": 8924,
      "advance": 8925,
      "advanced": 8926,
      "terminology": 8927,
      "improper": 8928,
      "impairing": 8929,
      "misinterpreted": 8930,
      "container": 8931,
      "permanently": 8932,
      "propelled": 8933,
      "temporarily": 8934,
      "breezy": 8935,
      "dispute": 8936,
      "ignore": 8937,
      "QUICKLY": 8938,
      "abrasions": 8939,
      "transitioned": 8940,
      "FRAUDULENT": 8941,
      "consultant": 8942,
      "BODYWORK": 8943,
      "Specifically": 8944,
      "revealed": 8945,
      "Abrantes": 8946,
      "Banhos": 8947,
      "Clérigos": 8948,
      "Cicioso": 8949,
      "Caddy": 8950,
      "Colares": 8951,
      "Café": 8952,
      "Castle": 8953,
      "CITROËN": 8954,
      "Carreira": 8955,
      "CURB": 8956,
      "Clearly": 8957,
      "Emergency": 8958,
      "Estefâ": 8959,
      "Estacionamento": 8960,
      "Eduardo": 8961,
      "Elevador": 8962,
      "Goodness": 8963,
      "Gordo": 8964,
      "GESTUR": 8965,
      "HAPPENED": 8966,
      "Immedi": 8967,
      "Janeiro": 8968,
      "Jardim": 8969,
      "Joaquim": 8970,
      "LUÍSA": 8971,
      "Linhas": 8972,
      "London": 8973,
      "Lança": 8974,
      "Loures": 8975,
      "LICENSE": 8976,
      "MINOR": 8977,
      "M506": 8978,
      "Norteshopping": 8979,
      "NACIONAL": 8980,
      "N232": 8981,
      "N375": 8982,
      "Plus": 8983,
      "Perhaps": 8984,
      "Pizarro": 8985,
      "Photographic": 8986,
      "Praceta": 8987,
      "PRAÇA": 8988,
      "PURPO": 8989,
      "Rápida": 8990,
      "Ricardo": 8991,
      "Should": 8992,
      "SMALL": 8993,
      "Torres": 8994,
      "Tavira": 8995,
      "Toural": 8996,
      "Temple": 8997,
      "Twingo": 8998,
      "TRUCK": 8999,
      "Velha": 9000,
      "WEEK": 9001,
      "afraid": 9002,
      "bodily": 9003,
      "doubt": 9004,
      "dizzy": 9005,
      "dusk": 9006,
      "dangling": 9007,
      "differently": 9008,
      "equipment": 9009,
      "emotional": 9010,
      "flank": 9011,
      "future": 9012,
      "million": 9013,
      "masonry": 9014,
      "ninety": 9015,
      "obliterated": 9016,
      "omits": 9017,
      "prided": 9018,
      "powerful": 9019,
      "savings": 9020,
      "sincerely": 9021,
      "trolley": 9022,
      "unexplained": 9023,
      "vacation": 9024,
      "wrecked": 9025,
      "wandered": 9026,
      "warehouse": 9027,
      "infrastructure": 9028,
      "invoices": 9029,
      "instantaneous": 9030,
      "health": 9031,
      "heavens": 9032,
      "stabilize": 9033,
      "artificial": 9034,
      "leverage": 9035,
      "repeatedly": 9036,
      "seventy": 9037,
      "isolated": 9038,
      "accusing": 9039,
      "imminent": 9040,
      "suffice": 9041,
      "successfully": 9042,
      "busier": 9043,
      "bullring": 9044,
      "adrenaline": 9045,
      "church": 9046,
      "chronic": 9047,
      "departed": 9048,
      "deafening": 9049,
      "deviation": 9050,
      "declined": 9051,
      "developed": 9052,
      "parcel": 9053,
      "library": 9054,
      "aggression": 9055,
      "neutral": 9056,
      "inexplic": 9057,
      "coincidence": 9058,
      "unimpeded": 9059,
      "unsettling": 9060,
      "fragments": 9061,
      "extract": 9062,
      "extort": 9063,
      "ambient": 9064,
      "ambulance": 9065,
      "consequences": 9066,
      "convinced": 9067,
      "perpetrator": 9068,
      "headrests": 9069,
      "Figueira": 9070,
      "Coastal": 9071,
      "Tobias": 9072,
      "Intentional": 9073,
      "INSURANCE": 9074,
      "definitively": 9075,
      "gradually": 9076,
      "DEALT": 9077,
      "DETAILS": 9078,
      "DESCOBRIMENTO": 9079,
      "discouraging": 9080,
      "CRAZY": 9081,
      "SHOPPING": 9082,
      "ABRIL": 9083,
      "ABSURD": 9084,
      "Capuchos": 9085,
      "meticulously": 9086,
      "ASSESSMENT": 9087,
      "Extremely": 9088,
      "Império": 9089,
      "PROFESSIONALLY": 9090,
      "familiar": 9091,
      "Salgueiro": 9092,
      "immaculate": 9093,
      "attentiveness": 9094,
      "INDUSTRIAL": 9095,
      "AUGUSTA": 9096,
      "DISGRACE": 9097,
      "LIBERDADE": 9098,
      "CEDOFEITA": 9099,
      "Estefânia": 9100,
      "DESCOBRIMENTOS": 9101,
      "020": 9102,
[...]
