{
  "version": "1.0",
  "truncation": null,
  "padding": null,
  "added_tokens": [
    {
      "id": 0,
      "content": "[PAD]",
      "single_word": false,
      "lstrip": false,
      "rstrip": false,
      "normalized": false,
      "special": true
    },
    {
      "id": 1,
      "content": "[UNK]",
      "single_word": false,
      "lstrip": false,
      "rstrip": false,
      "normalized": false,
      "special": true
    },
    {
      "id": 2,
      "content": "[CLS]",
      "single_word": false,
      "lstrip": false,
      "rstrip": false,
      "normalized": false,
      "special": true
    },
    {
      "id": 3,
      "content": "[SEP]",
      "single_word": false,
      "lstrip": false,
      "rstrip": false,
      "normalized": false,
      "special": true
    },
    {
      "id": 4,
      "content": "[MASK]",
      "single_word": false,
      "lstrip": false,
      "rstrip": false,
      "normalized": false,
      "special": true
    },
    {
      "id": 5,
      "content": "<claim>",
      "single_word": false,
      "lstrip": false,
      "rstrip": false,
      "normalized": false,
      "special": true
    },
    {
      "id": 6,
      "content": "<location>",
      "single_word": false,
      "lstrip": false,
      "rstrip": false,
      "normalized": false,
      "special": true
    },
    {
      "id": 7,
      "content": "<incident_type>",
      "single_word": false,
      "lstrip": false,
      "rstrip": false,
      "normalized": false,
      "special": true
    },
    {
      "id": 8,
      "content": "<label>",
      "single_word": false,
      "lstrip": false,
      "rstrip": false,
      "normalized": false,
      "special": true
    },
    {
      "id": 9,
      "content": "<fraud_indicators>",
      "single_word": false,
      "lstrip": false,
      "rstrip": false,
      "normalized": false,
      "special": true
    },
    {
      "id": 10,
      "content": "<statement>",
      "single_word": false,
      "lstrip": false,
      "rstrip": false,
      "normalized": false,
      "special": true
    },
    {
      "id": 11,
      "content": "<insured_driver>",
      "single_word": false,
      "lstrip": false,
      "rstrip": false,
      "normalized": false,
      "special": true
    },
    {
      "id": 12,
      "content": "<third_party_driver>",
      "single_word": false,
      "lstrip": false,
      "rstrip": false,
      "normalized": false,
      "special": true
    },
    {
      "id": 13,
      "content": "<insurance_adjuster>",
      "single_word": false,
      "lstrip": false,
      "rstrip": false,
      "normalized": false,
      "special": true
    },
    {
      "id": 14,
      "content": "<witness>",
      "single_word": false,
      "lstrip": false,
      "rstrip": false,
      "normalized": false,
      "special": true
    },
    {
      "id": 15,
      "content": "<police_report>",
      "single_word": false,
      "lstrip": false,
      "rstrip": false,
      "normalized": false,
      "special": true
    },
    {
      "id": 16,
      "content": "<expert_report>",
      "single_word": false,
      "lstrip": false,
      "rstrip": false,
      "normalized": false,
      "special": true
    },
    {
      "id": 17,
      "content": "<vehicle>",
      "single_word": false,
      "lstrip": false,
      "rstrip": false,
      "normalized": false,
      "special": true
    },
    {
      "id": 18,
      "content": "<speed>",
      "single_word": false,
      "lstrip": false,
      "rstrip": false,
      "normalized": false,
      "special": true
    },
    {
      "id": 19,
      "content": "<none>",
      "single_word": false,
      "lstrip": false,
      "rstrip": false,
      "normalized": false,
      "special": true
    },
    {
      "id": 20,
      "content": "<sep_stmt>",
      "single_word": false,
      "lstrip": false,
      "rstrip": false,
      "normalized": false,
      "special": true
    }
  ],
  "normalizer": {
    "type": "Sequence",
    "normalizers": [
      {
        "type": "NFKC"
      }
    ]
  },
  "pre_tokenizer": {
    "type": "Sequence",
    "pretokenizers": [
      {
        "type": "Whitespace"
      },
      {
        "type": "Punctuation",
        "behavior": "Isolated"
      }
    ]
  },
  "post_processor": {
    "type": "TemplateProcessing",
    "single": [
      {
        "Sequence": {
          "id": "A",
          "type_id": 0
        }
      }
    ],
    "pair": [
      {
        "Sequence": {
          "id": "A",
          "type_id": 0
        }
      },
      {
        "Sequence": {
          "id": "B",
          "type_id": 1
        }
      }
    ],
    "special_tokens": {}
  },
  "decoder": null,
  "model": {
    "type": "BPE",
    "dropout": null,
    "unk_token": "[UNK]",
    "continuing_subword_prefix": null,
    "end_of_word_suffix": null,
    "fuse_unk": false,
    "byte_fallback": false,
    "ignore_merges": false,
    "vocab": {
      "[PAD]": 0,
      "[UNK]": 1,
      "[CLS]": 2,
      "[SEP]": 3,
      "[MASK]": 4,
      "<claim>": 5,
      "<location>": 6,
      "<incident_type>": 7,
      "<label>": 8,
      "<fraud_indicators>": 9,
      "<statement>": 10,
      "<insured_driver>": 11,
      "<third_party_driver>": 12,
      "<insurance_adjuster>": 13,
      "<witness>": 14,
      "<police_report>": 15,
      "<expert_report>": 16,
      "<vehicle>": 17,
      "<speed>": 18,
      "<none>": 19,
      "<sep_stmt>": 20,
      "!": 21,
      "$": 22,
      "%": 23,
      "'": 24,
      "(": 25,
      ")": 26,
      ",": 27,
      "-": 28,
      ".": 29,
      "/": 30,
      "0": 31,
      "1": 32,
      "2": 33,
      "3": 34,
      "4": 35,
      "5": 36,
      "6": 37,
      "7": 38,
      "8": 39,
      "9": 40,
      ":": 41,
      ";": 42,
      "<": 43,
      ">": 44,
      "A": 45,
      "B": 46,
      "C": 47,
      "D": 48,
      "E": 49,
      "F": 50,
      "G": 51,
      "H": 52,
      "I": 53,
      "J": 54,
      "K": 55,
      "L": 56,
      "M": 57,
      "N": 58,
      "O": 59,
      "P": 60,
      "Q": 61,
      "R": 62,
      "S": 63,
      "T": 64,
      "U": 65,
      "V": 66,
      "W": 67,
      "X": 68,
      "Y": 69,
      "Z": 70,
      "_": 71,
      "a": 72,
      "b": 73,
      "c": 74,
      "d": 75,
      "e": 76,
      "f": 77,
      "g": 78,
      "h": 79,
      "i": 80,
      "j": 81,
      "k": 82,
      "l": 83,
      "m": 84,
      "n": 85,
      "o": 86,
      "p": 87,
      "q": 88,
      "r": 89,
      "s": 90,
      "t": 91,
      "u": 92,
      "v": 93,
      "w": 94,
      "x": 95,
      "y": 96,
      "z": 97,
      "É": 98,
      "á": 99,
      "ã": 100,
      "ç": 101,
      "é": 102,
      "ê": 103,
      "í": 104,
      "ó": 105,
      "õ": 106,
      "ú": 107,
      "in": 108,
      "he": 109,
      "st": 110,
      "en": 111,
      "ed": 112,
      "er": 113,
      "at": 114,
      "on": 115,
      "the": 116,
      "an": 117,
      "ar": 118,
      "hi": 119,
      "le": 120,
      "ent": 121,
      "ri": 122,
      "ing": 123,
      "or": 124,
      "ve": 125,
      "as": 126,
      "id": 127,
      "al": 128,
      "se": 129,
      "to": 130,
      "ur": 131,
      "cle": 132,
      "ver": 133,
      "ro": 134,
      "hicle": 135,
      "re": 136,
      "vehicle": 137,
      "ate": 138,
      "la": 139,
      "ment": 140,
      "ac": 141,
      "atement": 142,
      "statement": 143,
      "and": 144,
      "sep": 145,
      "mt": 146,
      "stmt": 147,
      "el": 148,
      "dri": 149,
      "ion": 150,
      "sur": 151,
      "it": 152,
      "was": 153,
      "im": 154,
      "ra": 155,
      "insur": 156,
      "lo": 157,
      "gh": 158,
      "ad": 159,
      "driver": 160,
      "is": 161,
      "pe": 162,
      "ty": 163,
      "ut": 164,
      "ident": 165,
      "cident": 166,
      "co": 167,
      "ce": 168,
      "my": 169,
      "of": 170,
      "ge": 171,
      "ly": 172,
      "par": 173,
      "ght": 174,
      "ic": 175,
      "ust": 176,
      "The": 177,
      "ation": 178,
      "laim": 179,
      "mp": 180,
      "ot": 181,
      "un": 182,
      "il": 183,
      "da": 184,
      "just": 185,
      "claim": 186,
      "one": 187,
      "li": 188,
      "insured": 189,
      "ma": 190,
      "ance": 191,
      "pp": 192,
      "car": 193,
      "out": 194,
      "ort": 195,
      "20": 196,
      "ul": 197,
      "ine": 198,
      "none": 199,
      "do": 200,
      "gal": 201,
      "me": 202,
      "loc": 203,
      "es": 204,
      "insurance": 205,
      "incident": 206,
      "ir": 207,
      "Port": 208,
      "bel": 209,
      "location": 210,
      "for": 211,
      "rd": 212,
      "hird": 213,
      "adjust": 214,
      "type": 215,
      "party": 216,
      "Portu": 217,
      "26": 218,
      "spe": 219,
      "ind": 220,
      "Portugal": 221,
      "PT": 222,
      "label": 223,
      "2026": 224,
      "adjuster": 225,
      "ked": 226,
      "accident": 227,
      "lan": 228,
      "si": 229,
      "right": 230,
      "into": 231,
      "gen": 232,
      "mage": 233,
      "ct": 234,
      "ho": 235,
      "ud": 236,
      "third": 237,
      "ide": 238,
      "ab": 239,
      "con": 240,
      "speed": 241,
      "uine": 242,
      "genuine": 243,
      "ll": 244,
      "damage": 245,
      "sto": 246,
      "bu": 247,
      "lane": 248,
      "side": 249,
      "king": 250,
      "tr": 251,
      "ont": 252,
      "hit": 253,
      "fa": 254,
      "km": 255,
      "kmh": 256,
      "ay": 257,
      "be": 258,
      "cr": 259,
      "de": 260,
      "pped": 261,
      "bump": 262,
      "act": 263,
      "ol": 264,
      "ss": 265,
      "wit": 266,
      "ely": 267,
      "rear": 268,
      "ex": 269,
      "hed": 270,
      "int": 271,
      "ront": 272,
      "us": 273,
      "ving": 274,
      "ch": 275,
      "comp": 276,
      "front": 277,
      "ard": 278,
      "ck": 279,
      "end": 280,
      "door": 281,
      "ag": 282,
      "his": 283,
      "with": 284,
      "fro": 285,
      "way": 286,
      "coll": 287,
      "th": 288,
      "from": 289,
      "ity": 290,
      "bra": 291,
      "In": 292,
      "ision": 293,
      "bumper": 294,
      "but": 295,
      "di": 296,
      "sp": 297,
      "collision": 298,
      "fic": 299,
      "ft": 300,
      "ca": 301,
      "ke": 302,
      "low": 303,
      "ility": 304,
      "av": 305,
      "und": 306,
      "sa": 307,
      "tra": 308,
      "driving": 309,
      "raud": 310,
      "ult": 311,
      "ass": 312,
      "left": 313,
      "light": 314,
      "ta": 315,
      "fraud": 316,
      "gn": 317,
      "let": 318,
      "ability": 319,
      "bac": 320,
      "ross": 321,
      "ffic": 322,
      "stopped": 323,
      "00": 324,
      "all": 325,
      "eld": 326,
      "sive": 327,
      "med": 328,
      "fail": 329,
      "sc": 330,
      "ti": 331,
      "ction": 332,
      "ru": 333,
      "te": 334,
      "road": 335,
      "pa": 336,
      "per": 337,
      "complet": 338,
      "ia": 339,
      "completely": 340,
      "wn": 341,
      "imp": 342,
      "ashed": 343,
      "He": 344,
      "unda": 345,
      "et": 346,
      "hen": 347,
      "beh": 348,
      "It": 349,
      "parked": 350,
      "behind": 351,
      "ger": 352,
      "are": 353,
      "ha": 354,
      "sho": 355,
      "loo": 356,
      "stop": 357,
      "ne": 358,
      "over": 359,
      "po": 360,
      "pen": 361,
      "ped": 362,
      "ved": 363,
      "den": 364,
      "ors": 365,
      "ical": 366,
      "traffic": 367,
      "impact": 368,
      "fe": 369,
      "mat": 370,
      "ppro": 371,
      "ted": 372,
      "ter": 373,
      "sured": 374,
      "Insured": 375,
      "Re": 376,
      "che": 377,
      "age": 378,
      "we": 379,
      "uld": 380,
      "ain": 381,
      "had": 382,
      "ph": 383,
      "ting": 384,
      "bl": 385,
      "bon": 386,
      "pro": 387,
      "ue": 388,
      "ven": 389,
      "stri": 390,
      "sign": 391,
      "tru": 392,
      "tur": 393,
      "irr": 394,
      "truck": 395,
      "cross": 396,
      "did": 397,
      "kes": 398,
      "ugh": 399,
      "fi": 400,
      "ctly": 401,
      "not": 402,
      "My": 403,
      "appro": 404,
      "pass": 405,
      "sm": 406,
      "rid": 407,
      "off": 408,
      "brakes": 409,
      "back": 410,
      "bout": 411,
      "cy": 412,
      "ep": 413,
      "eu": 414,
      "fir": 415,
      "ield": 416,
      "mirr": 417,
      "od": 418,
      "so": 419,
      "van": 420,
      "wo": 421,
      "scra": 422,
      "undabout": 423,
      "turn": 424,
      "tim": 425,
      "whi": 426,
      "yield": 427,
      "very": 428,
      "its": 429,
      "ghway": 430,
      "avy": 431,
      "didn": 432,
      "ble": 433,
      "ged": 434,
      "no": 435,
      "stre": 436,
      "indic": 437,
      "sist": 438,
      "able": 439,
      "consist": 440,
      "thro": 441,
      "Li": 442,
      "mis": 443,
      "ash": 444,
      "down": 445,
      "time": 446,
      "consistent": 447,
      "100": 448,
      "Fi": 449,
      "fo": 450,
      "hard": 451,
      "mer": 452,
      "sing": 453,
      "liability": 454,
      "open": 455,
      "wind": 456,
      "oth": 457,
      "indicat": 458,
      "To": 459,
      "bar": 460,
      "cli": 461,
      "dro": 462,
      "lar": 463,
      "mo": 464,
      "man": 465,
      "vi": 466,
      "enter": 467,
      "adm": 468,
      "fault": 469,
      "street": 470,
      "through": 471,
      "ight": 472,
      "sh": 473,
      "up": 474,
      "head": 475,
      "him": 476,
      "parking": 477,
      "ced": 478,
      "lat": 479,
      "ms": 480,
      "ys": 481,
      "section": 482,
      "roundabout": 483,
      "ull": 484,
      "under": 485,
      "failed": 486,
      "Liability": 487,
      "ming": 488,
      "ua": 489,
      "ste": 490,
      "rehen": 491,
      "confir": 492,
      "comprehen": 493,
      "that": 494,
      "comprehensive": 495,
      "bo": 496,
      "mar": 497,
      "ena": 498,
      "ally": 499,
      "exit": 500,
      "inter": 501,
      "spot": 502,
      "indicators": 503,
      "fer": 504,
      "scr": 505,
      "rep": 506,
      "udden": 507,
      "dist": 508,
      "blind": 509,
      "scrat": 510,
      "Hi": 511,
      "Rena": 512,
      "estri": 513,
      "inj": 514,
      "ida": 515,
      "clear": 516,
      "could": 517,
      "crac": 518,
      "crashed": 519,
      "show": 520,
      "Rear": 521,
      "Renault": 522,
      "estrian": 523,
      "BM": 524,
      "Lis": 525,
      "Se": 526,
      "go": 527,
      "station": 528,
      "too": 529,
      "versing": 530,
      "row": 531,
      "ushed": 532,
      "Fiat": 533,
      "Highway": 534,
      "BMW": 535,
      "Lisbon": 536,
      "Claim": 537,
      "For": 538,
      "Por": 539,
      "Peu": 540,
      "Rua": 541,
      "by": 542,
      "mmed": 543,
      "whe": 544,
      "inor": 545,
      "aro": 546,
      "geot": 547,
      "without": 548,
      "approved": 549,
      "smashed": 550,
      "Peugeot": 551,
      "50": 552,
      "Da": 553,
      "bi": 554,
      "shi": 555,
      "ating": 556,
      "cover": 557,
      "liable": 558,
      "pping": 559,
      "ended": 560,
      "looked": 561,
      "admits": 562,
      "ysical": 563,
      "Aven": 564,
      "VW": 565,
      "cur": 566,
      "ire": 567,
      "pre": 568,
      "sla": 569,
      "yot": 570,
      "inside": 571,
      "arrow": 572,
      "alid": 573,
      "lice": 574,
      "mirror": 575,
      "Toyot": 576,
      "intersection": 577,
      "Avenida": 578,
      "Toyota": 579,
      "40": 580,
      "Par": 581,
      "bro": 582,
      "gl": 583,
      "hing": 584,
      "line": 585,
      "narrow": 586,
      "wi": 587,
      "ward": 588,
      "onto": 589,
      "ans": 590,
      "across": 591,
      "ellow": 592,
      "coming": 593,
      "exag": 594,
      "crossing": 595,
      "uddenly": 596,
      "couldn": 597,
      "slammed": 598,
      "exagger": 599,
      "30": 600,
      "IS": 601,
      "Mer": 602,
      "gu": 603,
      "ied": 604,
      "ign": 605,
      "vo": 606,
      "star": 607,
      "their": 608,
      "chan": 609,
      "dire": 610,
      "tire": 611,
      "Damage": 612,
      "shield": 613,
      "both": 614,
      "cre": 615,
      "su": 616,
      "wer": 617,
      "heavy": 618,
      "ther": 619,
      "rier": 620,
      "coot": 621,
      "paint": 622,
      "later": 623,
      "Porto": 624,
      "exaggeration": 625,
      "cooter": 626,
      "25": 627,
      "Dri": 628,
      "mas": 629,
      "red": 630,
      "ught": 631,
      "inconsistent": 632,
      "stra": 633,
      "ated": 634,
      "ary": 635,
      "aged": 636,
      "windshield": 637,
      "massive": 638,
      "10": 639,
      "Le": 640,
      "Third": 641,
      "Vol": 642,
      "Valid": 643,
      "os": 644,
      "pri": 645,
      "ran": 646,
      "tri": 647,
      "idd": 648,
      "sever": 649,
      "cep": 650,
      "cess": 651,
      "maint": 652,
      "olf": 653,
      "pedestrian": 654,
      "scraped": 655,
      "cracked": 656,
      "shows": 657,
      "Seat": 658,
      "stationary": 659,
      "Ford": 660,
      "crete": 661,
      "Volvo": 662,
      "Co": 663,
      "ga": 664,
      "ifi": 665,
      "qu": 666,
      "wal": 667,
      "ying": 668,
      "enger": 669,
      "there": 670,
      "accep": 671,
      "imal": 672,
      "iss": 673,
      "otor": 674,
      "ill": 675,
      "cars": 676,
      "ully": 677,
      "cond": 678,
      "concrete": 679,
      "trans": 680,
      "again": 681,
      "safe": 682,
      "failing": 683,
      "ches": 684,
      "while": 685,
      "barrier": 686,
      "large": 687,
      "cedes": 688,
      "confirms": 689,
      "distance": 690,
      "Mercedes": 691,
      "transfer": 692,
      "19": 693,
      "Aud": 694,
      "LIS": 695,
      "Ve": 696,
      "cor": 697,
      "cut": 698,
      "fely": 699,
      "ist": 700,
      "lle": 701,
      "sof": 702,
      "slow": 703,
      "see": 704,
      "rain": 705,
      "ess": 706,
      "fore": 707,
      "spection": 708,
      "safely": 709,
      "have": 710,
      "physical": 711,
      "passenger": 712,
      "clist": 713,
      "injur": 714,
      "started": 715,
      "directly": 716,
      "Audi": 717,
      "Vehicle": 718,
      "soft": 719,
      "CI": 720,
      "Tra": 721,
      "VCI": 722,
      "We": 723,
      "fully": 724,
      "gri": 725,
      "has": 726,
      "ness": 727,
      "pat": 728,
      "tal": 729,
      "tro": 730,
      "ant": 731,
      "entire": 732,
      "last": 733,
      "parti": 734,
      "There": 735,
      "hole": 736,
      "pair": 737,
      "looking": 738,
      "police": 739,
      "maintain": 740,
      "ev": 741,
      "ial": 742,
      "lass": 743,
      "pushed": 744,
      "tre": 745,
      "yellow": 746,
      "zed": 747,
      "second": 748,
      "reversing": 749,
      "damages": 750,
      "action": 751,
      "denied": 752,
      "viol": 753,
      "report": 754,
      "scratch": 755,
      "wheel": 756,
      "around": 757,
      "bike": 758,
      "against": 759,
      "Class": 760,
      "Niss": 761,
      "ive": 762,
      "jud": 763,
      "lit": 764,
      "must": 765,
      "midd": 766,
      "ob": 767,
      "own": 768,
      "scooter": 769,
      "tic": 770,
      "uri": 771,
      "ero": 772,
      "atter": 773,
      "high": 774,
      "roll": 775,
      "vehicles": 776,
      "about": 777,
      "before": 778,
      "deep": 779,
      "doors": 780,
      "brake": 781,
      "came": 782,
      "avi": 783,
      "match": 784,
      "ridge": 785,
      "shatter": 786,
      "accepted": 787,
      "Nissan": 788,
      "middle": 789,
      "15": 790,
      "16": 791,
      "Cit": 792,
      "Op": 793,
      "SU": 794,
      "Vi": 795,
      "bal": 796,
      "bridge": 797,
      "gre": 798,
      "ib": 799,
      "ks": 800,
      "pull": 801,
      "tho": 802,
      "ual": 803,
      "vis": 804,
      "her": 805,
      "legal": 806,
      "roen": 807,
      "repair": 808,
      "ite": 809,
      "ics": 810,
      "unk": 811,
      "hood": 812,
      "caus": 813,
      "cyclist": 814,
      "misjud": 815,
      "Parking": 816,
      "injury": 817,
      "path": 818,
      "Citroen": 819,
      "Opel": 820,
      "SUV": 821,
      "Dac": 822,
      "Hon": 823,
      "St": 824,
      "am": 825,
      "ect": 826,
      "ject": 827,
      "minor": 828,
      "motor": 829,
      "ner": 830,
      "oid": 831,
      "other": 832,
      "plan": 833,
      "use": 834,
      "ze": 835,
      "stru": 836,
      "ong": 837,
      "ace": 838,
      "actor": 839,
      "exist": 840,
      "avoid": 841,
      "tight": 842,
      "Heavy": 843,
      "Driver": 844,
      "grille": 845,
      "thought": 846,
      "Dacia": 847,
      "Honda": 848,
      "18": 849,
      "Al": 850,
      "Kia": 851,
      "Po": 852,
      "Pro": 853,
      "Ro": 854,
      "Tes": 855,
      "When": 856,
      "can": 857,
      "dent": 858,
      "ging": 859,
      "got": 860,
      "ous": 861,
      "plast": 862,
      "suddenly": 863,
      "staged": 864,
      "atte": 865,
      "alle": 866,
      "top": 867,
      "outer": 868,
      "trying": 869,
      "trunk": 870,
      "backing": 871,
      "perfe": 872,
      "passing": 873,
      "turned": 874,
      "curve": 875,
      "legally": 876,
      "existing": 877,
      "Tesla": 878,
      "plastic": 879,
      "attemp": 880,
      "perfectly": 881,
      "Golf": 882,
      "IC": 883,
      "No": 884,
      "OR": 885,
      "POR": 886,
      "bed": 887,
      "cked": 888,
      "ched": 889,
      "even": 890,
      "pl": 891,
      "this": 892,
      "ydro": 893,
      "ensur": 894,
      "ence": 895,
      "orm": 896,
      "ides": 897,
      "align": 898,
      "ramp": 899,
      "abs": 900,
      "contro": 901,
      "fast": 902,
      "bumped": 903,
      "witness": 904,
      "braked": 905,
      "space": 906,
      "saw": 907,
      "tail": 908,
      "need": 909,
      "matches": 910,
      "check": 911,
      "boned": 912,
      "proper": 913,
      "riding": 914,
      "cycle": 915,
      "mirrors": 916,
      "which": 917,
      "wipe": 918,
      "Traffic": 919,
      "Cor": 920,
      "due": 921,
      "fl": 922,
      "gation": 923,
      "gine": 924,
      "lid": 925,
      "sion": 926,
      "wa": 927,
      "wide": 928,
      "stone": 929,
      "engine": 930,
      "animal": 931,
      "ric": 932,
      "veal": 933,
      "ure": 934,
      "ural": 935,
      "reveal": 936,
      "othole": 937,
      "force": 938,
      "hori": 939,
      "hitting": 940,
      "old": 941,
      "backed": 942,
      "file": 943,
      "approac": 944,
      "moving": 945,
      "steer": 946,
      "going": 947,
      "ified": 948,
      "misjudged": 949,
      "Process": 950,
      "control": 951,
      "13": 952,
      "A1": 953,
      "A2": 954,
      "An": 955,
      "Me": 956,
      "Mod": 957,
      "Minor": 958,
      "SI": 959,
      "aia": 960,
      "bri": 961,
      "clo": 962,
      "fel": 963,
      "fall": 964,
      "hand": 965,
      "iate": 966,
      "ivery": 967,
      "que": 968,
      "son": 969,
      "swer": 970,
      "whit": 971,
      "heavi": 972,
      "them": 973,
      "ane": 974,
      "lemat": 975,
      "uring": 976,
      "acc": 977,
      "elivery": 978,
      "itting": 979,
      "immed": 980,
      "uthori": 981,
      "bus": 982,
      "cause": 983,
      "lightly": 984,
      "taking": 985,
      "profile": 986,
      "drove": 987,
      "coverage": 988,
      "straight": 989,
      "severe": 990,
      "object": 991,
      "rolled": 992,
      "shattered": 993,
      "ydroplan": 994,
      "Processing": 995,
      "white": 996,
      "heavily": 997,
      "lematics": 998,
      "immediate": 999,
      "07": 1000,
      "08": 1001,
      "14": 1002,
      "17": 1003,
      "60": 1004,
      "As": 1005,
      "Both": 1006,
      "Do": 1007,
      "Ho": 1008,
      "Sing": 1009,
      "ahead": 1010,
      "ber": 1011,
      "center": 1012,
      "delivery": 1013,
      "em": 1014,
      "full": 1015,
      "io": 1016,
      "ible": 1017,
      "ken": 1018,
      "ori": 1019,
      "pan": 1020,
      "sus": 1021,
      "two": 1022,
      "ump": 1023,
      "val": 1024,
      "xi": 1025,
      "stro": 1026,
      "ens": 1027,
      "ata": 1028,
      "att": 1029,
      "ided": 1030,
      "imparti": 1031,
      "radi": 1032,
      "loss": 1033,
      "ade": 1034,
      "claims": 1035,
      "Inspection": 1036,
      "tapped": 1037,
      "failure": 1038,
      "pension": 1039,
      "checked": 1040,
      "euver": 1041,
      "found": 1042,
      "maneuver": 1043,
      "entering": 1044,
      "repla": 1045,
      "glare": 1046,
      "guy": 1047,
      "change": 1048,
      "Damages": 1049,
      "were": 1050,
      "Leon": 1051,
      "Vehicles": 1052,
      "Vila": 1053,
      "caused": 1054,
      "motorcycle": 1055,
      "allel": 1056,
      "reveals": 1057,
      "Single": 1058,
      "suspension": 1059,
      "impartial": 1060,
      "500": 1061,
      "90": 1062,
      "AR": 1063,
      "Appro": 1064,
      "Smar": 1065,
      "Suddenly": 1066,
      "authori": 1067,
      "cl": 1068,
      "cul": 1069,
      "dar": 1070,
      "ew": 1071,
      "gar": 1072,
      "gro": 1073,
      "na": 1074,
      "night": 1075,
      "pil": 1076,
      "sun": 1077,
      "sides": 1078,
      "slid": 1079,
      "wall": 1080,
      "when": 1081,
      "yed": 1082,
      "zero": 1083,
      "init": 1084,
      "incr": 1085,
      "sti": 1086,
      "erate": 1087,
      "anto": 1088,
      "highway": 1089,
      "roof": 1090,
      "res": 1091,
      "ach": 1092,
      "eler": 1093,
      "drive": 1094,
      "imbra": 1095,
      "lost": 1096,
      "drivers": 1097,
      "offic": 1098,
      "get": 1099,
      "icy": 1100,
      "outside": 1101,
      "metal": 1102,
      "ircul": 1103,
      "forward": 1104,
      "lanes": 1105,
      "because": 1106,
      "dily": 1107,
      "tram": 1108,
      "rule": 1109,
      "new": 1110,
      "Reversing": 1111,
      "scrape": 1112,
      "turning": 1113,
      "blew": 1114,
      "opened": 1115,
      "clipped": 1116,
      "broke": 1117,
      "lateral": 1118,
      "Coimbra": 1119,
      "walk": 1120,
      "slowly": 1121,
      "violent": 1122,
      "Classic": 1123,
      "attempting": 1124,
      "property": 1125,
      "approaching": 1126,
      "steering": 1127,
      "Model": 1128,
      "acceler": 1129,
      "Smart": 1130,
      "garage": 1131,
      "pillar": 1132,
      "incred": 1133,
      "officer": 1134,
      "12": 1135,
      "80": 1136,
      "Bra": 1137,
      "Faro": 1138,
      "FAR": 1139,
      "Ph": 1140,
      "Sint": 1141,
      "Tru": 1142,
      "XC": 1143,
      "away": 1144,
      "circul": 1145,
      "fle": 1146,
      "ning": 1147,
      "pi": 1148,
      "pt": 1149,
      "tin": 1150,
      "ub": 1151,
      "went": 1152,
      "ense": 1153,
      "ator": 1154,
      "oncoming": 1155,
      "ention": 1156,
      "vesti": 1157,
      "along": 1158,
      "read": 1159,
      "acks": 1160,
      "statements": 1161,
      "wasn": 1162,
      "load": 1163,
      "utual": 1164,
      "parallel": 1165,
      "lio": 1166,
      "ppos": 1167,
      "dog": 1168,
      "meter": 1169,
      "cted": 1170,
      "stopping": 1171,
      "tracks": 1172,
      "destro": 1173,
      "ollow": 1174,
      "split": 1175,
      "lights": 1176,
      "take": 1177,
      "telematics": 1178,
      "person": 1179,
      "should": 1180,
      "wever": 1181,
      "view": 1182,
      "entered": 1183,
      "bodily": 1184,
      "marked": 1185,
      "distr": 1186,
      "injuri": 1187,
      "where": 1188,
      "broken": 1189,
      "wards": 1190,
      "priori": 1191,
      "corner": 1192,
      "IC19": 1193,
      "SIU": 1194,
      "However": 1195,
      "Approved": 1196,
      "dark": 1197,
      "Sintra": 1198,
      "Truck": 1199,
      "circulating": 1200,
      "vestigation": 1201,
      "injuries": 1202,
      "priority": 1203,
      "125": 1204,
      "AS": 1205,
      "BR": 1206,
      "CO": 1207,
      "Hy": 1208,
      "Qash": 1209,
      "Rot": 1210,
      "Sho": 1211,
      "Set": 1212,
      "Stop": 1213,
      "Tr": 1214,
      "Two": 1215,
      "ai": 1216,
      "bag": 1217,
      "blow": 1218,
      "cial": 1219,
      "fil": 1220,
      "follow": 1221,
      "hu": 1222,
      "hydroplan": 1223,
      "iro": 1224,
      "kine": 1225,
      "ping": 1226,
      "pay": 1227,
      "pothole": 1228,
      "qai": 1229,
      "slightly": 1230,
      "za": 1231,
      "inspection": 1232,
      "edge": 1233,
      "ather": 1234,
      "they": 1235,
      "entr": 1236,
      "seat": 1237,
      "lack": 1238,
      "andard": 1239,
      "iting": 1240,
      "log": 1241,
      "ild": 1242,
      "20d": 1243,
      "gency": 1244,
      "home": 1245,
      "crushed": 1246,
      "ext": 1247,
      "exact": 1248,
      "ushing": 1249,
      "thre": 1250,
      "ruin": 1251,
      "undai": 1252,
      "phone": 1253,
      "signs": 1254,
      "small": 1255,
      "rider": 1256,
      "fog": 1257,
      "foot": 1258,
      "mergency": 1259,
      "tried": 1260,
      "pulled": 1261,
      "plate": 1262,
      "tailg": 1263,
      "fell": 1264,
      "immediately": 1265,
      "value": 1266,
      "radiator": 1267,
      "replace": 1268,
      "antom": 1269,
      "violently": 1270,
      "Braga": 1271,
      "flew": 1272,
      "Hyundai": 1273,
      "Qashqai": 1274,
      "Rotunda": 1275,
      "Shopping": 1276,
      "huge": 1277,
      "03": 1278,
      "04": 1279,
      "05": 1280,
      "06": 1281,
      "09": 1282,
      "22": 1283,
      "70": 1284,
      "A3": 1285,
      "AV": 1286,
      "Ave": 1287,
      "Ca": 1288,
      "Cle": 1289,
      "Cas": 1290,
      "ET": 1291,
      "Fraud": 1292,
      "Gaia": 1293,
      "Hitting": 1294,
      "LE": 1295,
      "Mar": 1296,
      "Ped": 1297,
      "Pont": 1298,
      "Sp": 1299,
      "SET": 1300,
      "app": 1301,
      "air": 1302,
      "ded": 1303,
      "des": 1304,
      "data": 1305,
      "emergency": 1306,
      "fend": 1307,
      "golf": 1308,
      "iri": 1309,
      "ira": 1310,
      "lic": 1311,
      "oper": 1312,
      "pushing": 1313,
      "run": 1314,
      "sed": 1315,
      "swipe": 1316,
      "sna": 1317,
      "twe": 1318,
      "úbal": 1319,
      "inst": 1320,
      "storm": 1321,
      "ene": 1322,
      "only": 1323,
      "hill": 1324,
      "lea": 1325,
      "asive": 1326,
      "idence": 1327,
      "alf": 1328,
      "alread": 1329,
      "verifi": 1330,
      "part": 1331,
      "dama": 1332,
      "ulent": 1333,
      "betwe": 1334,
      "Investigation": 1335,
      "medical": 1336,
      "past": 1337,
      "shock": 1338,
      "pole": 1339,
      "phantom": 1340,
      "signal": 1341,
      "crossed": 1342,
      "would": 1343,
      "scraping": 1344,
      "barely": 1345,
      "managed": 1346,
      "admit": 1347,
      "scratched": 1348,
      "crack": 1349,
      "Leiri": 1350,
      "severely": 1351,
      "raining": 1352,
      "ibly": 1353,
      "ibility": 1354,
      "repairs": 1355,
      "struct": 1356,
      "ensuring": 1357,
      "waiting": 1358,
      "Animal": 1359,
      "bris": 1360,
      "close": 1361,
      "club": 1362,
      "incredibly": 1363,
      "distraction": 1364,
      "COI": 1365,
      "Setúbal": 1366,
      "kinetic": 1367,
      "ruined": 1368,
      "replacement": 1369,
      "Clear": 1370,
      "Casca": 1371,
      "Fraudulent": 1372,
      "Pedestrian": 1373,
      "Ponte": 1374,
      "fender": 1375,
      "license": 1376,
      "already": 1377,
      "between": 1378,
      "Leiria": 1379,
      "A5": 1380,
      "Car": 1381,
      "Clio": 1382,
      "CAS": 1383,
      "DR": 1384,
      "EDR": 1385,
      "Fo": 1386,
      "Min": 1387,
      "NG": 1388,
      "Via": 1389,
      "VNG": 1390,
      "Whi": 1391,
      "Yellow": 1392,
      "bent": 1393,
      "bloc": 1394,
      "bble": 1395,
      "cm": 1396,
      "cat": 1397,
      "das": 1398,
      "dust": 1399,
      "dir": 1400,
      "dash": 1401,
      "est": 1402,
      "ff": 1403,
      "gas": 1404,
      "gane": 1405,
      "jump": 1406,
      "next": 1407,
      "ough": 1408,
      "va": 1409,
      "wat": 1410,
      "wet": 1411,
      "ão": 1412,
      "ina": 1413,
      "stay": 1414,
      "enough": 1415,
      "arm": 1416,
      "rim": 1417,
      "ripped": 1418,
      "oring": 1419,
      "also": 1420,
      "relat": 1421,
      "unverifi": 1422,
      "main": 1423,
      "sible": 1424,
      "llard": 1425,
      "traction": 1426,
      "tractor": 1427,
      "def": 1428,
      "debris": 1429,
      "extre": 1430,
      "Inter": 1431,
      "spun": 1432,
      "cam": 1433,
      "caught": 1434,
      "alled": 1435,
      "overtaking": 1436,
      "blic": 1437,
      "mismatch": 1438,
      "four": 1439,
      "headlight": 1440,
      "stepped": 1441,
      "bollard": 1442,
      "clearly": 1443,
      "took": 1444,
      "wiped": 1445,
      "308": 1446,
      "tires": 1447,
      "antly": 1448,
      "entirely": 1449,
      "evidence": 1450,
      "seconds": 1451,
      "liter": 1452,
      "green": 1453,
      "visible": 1454,
      "visibility": 1455,
      "items": 1456,
      "Standard": 1457,
      "Police": 1458,
      "Roundabout": 1459,
      "ously": 1460,
      "Nova": 1461,
      "Corsa": 1462,
      "stones": 1463,
      "Megane": 1464,
      "swerved": 1465,
      "panel": 1466,
      "driveway": 1467,
      "Physical": 1468,
      "tiny": 1469,
      "shoulder": 1470,
      "BRA": 1471,
      "AVE": 1472,
      "Aveiro": 1473,
      "damaged": 1474,
      "Cascais": 1475,
      "Mini": 1476,
      "While": 1477,
      "related": 1478,
      "unverifiable": 1479,
      "A4": 1480,
      "Ar": 1481,
      "At": 1482,
      "Bo": 1483,
      "But": 1484,
      "EV": 1485,
      "Ex": 1486,
      "Ma": 1487,
      "Mutual": 1488,
      "Rover": 1489,
      "Sand": 1490,
      "Side": 1491,
      "Scooter": 1492,
      "This": 1493,
      "Ver": 1494,
      "Yar": 1495,
      "br": 1496,
      "during": 1497,
      "ear": 1498,
      "flo": 1499,
      "ffer": 1500,
      "if": 1501,
      "ific": 1502,
      "ized": 1503,
      "ling": 1504,
      "our": 1505,
      "oppos": 1506,
      "sy": 1507,
      "um": 1508,
      "uff": 1509,
      "vate": 1510,
      "wing": 1511,
      "whole": 1512,
      "wild": 1513,
      "ybe": 1514,
      "zard": 1515,
      "ça": 1516,
      "inal": 1517,
      "inner": 1518,
      "heard": 1519,
      "sts": 1520,
      "arp": 1521,
      "ora": 1522,
      "total": 1523,
      "touri": 1524,
      "real": 1525,
      "react": 1526,
      "wash": 1527,
      "loy": 1528,
      "cobble": 1529,
      "Then": 1530,
      "ung": 1531,
      "unmarked": 1532,
      "iler": 1533,
      "maybe": 1534,
      "doing": 1535,
      "mechan": 1536,
      "being": 1537,
      "dep": 1538,
      "dead": 1539,
      "olla": 1540,
      "chain": 1541,
      "within": 1542,
      "thing": 1543,
      "camer": 1544,
      "keep": 1545,
      "same": 1546,
      "trailer": 1547,
      "assu": 1548,
      "tain": 1549,
      "taxi": 1550,
      "scre": 1551,
      "scene": 1552,
      "hair": 1553,
      "hazard": 1554,
      "strictly": 1555,
      "crosswalk": 1556,
      "first": 1557,
      "merged": 1558,
      "merging": 1559,
      "move": 1560,
      "sharp": 1561,
      "Sever": 1562,
      "private": 1563,
      "gap": 1564,
      "walking": 1565,
      "physically": 1566,
      "violation": 1567,
      "pulling": 1568,
      "zebra": 1569,
      "ensure": 1570,
      "absol": 1571,
      "Corolla": 1572,
      "Dooring": 1573,
      "authorized": 1574,
      "initi": 1575,
      "icycle": 1576,
      "destroyed": 1577,
      "following": 1578,
      "logical": 1579,
      "instantly": 1580,
      "structural": 1581,
      "water": 1582,
      "extreme": 1583,
      "literally": 1584,
      "EVO": 1585,
      "Sandero": 1586,
      "Verde": 1587,
      "Yaris": 1588,
      "opposite": 1589,
      "tourist": 1590,
      "cobblestones": 1591,
      "02": 1592,
      "A25": 1593,
      "C3": 1594,
      "Ci": 1595,
      "Den": 1596,
      "Ibi": 1597,
      "Mac": 1598,
      "Motor": 1599,
      "NT": 1600,
      "Pra": 1601,
      "Run": 1602,
      "Sun": 1603,
      "SNT": 1604,
      "Ta": 1605,
      "Ti": 1606,
      "VI": 1607,
      "Van": 1608,
      "Wit": 1609,
      "bor": 1610,
      "bur": 1611,
      "cus": 1612,
      "each": 1613,
      "hs": 1614,
      "mont": 1615,
      "nel": 1616,
      "ological": 1617,
      "ptop": 1618,
      "sk": 1619,
      "sim": 1620,
      "sme": 1621,
      "sudden": 1622,
      "sque": 1623,
      "ten": 1624,
      "ton": 1625,
      "tag": 1626,
      "vic": 1627,
      "vir": 1628,
      "vora": 1629,
      "wor": 1630,
      "who": 1631,
      "will": 1632,
      "Évora": 1633,
      "inc": 1634,
      "inho": 1635,
      "then": 1636,
      "ang": 1637,
      "ange": 1638,
      "leg": 1639,
      "leup": 1640,
      "river": 1641,
      "ider": 1642,
      "sel": 1643,
      "secur": 1644,
      "toll": 1645,
      "towards": 1646,
      "laptop": 1647,
      "drift": 1648,
      "ional": 1649,
      "rail": 1650,
      "lot": 1651,
      "cosme": 1652,
      "park": 1653,
      "life": 1654,
      "208": 1655,
      "dos": 1656,
      "spec": 1657,
      "generate": 1658,
      "conne": 1659,
      "olt": 1660,
      "rearview": 1661,
      "intention": 1662,
      "ending": 1663,
      "than": 1664,
      "ulting": 1665,
      "scuff": 1666,
      "roadway": 1667,
      "paper": 1668,
      "shopping": 1669,
      "near": 1670,
      "wear": 1671,
      "weather": 1672,
      "prov": 1673,
      "process": 1674,
      "strike": 1675,
      "yielding": 1676,
      "missed": 1677,
      "ashing": 1678,
      "Fiest": 1679,
      "opening": 1680,
      "steep": 1681,
      "confirm": 1682,
      "confirmed": 1683,
      "board": 1684,
      "covered": 1685,
      "curb": 1686,
      "glass": 1687,
      "illed": 1688,
      "evasive": 1689,
      "tree": 1690,
      "reported": 1691,
      "wheels": 1692,
      "balance": 1693,
      "causing": 1694,
      "Polo": 1695,
      "bedded": 1696,
      "flung": 1697,
      "swerve": 1698,
      "embedded": 1699,
      "ground": 1700,
      "sideswiped": 1701,
      "resulting": 1702,
      "rules": 1703,
      "acceleration": 1704,
      "pileup": 1705,
      "meters": 1706,
      "personal": 1707,
      "footage": 1708,
      "tailgate": 1709,
      "LEI": 1710,
      "appli": 1711,
      "partment": 1712,
      "signaled": 1713,
      "Focus": 1714,
      "cato": 1715,
      "dirt": 1716,
      "Intersection": 1717,
      "floor": 1718,
      "mechanical": 1719,
      "camera": 1720,
      "initiated": 1721,
      "Civic": 1722,
      "Denied": 1723,
      "Ibiza": 1724,
      "Praça": 1725,
      "Taxi": 1726,
      "Witness": 1727,
      "months": 1728,
      "squee": 1729,
      "cosmetic": 1730,
      "Fiesta": 1731,
      "120": 1732,
      "320d": 1733,
      "Bicycle": 1734,
      "Con": 1735,
      "City": 1736,
      "De": 1737,
      "Du": 1738,
      "Front": 1739,
      "Gu": 1740,
      "Gen": 1741,
      "Mirr": 1742,
      "Maia": 1743,
      "N10": 1744,
      "N125": 1745,
      "Our": 1746,
      "Pothole": 1747,
      "Tot": 1748,
      "ama": 1749,
      "bone": 1750,
      "bru": 1751,
      "cil": 1752,
      "city": 1753,
      "dade": 1754,
      "fre": 1755,
      "fra": 1756,
      "factor": 1757,
      "filled": 1758,
      "gy": 1759,
      "half": 1760,
      "i20": 1761,
      "jor": 1762,
      "ker": 1763,
      "kely": 1764,
      "kne": 1765,
      "kno": 1766,
      "ld": 1767,
      "late": 1768,
      "land": 1769,
      "mor": 1770,
      "mod": 1771,
      "made": 1772,
      "navi": 1773,
      "om": 1774,
      "ou": 1775,
      "pur": 1776,
      "pol": 1777,
      "rent": 1778,
      "rust": 1779,
      "sal": 1780,
      "sol": 1781,
      "ssive": 1782,
      "sitting": 1783,
      "sens": 1784,
      "ssible": 1785,
      "ts": 1786,
      "tun": 1787,
      "tally": 1788,
      "uched": 1789,
      "vage": 1790,
      "valid": 1791,
      "win": 1792,
      "wri": 1793,
      "ães": 1794,
      "ém": 1795,
      "inch": 1796,
      "still": 1797,
      "ener": 1798,
      "any": 1799,
      "anger": 1800,
      "lebar": 1801,
      "rial": 1802,
      "asph": 1803,
      "alt": 1804,
      "set": 1805,
      "seu": 1806,
      "totally": 1807,
      "touched": 1808,
      "rever": 1809,
      "requ": 1810,
      "ates": 1811,
      "utely": 1812,
      "ick": 1813,
      "ational": 1814,
      "mper": 1815,
      "otional": 1816,
      "unrelated": 1817,
      "untain": 1818,
      "ilar": 1819,
      "illegally": 1820,
      "likely": 1821,
      "cart": 1822,
      "dow": 1823,
      "iral": 1824,
      "langu": 1825,
      "cting": 1826,
      "contri": 1827,
      "beep": 1828,
      "crun": 1829,
      "dec": 1830,
      "dem": 1831,
      "actors": 1832,
      "using": 1833,
      "compens": 1834,
      "ardrail": 1835,
      "ago": 1836,
      "aggre": 1837,
      "collided": 1838,
      "bumpers": 1839,
      "tap": 1840,
      "sche": 1841,
      "perfor": 1842,
      "area": 1843,
      "hail": 1844,
      "lood": 1845,
      "nei": 1846,
      "neck": 1847,
      "poor": 1848,
      "possible": 1849,
      "phys": 1850,
      "note": 1851,
      "backwards": 1852,
      "some": 1853,
      "woman": 1854,
      "whipl": 1855,
      "now": 1856,
      "nowhere": 1857,
      "Liber": 1858,
      "merge": 1859,
      "dropped": 1860,
      "moved": 1861,
      "mountain": 1862,
      "underground": 1863,
      "stem": 1864,
      "boar": 1865,
      "blinding": 1866,
      "scratches": 1867,
      "Porsche": 1868,
      "previ": 1869,
      "gled": 1870,
      "guardrail": 1871,
      "start": 1872,
      "direction": 1873,
      "sub": 1874,
      "suffer": 1875,
      "idded": 1876,
      "Cooper": 1877,
      "parties": 1878,
      "Viseu": 1879,
      "wave": 1880,
      "handlebar": 1881,
      "profiles": 1882,
      "emotional": 1883,
      "attention": 1884,
      "accelerated": 1885,
      "XC40": 1886,
      "loaded": 1887,
      "Tractor": 1888,
      "blown": 1889,
      "filed": 1890,
      "filter": 1891,
      "hydroplaned": 1892,
      "hydroplaning": 1893,
      "payout": 1894,
      "entral": 1895,
      "three": 1896,
      "threw": 1897,
      "Sport": 1898,
      "airbag": 1899,
      "snapped": 1900,
      "shockwave": 1901,
      "clubs": 1902,
      "jumped": 1903,
      "definit": 1904,
      "Exten": 1905,
      "ificant": 1906,
      "system": 1907,
      "assumed": 1908,
      "Severe": 1909,
      "absolutely": 1910,
      "skidded": 1911,
      "similar": 1912,
      "incline": 1913,
      "secured": 1914,
      "drifted": 1915,
      "specified": 1916,
      "connected": 1917,
      "provided": 1918,
      "squeeze": 1919,
      "Ducato": 1920,
      "Genuine": 1921,
      "Mirror": 1922,
      "navig": 1923,
      "policy": 1924,
      "salvage": 1925,
      "solid": 1926,
      "tunnel": 1927,
      "window": 1928,
      "asphalt": 1929,
      "language": 1930,
      "contribut": 1931,
      "compensation": 1932,
      "aggressive": 1933,
      "physics": 1934,
      "whiplash": 1935,
      "Liberdade": 1936,
      "Extensive": 1937,
      "11": 1938,
      "110": 1939,
      "116": 1940,
      "300": 1941,
      "Astra": 1942,
      "Bl": 1943,
      "Bar": 1944,
      "Bio": 1945,
      "Cy": 1946,
      "Cont": 1947,
      "Cha": 1948,
      "Dust": 1949,
      "Dash": 1950,
      "During": 1951,
      "En": 1952,
      "Ev": 1953,
      "Even": 1954,
      "Full": 1955,
      "His": 1956,
      "Hydroplan": 1957,
      "Ive": 1958,
      "Med": 1959,
      "Mat": 1960,
      "Mic": 1961,
      "N22": 1962,
      "Pa": 1963,
      "Pand": 1964,
      "Pass": 1965,
      "Range": 1966,
      "Ser": 1967,
      "San": 1968,
      "Sign": 1969,
      "Sides": 1970,
      "Th": 1971,
      "Tire": 1972,
      "Un": 1973,
      "VIS": 1974,
      "Wind": 1975,
      "ais": 1976,
      "apo": 1977,
      "apartment": 1978,
      "bul": 1979,
      "bida": 1980,
      "bbed": 1981,
      "black": 1982,
      "cri": 1983,
      "cal": 1984,
      "cust": 1985,
      "cking": 1986,
      "central": 1987,
      "du": 1988,
      "dle": 1989,
      "danger": 1990,
      "ei": 1991,
      "ey": 1992,
      "ele": 1993,
      "fin": 1994,
      "far": 1995,
      "find": 1996,
      "ip": 1997,
      "ice": 1998,
      "ily": 1999,
      "jo": 2000,
      "lim": 2001,
      "long": 2002,
      "min": 2003,
      "mutual": 2004,
      "non": 2005,
      "norm": 2006,
      "op": 2007,
      "oil": 2008,
      "pu": 2009,
      "pú": 2010,
      "pud": 2011,
      "plow": 2012,
      "ptur": 2013,
      "qua": 2014,
      "rash": 2015,
      "she": 2016,
      "sli": 2017,
      "tended": 2018,
      "ux": 2019,
      "ually": 2020,
      "ubro": 2021,
      "war": 2022,
      "year": 2023,
      "zone": 2024,
      "stalled": 2025,
      "ere": 2026,
      "onment": 2027,
      "angled": 2028,
      "arter": 2029,
      "arães": 2030,
      "less": 2031,
      "ente": 2032,
      "riage": 2033,
      "ings": 2034,
      "ored": 2035,
      "ason": 2036,
      "asse": 2037,
      "alloy": 2038,
      "sement": 2039,
      "ura": 2040,
      "ured": 2041,
      "ros": 2042,
      "reim": 2043,
      "ack": 2044,
      "ited": 2045,
      "imarães": 2046,
      "rap": 2047,
      "loyed": 2048,
      "ghbor": 2049,
      "ising": 2050,
      "utes": 2051,
      "com": 2052,
      "costs": 2053,
      "lying": 2054,
      "unction": 2055,
      "unsecured": 2056,
      "ppen": 2057,
      "cargo": 2058,
      "carriage": 2059,
      "does": 2060,
      "iras": 2061,
      "forced": 2062,
      "accidentally": 2063,
      "ctric": 2064,
      "abru": 2065,
      "abric": 2066,
      "sidewalk": 2067,
      "aying": 2068,
      "been": 2069,
      "deb": 2070,
      "active": 2071,
      "exha": 2072,
      "expen": 2073,
      "dooring": 2074,
      "braking": 2075,
      "spin": 2076,
      "spill": 2077,
      "kept": 2078,
      "save": 2079,
      "ulti": 2080,
      "tear": 2081,
      "pain": 2082,
      "happen": 2083,
      "point": 2084,
      "Repú": 2085,
      "west": 2086,
      "blin": 2087,
      "fix": 2088,
      "notified": 2089,
      "backward": 2090,
      "woop": 2091,
      "misalign": 2092,
      "indicating": 2093,
      "clip": 2094,
      "drop": 2095,
      "manual": 2096,
      "ferred": 2097,
      "ForTwo": 2098,
      "Parque": 2099,
      "guan": 2100,
      "super": 2101,
      "suppos": 2102,
      "Drive": 2103,
      "Driving": 2104,
      "stray": 2105,
      "osinho": 2106,
      "quat": 2107,
      "quick": 2108,
      "quarter": 2109,
      "walked": 2110,
      "accepts": 2111,
      "corro": 2112,
      "cutting": 2113,
      "ista": 2114,
      "lley": 2115,
      "passengers": 2116,
      "injured": 2117,
      "Tram": 2118,
      "trolley": 2119,
      "partially": 2120,
      "event": 2121,
      "reports": 2122,
      "highly": 2123,
      "grey": 2124,
      "motorhome": 2125,
      "struck": 2126,
      "Alfa": 2127,
      "cannot": 2128,
      "dented": 2129,
      "denting": 2130,
      "attempted": 2131,
      "IC2": 2132,
      "flashing": 2133,
      "A28": 2134,
      "falls": 2135,
      "attach": 2136,
      "resident": 2137,
      "pillars": 2138,
      "ptly": 2139,
      "destroying": 2140,
      "blowout": 2141,
      "exactly": 2142,
      "tailgating": 2143,
      "design": 2144,
      "descri": 2145,
      "snap": 2146,
      "closely": 2147,
      "blocking": 2148,
      "dashcam": 2149,
      "dashboard": 2150,
      "stayed": 2151,
      "blica": 2152,
      "Attended": 2153,
      "brand": 2154,
      "deployed": 2155,
      "screa": 2156,
      "sharply": 2157,
      "Tiguan": 2158,
      "bursement": 2159,
      "vironment": 2160,
      "angle": 2161,
      "self": 2162,
      "intentionally": 2163,
      "processed": 2164,
      "Guimarães": 2165,
      "fresh": 2166,
      "frame": 2167,
      "knee": 2168,
      "moderate": 2169,
      "energy": 2170,
      "crunch": 2171,
      "neighbor": 2172,
      "previously": 2173,
      "airbags": 2174,
      "definitely": 2175,
      "navigating": 2176,
      "contributing": 2177,
      "aggressively": 2178,
      "Cyclist": 2179,
      "Contin": 2180,
      "Chain": 2181,
      "Duster": 2182,
      "Dashcam": 2183,
      "Hydroplaning": 2184,
      "Iveco": 2185,
      "Medical": 2186,
      "Matosinho": 2187,
      "Micra": 2188,
      "N222": 2189,
      "Panda": 2190,
      "Sideswipe": 2191,
      "Thru": 2192,
      "aisle": 2193,
      "electric": 2194,
      "public": 2195,
      "puddle": 2196,
      "quaplan": 2197,
      "reimbursement": 2198,
      "abruptly": 2199,
      "abricated": 2200,
      "exhaust": 2201,
      "República": 2202,
      "supposed": 2203,
      "quickly": 2204,
      "attachment": 2205,
      "vironmental": 2206,
      "Matosinhos": 2207,
      "118": 2208,
      "114": 2209,
      "420d": 2210,
      "AL": 2211,
      "AM": 2212,
      "Act": 2213,
      "ALE": 2214,
      "By": 2215,
      "Bac": 2216,
      "Bolt": 2217,
      "C4": 2218,
      "CC": 2219,
      "Ce": 2220,
      "Cac": 2221,
      "Cru": 2222,
      "DO": 2223,
      "El": 2224,
      "Estra": 2225,
      "EN125": 2226,
      "FH": 2227,
      "Fl": 2228,
      "Fre": 2229,
      "GM": 2230,
      "GP": 2231,
      "Hit": 2232,
      "Hil": 2233,
      "Je": 2234,
      "Jo": 2235,
      "Just": 2236,
      "Ku": 2237,
      "Kan": 2238,
      "Lu": 2239,
      "Land": 2240,
      "Lane": 2241,
      "MA": 2242,
      "MT": 2243,
      "Multi": 2244,
      "N2": 2245,
      "On": 2246,
      "Out": 2247,
      "Open": 2248,
      "Pr": 2249,
      "Pla": 2250,
      "Pun": 2251,
      "Right": 2252,
      "Rio": 2253,
      "SH": 2254,
      "Stra": 2255,
      "Scan": 2256,
      "TV": 2257,
      "Te": 2258,
      "Uber": 2259,
      "Wet": 2260,
      "Yama": 2261,
      "Zon": 2262,
      "ak": 2263,
      "au": 2264,
      "bility": 2265,
      "bund": 2266,
      "bran": 2267,
      "blood": 2268,
      "cing": 2269,
      "ccess": 2270,
      "crim": 2271,
      "called": 2272,
      "dden": 2273,
      "ecut": 2274,
      "eiras": 2275,
      "fri": 2276,
      "fort": 2277,
      "fine": 2278,
      "flow": 2279,
      "flat": 2280,
      "factors": 2281,
      "gust": 2282,
      "gli": 2283,
      "gger": 2284,
      "gged": 2285,
      "ginal": 2286,
      "hal": 2287,
      "ix": 2288,
      "iz": 2289,
      "ike": 2290,
      "ize": 2291,
      "jolt": 2292,
      "kid": 2293,
      "led": 2294,
      "mad": 2295,
      "mic": 2296,
      "mme": 2297,
      "might": 2298,
      "malf": 2299,
      "national": 2300,
      "ok": 2301,
      "pla": 2302,
      "put": 2303,
      "pic": 2304,
      "pot": 2305,
      "pack": 2306,
      "rinter": 2307,
      "rong": 2308,
      "ser": 2309,
      "sand": 2310,
      "sue": 2311,
      "swoop": 2312,
      "squat": 2313,
      "thi": 2314,
      "tor": 2315,
      "tion": 2316,
      "uation": 2317,
      "uous": 2318,
      "via": 2319,
      "vider": 2320,
      "wic": 2321,
      "ísa": 2322,
      "úlio": 2323,
      "stand": 2324,
      "step": 2325,
      "enance": 2326,
      "enue": 2327,
      "erial": 2328,
      "anal": 2329,
      "ancial": 2330,
      "arc": 2331,
      "hidden": 2332,
      "rims": 2333,
      "ores": 2334,
      "oram": 2335,
      "orological": 2336,
      "ves": 2337,
      "ase": 2338,
      "almo": 2339,
      "aluation": 2340,
      "sess": 2341,
      "told": 2342,
      "uro": 2343,
      "urther": 2344,
      "verified": 2345,
      "rock": 2346,
      "reg": 2347,
      "resp": 2348,
      "rests": 2349,
      "reason": 2350,
      "referred": 2351,
      "ately": 2352,
      "lamp": 2353,
      "atements": 2354,
      "elo": 2355,
      "ition": 2356,
      "itch": 2357,
      "itating": 2358,
      "washed": 2359,
      "loud": 2360,
      "ised": 2361,
      "copic": 2362,
      "ceed": 2363,
      "uncil": 2364,
      "ilitating": 2365,
      "onest": 2366,
      "live": 2367,
      "like": 2368,
      "making": 2369,
      "make": 2370,
      "makes": 2371,
      "carbon": 2372,
      "orte": 2373,
      "2008": 2374,
      "ulated": 2375,
      "ired": 2376,
      "forcing": 2377,
      "sized": 2378,
      "sibility": 2379,
      "contin": 2380,
      "speeding": 2381,
      "bufe": 2382,
      "acted": 2383,
      "execut": 2384,
      "inta": 2385,
      "intended": 2386,
      "ching": 2387,
      "frontal": 2388,
      "agon": 2389,
      "ways": 2390,
      "thin": 2391,
      "Indust": 2392,
      "divider": 2393,
      "spiral": 2394,
      "ficial": 2395,
      "camper": 2396,
      "aved": 2397,
      "avenue": 2398,
      "trave": 2399,
      "ultural": 2400,
      "000": 2401,
      "media": 2402,
      "ties": 2403,
      "rubbed": 2404,
      "team": 2405,
      "teorological": 2406,
      "paid": 2407,
      "imple": 2408,
      "impos": 2409,
      "Head": 2410,
      "look": 2411,
      "negli": 2412,
      "oversized": 2413,
      "pour": 2414,
      "few": 2415,
      "matic": 2416,
      "material": 2417,
      "term": 2418,
      "Repair": 2419,
      "checking": 2420,
      "prote": 2421,
      "proceed": 2422,
      "strict": 2423,
      "throw": 2424,
      "missing": 2425,
      "downpour": 2426,
      "mercial": 2427,
      "single": 2428,
      "windy": 2429,
      "windstorm": 2430,
      "Toll": 2431,
      "Todi": 2432,
      "moura": 2433,
      "mani": 2434,
      "ightforward": 2435,
      "share": 2436,
      "ceding": 2437,
      "undercarriage": 2438,
      "stead": 2439,
      "mark": 2440,
      "mary": 2441,
      "marks": 2442,
      "goo": 2443,
      "Forfour": 2444,
      "Daily": 2445,
      "biological": 2446,
      "shift": 2447,
      "preceding": 2448,
      "Parked": 2449,
      "glasse": 2450,
      "ansit": 2451,
      "Merging": 2452,
      "ignored": 2453,
      "changed": 2454,
      "changing": 2455,
      "success": 2456,
      "prior": 2457,
      "primary": 2458,
      "trical": 2459,
      "trigger": 2460,
      "maintenance": 2461,
      "condition": 2462,
      "transfers": 2463,
      "cord": 2464,
      "Weather": 2465,
      "talking": 2466,
      "evaluation": 2467,
      "owner": 2468,
      "deeply": 2469,
      "shattering": 2470,
      "misjudging": 2471,
      "Storm": 2472,
      "Statements": 2473,
      "180": 2474,
      "Albufe": 2475,
      "Pom": 2476,
      "Roll": 2477,
      "alleged": 2478,
      "absent": 2479,
      "absor": 2480,
      "absence": 2481,
      "properly": 2482,
      "flic": 2483,
      "older": 2484,
      "Meteorological": 2485,
      "SIN": 2486,
      "felt": 2487,
      "Assess": 2488,
      "Douro": 2489,
      "panoram": 2490,
      "replaced": 2491,
      "Vilamoura": 2492,
      "authorities": 2493,
      "sunglasse": 2494,
      "sideswipe": 2495,
      "incredible": 2496,
      "XC60": 2497,
      "XC90": 2498,
      "pipe": 2499,
      "splitting": 2500,
      "Transit": 2501,
      "paying": 2502,
      "entry": 2503,
      "Captur": 2504,
      "Marina": 2505,
      "Marginal": 2506,
      "Sprinter": 2507,
      "operating": 2508,
      "running": 2509,
      "leave": 2510,
      "leaving": 2511,
      "block": 2512,
      "Major": 2513,
      "early": 2514,
      "totaled": 2515,
      "realized": 2516,
      "realize": 2517,
      "Motorcycle": 2518,
      "legs": 2519,
      "generates": 2520,
      "applied": 2521,
      "applies": 2522,
      "Total": 2523,
      "halfway": 2524,
      "knocked": 2525,
      "pursue": 2526,
      "rental": 2527,
      "sensor": 2528,
      "wrist": 2529,
      "reverse": 2530,
      "required": 2531,
      "decided": 2532,
      "demand": 2533,
      "performed": 2534,
      "suffered": 2535,
      "handlebars": 2536,
      "filtering": 2537,
      "Sportage": 2538,
      "116d": 2539,
      "3008": 2540,
      "Barrier": 2541,
      "Biomechanical": 2542,
      "Environmental": 2543,
      "Evasive": 2544,
      "Passat": 2545,
      "Serra": 2546,
      "Santa": 2547,
      "Significant": 2548,
      "custom": 2549,
      "either": 2550,
      "eyes": 2551,
      "financial": 2552,
      "limit": 2553,
      "minutes": 2554,
      "normal": 2555,
      "sheet": 2556,
      "warning": 2557,
      "years": 2558,
      "roscopic": 2559,
      "rapid": 2560,
      "commercial": 2561,
      "expensive": 2562,
      "misaligned": 2563,
      "superficial": 2564,
      "residential": 2565,
      "designated": 2566,
      "screaming": 2567,
      "neighborhood": 2568,
      "Continente": 2569,
      "quaplaning": 2570,
      "ALB": 2571,
      "Backing": 2572,
      "CCTV": 2573,
      "Ceed": 2574,
      "Cacém": 2575,
      "DOU": 2576,
      "Estrada": 2577,
      "FH16": 2578,
      "GMR": 2579,
      "GPS": 2580,
      "Hilux": 2581,
      "Jeep": 2582,
      "Kuga": 2583,
      "Kangoo": 2584,
      "Luísa": 2585,
      "Opening": 2586,
      "Plaza": 2587,
      "Punto": 2588,
      "Straightforward": 2589,
      "Scania": 2590,
      "Telematics": 2591,
      "Yamaha": 2592,
      "Zona": 2593,
      "bundle": 2594,
      "criminal": 2595,
      "halted": 2596,
      "izing": 2597,
      "microscopic": 2598,
      "mmetrical": 2599,
      "malfunction": 2600,
      "sandwic": 2601,
      "thick": 2602,
      "standing": 2603,
      "almost": 2604,
      "respon": 2605,
      "Industrial": 2606,
      "Repairs": 2607,
      "successfully": 2608,
      "triggered": 2609,
      "Albufeira": 2610,
      "panoramic": 2611,
      "sunglasses": 2612,
      "24": 2613,
      "220": 2614,
      "2cm": 2615,
      "31": 2616,
      "520d": 2617,
      "A8": 2618,
      "Ac": 2619,
      "Ali": 2620,
      "Avo": 2621,
      "Abri": 2622,
      "Authori": 2623,
      "Aquaplaning": 2624,
      "BO": 2625,
      "Be": 2626,
      "Bus": 2627,
      "CB": 2628,
      "CR": 2629,
      "CX": 2630,
      "Cat": 2631,
      "Center": 2632,
      "C220": 2633,
      "Din": 2634,
      "Des": 2635,
      "Esp": 2636,
      "Font": 2637,
      "Fall": 2638,
      "Fran": 2639,
      "Fully": 2640,
      "Fabricated": 2641,
      "Further": 2642,
      "Gas": 2643,
      "Gal": 2644,
      "God": 2645,
      "Gama": 2646,
      "Giral": 2647,
      "IL": 2648,
      "IP": 2649,
      "Jul": 2650,
      "Jane": 2651,
      "Júlio": 2652,
      "Lo": 2653,
      "Lar": 2654,
      "Lim": 2655,
      "Lour": 2656,
      "Man": 2657,
      "Mont": 2658,
      "Melo": 2659,
      "N9": 2660,
      "Na": 2661,
      "N13": 2662,
      "N120": 2663,
      "N114": 2664,
      "Norte": 2665,
      "OE": 2666,
      "OP": 2667,
      "Oct": 2668,
      "Oeiras": 2669,
      "PM": 2670,
      "Pes": 2671,
      "Pena": 2672,
      "Pere": 2673,
      "Paying": 2674,
      "PCX": 2675,
      "Q3": 2676,
      "Qu": 2677,
      "RE": 2678,
      "Ra": 2679,
      "Rent": 2680,
      "Rel": 2681,
      "Rural": 2682,
      "ST": 2683,
      "Sk": 2684,
      "Sant": 2685,
      "Santo": 2686,
      "Sub": 2687,
      "São": 2688,
      "Subro": 2689,
      "Sentry": 2690,
      "Up": 2691,
      "Vas": 2692,
      "Vel": 2693,
      "V60": 2694,
      "VAS": 2695,
      "Wild": 2696,
      "You": 2697,
      "af": 2698,
      "ap": 2699,
      "aw": 2700,
      "ale": 2701,
      "ail": 2702,
      "aving": 2703,
      "aft": 2704,
      "bit": 2705,
      "bad": 2706,
      "bay": 2707,
      "bicycle": 2708,
      "bang": 2709,
      "cu": 2710,
      "cer": 2711,
      "cate": 2712,
      "cra": 2713,
      "cata": 2714,
      "cited": 2715,
      "dr": 2716,
      "der": 2717,
      "dra": 2718,
      "dic": 2719,
      "done": 2720,
      "dashed": 2721,
      "ditch": 2722,
      "ece": 2723,
      "eks": 2724,
      "esel": 2725,
      "fé": 2726,
      "fan": 2727,
      "fal": 2728,
      "fac": 2729,
      "fund": 2730,
      "face": 2731,
      "flood": 2732,
      "flying": 2733,
      "fabricated": 2734,
      "gi": 2735,
      "gment": 2736,
      "gone": 2737,
      "glan": 2738,
      "gue": 2739,
      "give": 2740,
      "gio": 2741,
      "hn": 2742,
      "hur": 2743,
      "hão": 2744,
      "honest": 2745,
      "ise": 2746,
      "iPh": 2747,
      "ja": 2748,
      "jer": 2749,
      "jac": 2750,
      "len": 2751,
      "mi": 2752,
      "mit": 2753,
      "mind": 2754,
      "mach": 2755,
      "mista": 2756,
      "ned": 2757,
      "nud": 2758,
      "oda": 2759,
      "olive": 2760,
      "pí": 2761,
      "phi": 2762,
      "ply": 2763,
      "port": 2764,
      "pump": 2765,
      "paved": 2766,
      "rá": 2767,
      "ring": 2768,
      "rac": 2769,
      "rint": 2770,
      "rus": 2771,
      "rural": 2772,
      "ratt": 2773,
      "sent": 2774,
      "spar": 2775,
      "site": 2776,
      "swing": 2777,
      "saying": 2778,
      "tar": 2779,
      "tle": 2780,
      "tas": 2781,
      "tually": 2782,
      "tled": 2783,
      "tching": 2784,
      "uising": 2785,
      "vol": 2786,
      "won": 2787,
      "want": 2788,
      "yan": 2789,
      "çõ": 2790,
      "étri": 2791,
      "ês": 2792,
      "ógio": 2793,
      "iner": 2794,
      "inha": 2795,
      "inches": 2796,
      "investigation": 2797,
      "inattention": 2798,
      "invol": 2799,
      "hes": 2800,
      "height": 2801,
      "ster": 2802,
      "stan": 2803,
      "sting": 2804,
      "standard": 2805,
      "strong": 2806,
      "edly": 2807,
      "ers": 2808,
      "eral": 2809,
      "atal": 2810,
      "atment": 2811,
      "atab": 2812,
      "onent": 2813,
      "thes": 2814,
      "ank": 2815,
      "ansm": 2816,
      "aren": 2817,
      "ared": 2818,
      "arse": 2819,
      "arina": 2820,
      "arbone": 2821,
      "arém": 2822,
      "hip": 2823,
      "histo": 2824,
      "lepí": 2825,
      "entation": 2826,
      "ris": 2827,
      "rible": 2828,
      "ory": 2829,
      "orange": 2830,
      "idance": 2831,
      "allow": 2832,
      "seal": 2833,
      "tour": 2834,
      "toge": 2835,
      "tomatic": 2836,
      "ury": 2837,
      "clean": 2838,
      "round": 2839,
      "room": 2840,
      "reac": 2841,
      "rectly": 2842,
      "reaction": 2843,
      "recovered": 2844,
      "resting": 2845,
      "mented": 2846,
      "mentos": 2847,
      "elbo": 2848,
      "driven": 2849,
      "surround": 2850,
      "ita": 2851,
      "ital": 2852,
      "rammed": 2853,
      "rabida": 2854,
      "lose": 2855,
      "loge": 2856,
      "ados": 2857,
      "ism": 2858,
      "island": 2859,
      "isput": 2860,
      "peared": 2861,
      "ute": 2862,
      "utch": 2863,
      "identified": 2864,
      "cobri": 2865,
      "council": 2866,
      "ces": 2867,
      "ges": 2868,
      "gear": 2869,
      "parale": 2870,
      "icked": 2871,
      "icip": 2872,
      "ustrial": 2873,
      "unavoid": 2874,
      "unately": 2875,
      "day": 2876,
      "claimed": 2877,
      "claiming": 2878,
      "lies": 2879,
      "liqu": 2880,
      "major": 2881,
      "care": 2882,
      "meo": 2883,
      "metro": 2884,
      "local": 2885,
      "locked": 2886,
      "irings": 2887,
      "bell": 2888,
      "Portugue": 2889,
      "spected": 2890,
      "industrial": 2891,
      "gence": 2892,
      "general": 2893,
      "ctive": 2894,
      "hopped": 2895,
      "hold": 2896,
      "ideo": 2897,
      "conf": 2898,
      "cony": 2899,
      "contra": 2900,
      "constru": 2901,
      "speeds": 2902,
      "stolen": 2903,
      "sideways": 2904,
      "try": 2905,
      "trash": 2906,
      "transm": 2907,
      "fairings": 2908,
      "crash": 2909,
      "cruising": 2910,
      "degre": 2911,
      "detail": 2912,
      "department": 2913,
      "expe": 2914,
      "component": 2915,
      "endent": 2916,
      "endly": 2917,
      "endant": 2918,
      "ager": 2919,
      "agric": 2920,
      "froze": 2921,
      "collarbone": 2922,
      "Inspected": 2923,
      "differ": 2924,
      "diesel": 2925,
      "sped": 2926,
      "spine": 2927,
      "spider": 2928,
      "spike": 2929,
      "sprint": 2930,
      "cafe": 2931,
      "café": 2932,
      "ket": 2933,
      "avia": 2934,
      "avista": 2935,
      "undisput": 2936,
      "said": 2937,
      "tape": 2938,
      "scured": 2939,
      "tial": 2940,
      "complete": 2941,
      "haul": 2942,
      "shop": 2943,
      "overnight": 2944,
      "overtook": 2945,
      "overhaul": 2946,
      "post": 2947,
      "pouring": 2948,
      "pedos": 2949,
      "terrible": 2950,
      "web": 2951,
      "weaving": 2952,
      "weeks": 2953,
      "blue": 2954,
      "significant": 2955,
      "field": 2956,
      "nothing": 2957,
      "notice": 2958,
      "passed": 2959,
      "backpack": 2960,
      "firmed": 2961,
      "sound": 2962,
      "social": 2963,
      "woke": 2964,
      "wood": 2965,
      "timing": 2966,
      "nown": 2967,
      "stretching": 2968,
      "indicates": 2969,
      "Fire": 2970,
      "hardly": 2971,
      "winding": 2972,
      "laration": 2973,
      "mancil": 2974,
      "headlights": 2975,
      "himself": 2976,
      "ysis": 2977,
      "marina": 2978,
      "exiting": 2979,
      "blinded": 2980,
      "clearance": 2981,
      "good": 2982,
      "goric": 2983,
      "Claiming": 2984,
      "508": 2985,
      "ires": 2986,
      "present": 2987,
      "Parallel": 2988,
      "brogation": 2989,
      "hinges": 2990,
      "wiper": 2991,
      "wife": 2992,
      "crossings": 2993,
      "exaggerating": 2994,
      "subrogation": 2995,
      "101": 2996,
      "Leaf": 2997,
      "several": 2998,
      "Com": 2999,
      "Coarse": 3000,
      "quês": 3001,
      "ission": 3002,
      "correctly": 3003,
      "rainstorm": 3004,
      "forest": 3005,
      "patch": 3006,
      "maintaining": 3007,
      "tread": 3008,
      "trees": 3009,
      "treatment": 3010,
      "wheeled": 3011,
      "obstru": 3012,
      "obscured": 3013,
      "tica": 3014,
      "roller": 3015,
      "rolling": 3016,
      "matching": 3017,
      "15cm": 3018,
      "balcony": 3019,
      "visual": 3020,
      "unknown": 3021,
      "Station": 3022,
      "ambul": 3023,
      "jective": 3024,
      "Almad": 3025,
      "Almancil": 3026,
      "Road": 3027,
      "Romeo": 3028,
      "curves": 3029,
      "aligns": 3030,
      "faster": 3031,
      "taillight": 3032,
      "needs": 3033,
      "fled": 3034,
      "rical": 3035,
      "forces": 3036,
      "approached": 3037,
      "135": 3038,
      "A22": 3039,
      "Antas": 3040,
      "Mechan": 3041,
      "Moderate": 3042,
      "clothing": 3043,
      "clothes": 3044,
      "falling": 3045,
      "accum": 3046,
      "bushes": 3047,
      "objects": 3048,
      "panicked": 3049,
      "valho": 3050,
      "strophi": 3051,
      "attendant": 3052,
      "radius": 3053,
      "clutch": 3054,
      "121": 3055,
      "piece": 3056,
      "ption": 3057,
      "reader": 3058,
      "loading": 3059,
      "distracted": 3060,
      "125i": 3061,
      "Tractors": 3062,
      "followed": 3063,
      "entrance": 3064,
      "extort": 3065,
      "Camper": 3066,
      "Marquês": 3067,
      "apply": 3068,
      "airport": 3069,
      "Pedestrians": 3070,
      "Cargo": 3071,
      "Carris": 3072,
      "Carvalho": 3073,
      "dirty": 3074,
      "defense": 3075,
      "bollards": 3076,
      "panels": 3077,
      "Arrá": 3078,
      "Arrabida": 3079,
      "Box": 3080,
      "Boavista": 3081,
      "Master": 3082,
      "brushed": 3083,
      "symmetrical": 3084,
      "wildlife": 3085,
      "reacted": 3086,
      "loyment": 3087,
      "deployment": 3088,
      "keeping": 3089,
      "assuming": 3090,
      "screen": 3091,
      "Several": 3092,
      "absolve": 3093,
      "Macan": 3094,
      "Motorhome": 3095,
      "Tipo": 3096,
      "VIL": 3097,
      "VIN": 3098,
      "virtually": 3099,
      "work": 3100,
      "nearby": 3101,
      "boards": 3102,
      "floorboards": 3103,
      "Confirmed": 3104,
      "Deere": 3105,
      "N109": 3106,
      "Totally": 3107,
      "bruising": 3108,
      "bruised": 3109,
      "factory": 3110,
      "known": 3111,
      "landed": 3112,
      "more": 3113,
      "morning": 3114,
      "rential": 3115,
      "sensors": 3116,
      "write": 3117,
      "setting": 3118,
      "reversed": 3119,
      "declaration": 3120,
      "perform": 3121,
      "hailstorm": 3122,
      "someone": 3123,
      "mountains": 3124,
      "submit": 3125,
      "subjective": 3126,
      "suffering": 3127,
      "Blind": 3128,
      "Paper": 3129,
      "Under": 3130,
      "Windshield": 3131,
      "apolog": 3132,
      "apologe": 3133,
      "bulges": 3134,
      "dangerous": 3135,
      "dangerously": 3136,
      "join": 3137,
      "slip": 3138,
      "debilitating": 3139,
      "happened": 3140,
      "blinking": 3141,
      "blinker": 3142,
      "fixation": 3143,
      "corrosion": 3144,
      "corrobor": 3145,
      "Alfama": 3146,
      "described": 3147,
      "description": 3148,
      "118d": 3149,
      "Acts": 3150,
      "Elétri": 3151,
      "Flores": 3152,
      "Freix": 3153,
      "John": 3154,
      "MAI": 3155,
      "Only": 3156,
      "Outubro": 3157,
      "SH125i": 3158,
      "automatic": 3159,
      "branch": 3160,
      "friendly": 3161,
      "fortunately": 3162,
      "flowing": 3163,
      "play": 3164,
      "torrential": 3165,
      "analysis": 3166,
      "regul": 3167,
      "continuous": 3168,
      "executing": 3169,
      "agonizing": 3170,
      "traveling": 3171,
      "implement": 3172,
      "impossible": 3173,
      "negligence": 3174,
      "protecting": 3175,
      "proceeded": 3176,
      "conditions": 3177,
      "Pombal": 3178,
      "absentmind": 3179,
      "absorber": 3180,
      "flicting": 3181,
      "Assessed": 3182,
      "sandwiching": 3183,
      "responsibility": 3184,
      "Accord": 3185,
      "Aliados": 3186,
      "Avoidance": 3187,
      "Abril": 3188,
      "Authorized": 3189,
      "Catarina": 3190,
      "Dinis": 3191,
      "Descobri": 3192,
      "Espan": 3193,
      "Fontes": 3194,
      "Falling": 3195,
      "Furthermore": 3196,
      "Galp": 3197,
      "Giraldo": 3198,
      "Julho": 3199,
      "Janeiro": 3200,
      "Loss": 3201,
      "Lime": 3202,
      "Manual": 3203,
      "Naçõ": 3204,
      "NorteShopping": 3205,
      "Octavia": 3206,
      "Pereira": 3207,
      "Quinta": 3208,
      "Rental": 3209,
      "Relógio": 3210,
      "Skoda": 3211,
      "Santarém": 3212,
      "Substan": 3213,
      "Subrogation": 3214,
      "Vasco": 3215,
      "appeared": 3216,
      "after": 3217,
      "badly": 3218,
      "cumented": 3219,
      "categoric": 3220,
      "catastrophi": 3221,
      "dragged": 3222,
      "diction": 3223,
      "fante": 3224,
      "false": 3225,
      "facility": 3226,
      "giving": 3227,
      "glanced": 3228,
      "hurt": 3229,
      "iPhone": 3230,
      "jerked": 3231,
      "machiner": 3232,
      "plywood": 3233,
      "rush": 3234,
      "spare": 3235,
      "target": 3236,
      "yanked": 3237,
      "strongly": 3238,
      "atabase": 3239,
      "historical": 3240,
      "lepípedos": 3241,
      "together": 3242,
      "elbow": 3243,
      "paralelepípedos": 3244,
      "unavoidable": 3245,
      "liquid": 3246,
      "Portuguese": 3247,
      "holding": 3248,
      "contradiction": 3249,
      "construction": 3250,
      "transmission": 3251,
      "degrees": 3252,
      "details": 3253,
      "components": 3254,
      "agricultural": 3255,
      "different": 3256,
      "spiderweb": 3257,
      "sprinted": 3258,
      "undisputed": 3259,
      "obstructed": 3260,
      "ambulance": 3261,
      "Almada": 3262,
      "accumulated": 3263,
      "Arrábida": 3264,
      "submitted": 3265,
      "apologetic": 3266,
      "Elétrico": 3267,
      "Freixo": 3268,
      "absentmindedly": 3269,
      "Descobrimentos": 3270,
      "Nações": 3271,
      "Substantial": 3272,
      "categorically": 3273,
      "catastrophic": 3274,
      "machinery": 3275,
      "020": 3276,
      "026": 3277,
      "050": 3278,
      "040": 3279,
      "030": 3280,
      "025": 3281,
      "010": 3282,
      "019": 3283,
      "015": 3284,
      "016": 3285,
      "018": 3286,
      "013": 3287,
      "014": 3288,
      "017": 3289,
      "060": 3290,
      "090": 3291,
      "012": 3292,
      "022": 3293,
      "011": 3294,
      "1o": 3295,
      "126": 3296,
      "150": 3297,
      "140": 3298,
      "130": 3299,
      "119": 3300,
      "115": 3301,
      "113": 3302,
      "117": 3303,
      "112": 3304,
      "1cm": 3305,
      "28": 3306,
      "2m": 3307,
      "35": 3308,
      "320": 3309,
      "360": 3310,
      "380": 3311,
      "3cm": 3312,
      "650": 3313,
      "800": 3314,
      "900": 3315,
      "911": 3316,
      "AB": 3317,
      "AC": 3318,
      "Am": 3319,
      "Au": 3320,
      "Az": 3321,
      "Air": 3322,
      "AIS": 3323,
      "Agri": 3324,
      "Aero": 3325,
      "ABR": 3326,
      "Amor": 3327,
      "Amad": 3328,
      "A180": 3329,
      "BE": 3330,
      "Ber": 3331,
      "Bri": 3332,
      "Bur": 3333,
      "Bot": 3334,
      "Bridge": 3335,
      "Bair": 3336,
      "Bike": 3337,
      "Batal": 3338,
      "CP": 3339,
      "Cin": 3340,
      "Ced": 3341,
      "Cent": 3342,
      "Clo": 3343,
      "Cab": 3344,
      "Cay": 3345,
      "Cint": 3346,
      "Clar": 3347,
      "Cib": 3348,
      "Circul": 3349,
      "Called": 3350,
      "Central": 3351,
      "Canal": 3352,
      "Corte": 3353,
      "CAIS": 3354,
      "DA": 3355,
      "DN": 3356,
      "Di": 3357,
      "Dr": 3358,
      "Don": 3359,
      "Dis": 3360,
      "Dire": 3361,
      "Dist": 3362,
      "Delivery": 3363,
      "Dio": 3364,
      "Data": 3365,
      "Database": 3366,
      "Ele": 3367,
      "Estre": 3368,
      "Eval": 3369,
      "Emergency": 3370,
      "Eif": 3371,
      "Edu": 3372,
      "FX": 3373,
      "Fó": 3374,
      "Fer": 3375,
      "Far": 3376,
      "Fac": 3377,
      "Fort": 3378,
      "Fam": 3379,
      "Follow": 3380,
      "Flying": 3381,
      "Fail": 3382,
      "GA": 3383,
      "GL": 3384,
      "Gi": 3385,
      "Ger": 3386,
      "HR": 3387,
      "Hen": 3388,
      "Hill": 3389,
      "Hydro": 3390,
      "Half": 3391,
      "Honest": 3392,
      "Hail": 3393,
      "If": 3394,
      "Imp": 3395,
      "Ident": 3396,
      "IDA": 3397,
      "Ju": 3398,
      "Jump": 3399,
      "Ka": 3400,
      "King": 3401,
      "LO": 3402,
      "LY": 3403,
      "Lot": 3404,
      "Lago": 3405,
      "Law": 3406,
      "Linha": 3407,
      "M4": 3408,
      "Mc": 3409,
      "Mo": 3410,
      "Mor": 3411,
      "Mate": 3412,
      "Mis": 3413,
      "Met": 3414,
      "Mou": 3415,
      "Masse": 3416,
      "Mok": 3417,
      "MBO": 3418,
      "Nó": 3419,
      "Nat": 3420,
      "Nac": 3421,
      "Narrow": 3422,
      "Nob": 3423,
      "N16": 3424,
      "New": 3425,
      "National": 3426,
      "NSH": 3427,
      "Neither": 3428,
      "N121": 3429,
      "N380": 3430,
      "NLY": 3431,
      "Odem": 3432,
      "ONLY": 3433,
      "PR": 3434,
      "Pin": 3435,
      "Pri": 3436,
      "Ping": 3437,
      "Pal": 3438,
      "Pad": 3439,
      "Pull": 3440,
      "Pei": 3441,
      "Q5": 3442,
      "Ri": 3443,
      "Ré": 3444,
      "Red": 3445,
      "Rene": 3446,
      "Ranger": 3447,
      "RAB": 3448,
      "So": 3449,
      "Sy": 3450,
      "Sal": 3451,
      "Sof": 3452,
      "Sil": 3453,
      "Slid": 3454,
      "Sens": 3455,
      "Sou": 3456,
      "Swoop": 3457,
      "Squat": 3458,
      "Simple": 3459,
      "Tu": 3460,
      "Tú": 3461,
      "Tor": 3462,
      "Tro": 3463,
      "Tir": 3464,
      "Twing": 3465,
      "Túlio": 3466,
      "Vis": 3467,
      "Vision": 3468,
      "Valle": 3469,
      "Video": 3470,
      "VDN": 3471,
      "VFX": 3472,
      "Wide": 3473,
      "X3": 3474,
      "Xira": 3475,
      "Yield": 3476,
      "Z900": 3477,
      "ax": 3478,
      "aking": 3479,
      "aker": 3480,
      "awar": 3481,
      "aquaplan": 3482,
      "aquaplaning": 3483,
      "bs": 3484,
      "bat": 3485,
      "bas": 3486,
      "bre": 3487,
      "bot": 3488,
      "bend": 3489,
      "ball": 3490,
      "bable": 3491,
      "bull": 3492,
      "bber": 3493,
      "biting": 3494,
      "bending": 3495,
      "bank": 3496,
      "baker": 3497,
      "cc": 3498,
      "ci": 3499,
      "cá": 3500,
      "cent": 3501,
      "cas": 3502,
      "cho": 3503,
      "cab": 3504,
      "call": 3505,
      "cash": 3506,
      "class": 3507,
      "curi": 3508,
      "cson": 3509,
      "cio": 3510,
      "cip": 3511,
      "cultural": 3512,
      "chip": 3513,
      "ds": 3514,
      "ding": 3515,
      "dis": 3516,
      "dus": 3517,
      "drain": 3518,
      "dump": 3519,
      "dinner": 3520,
      "database": 3521,
      "ee": 3522,
      "emp": 3523,
      "ech": 3524,
      "eved": 3525,
      "every": 3526,
      "egri": 3527,
      "ezed": 3528,
      "eita": 3529,
      "fr": 3530,
      "fu": 3531,
      "fla": 3532,
      "fit": 3533,
      "fly": 3534,
      "furi": 3535,
      "fence": 3536,
      "final": 3537,
      "fães": 3538,
      "futes": 3539,
      "further": 3540,
      "fatal": 3541,
      "gr": 3542,
      "gan": 3543,
      "gra": 3544,
      "gus": 3545,
      "gua": 3546,
      "gible": 3547,
      "gade": 3548,
      "ggled": 3549,
      "gital": 3550,
      "hon": 3551,
      "har": 3552,
      "hor": 3553,
      "hund": 3554,
      "hydro": 3555,
      "iç": 3556,
      "iar": 3557,
      "ient": 3558,
      "ior": 3559,
      "ias": 3560,
      "iver": 3561,
      "ies": 3562,
      "i30": 3563,
      "ious": 3564,
      "iShopping": 3565,
      "junction": 3566,
      "jury": 3567,
      "ka": 3568,
      "kiss": 3569,
      "kill": 3570,
      "lind": 3571,
      "lide": 3572,
      "lens": 3573,
      "lum": 3574,
      "lux": 3575,
      "mu": 3576,
      "má": 3577,
      "mon": 3578,
      "mid": 3579,
      "mation": 3580,
      "mun": 3581,
      "mil": 3582,
      "mud": 3583,
      "mely": 3584,
      "mming": 3585,
      "mbo": 3586,
      "mates": 3587,
      "multi": 3588,
      "mix": 3589,
      "né": 3590,
      "nor": 3591,
      "nal": 3592,
      "num": 3593,
      "ox": 3594,
      "omer": 3595,
      "oak": 3596,
      "oves": 3597,
      "occ": 3598,
      "pin": 3599,
      "por": 3600,
      "pas": 3601,
      "pad": 3602,
      "pine": 3603,
      "pans": 3604,
      "pite": 3605,
      "pinch": 3606,
      "pick": 3607,
      "ror": 3608,
      "rate": 3609,
      "rut": 3610,
      "rul": 3611,
      "rying": 3612,
      "raction": 3613,
      "rather": 3614,
      "rack": 3615,
      "rcio": 3616,
      "sw": 3617,
      "sit": 3618,
      "sir": 3619,
      "swit": 3620,
      "sity": 3621,
      "slight": 3622,
      "sne": 3623,
      "swe": 3624,
      "swiped": 3625,
      "sider": 3626,
      "swear": 3627,
      "saved": 3628,
      "slide": 3629,
      "til": 3630,
      "tall": 3631,
      "tical": 3632,
      "tted": 3633,
      "tphone": 3634,
      "tarm": 3635,
      "tum": 3636,
      "tangled": 3637,
      "tacted": 3638,
      "ulo": 3639,
      "uce": 3640,
      "uli": 3641,
      "uma": 3642,
      "uct": 3643,
      "uged": 3644,
      "uated": 3645,
      "usible": 3646,
      "uously": 3647,
      "uational": 3648,
      "vac": 3649,
      "vand": 3650,
      "vil": 3651,
      "vine": 3652,
      "vision": 3653,
      "vable": 3654,
      "video": 3655,
      "wed": 3656,
      "wid": 3657,
      "wre": 3658,
      "wel": 3659,
      "wine": 3660,
      "wling": 3661,
      "wrong": 3662,
      "xim": 3663,
      "xes": 3664,
      "xinho": 3665,
      "yel": 3666,
      "yard": 3667,
      "ypt": 3668,
      "you": 3669,
      "yers": 3670,
      "zy": 3671,
      "zz": 3672,
      "zon": 3673,
      "zel": 3674,
      "zation": 3675,
      "zda": 3676,
      "zinho": 3677,
      "ço": 3678,
      "çad": 3679,
      "és": 3680,
      "ércio": 3681,
      "óri": 3682,
      "óxim": 3683,
      "inking": 3684,
      "instead": 3685,
      "inflic": 3686,
      "inctive": 3687,
      "here": 3688,
      "hede": 3689,
      "stic": 3690,
      "stun": 3691,
      "stated": 3692,
      "stuff": 3693,
      "states": 3694,
      "stelo": 3695,
      "story": 3696,
      "strate": 3697,
      "stóri": 3698,
      "ensive": 3699,
      "enne": 3700,
      "eness": 3701,
      "enna": 3702,
      "environmental": 3703,
      "enager": 3704,
      "enço": 3705,
      "eder": 3706,
      "eding": 3707,
      "edged": 3708,
      "ert": 3709,
      "erly": 3710,
      "erné": 3711,
      "error": 3712,
      "atant": 3713,
      "onstrate": 3714,
      "theft": 3715,
      "therap": 3716,
      "ana": 3717,
      "aring": 3718,
      "arate": 3719,
      "arda": 3720,
      "ardo": 3721,
      "arch": 3722,
      "arms": 3723,
      "artic": 3724,
      "arson": 3725,
      "arias": 3726,
      "artphone": 3727,
      "hide": 3728,
      "leve": 3729,
      "leme": 3730,
      "enty": 3731,
      "ented": 3732,
      "entes": 3733,
      "rived": 3734,
      "rious": 3735,
      "rique": 3736,
      "ribs": 3737,
      "ingest": 3738,
      "organ": 3739,
      "vement": 3740,
      "veloc": 3741,
      "veira": 3742,
      "ased": 3743,
      "asuring": 3744,
      "asured": 3745,
      "iding": 3746,
      "idized": 3747,
      "ald": 3748,
      "alic": 3749,
      "alga": 3750,
      "alism": 3751,
      "alert": 3752,
      "ses": 3753,
      "sequ": 3754,
      "secting": 3755,
      "semi": 3756,
      "securi": 3757,
      "seeder": 3758,
      "tooth": 3759,
      "towed": 3760,
      "torious": 3761,
      "uras": 3762,
      "urce": 3763,
      "urely": 3764,
      "vertical": 3765,
      "rol": 3766,
      "robe": 3767,
      "romis": 3768,
      "route": 3769,
      "robable": 3770,
      "rods": 3771,
      "rotted": 3772,
      "rel": 3773,
      "repe": 3774,
      "restri": 3775,
      "really": 3776,
      "reliable": 3777,
      "repaint": 3778,
      "retri": 3779,
      "recor": 3780,
      "returned": 3781,
      "reque": 3782,
      "refle": 3783,
      "remain": 3784,
      "retain": 3785,
      "relying": 3786,
      "refri": 3787,
      "record": 3788,
      "recent": 3789,
      "refutes": 3790,
      "law": 3791,
      "laid": 3792,
      "lage": 3793,
      "laugh": 3794,
      "launder": 3795,
      "laying": 3796,
      "layed": 3797,
      "lausible": 3798,
      "layers": 3799,
      "mento": 3800,
      "ments": 3801,
      "acon": 3802,
      "acked": 3803,
      "separate": 3804,
      "else": 3805,
      "elho": 3806,
      "elvi": 3807,
      "drivable": 3808,
      "drizz": 3809,
      "surpri": 3810,
      "surface": 3811,
      "itself": 3812,
      "itute": 3813,
      "wasak": 3814,
      "imun": 3815,
      "imão": 3816,
      "imum": 3817,
      "raving": 3818,
      "raised": 3819,
      "loan": 3820,
      "losing": 3821,
      "lombo": 3822,
      "advan": 3823,
      "adjac": 3824,
      "isn": 3825,
      "issu": 3826,
      "peted": 3827,
      "pebble": 3828,
      "uter": 3829,
      "utal": 3830,
      "utter": 3831,
      "identical": 3832,
      "cost": 3833,
      "cous": 3834,
      "covery": 3835,
      "colle": 3836,
      "colum": 3837,
      "ceiç": 3838,
      "ofeita": 3839,
      "partur": 3840,
      "iculo": 3841,
      "They": 3842,
      "Theft": 3843,
      "otta": 3844,
      "unfa": 3845,
      "unced": 3846,
      "unsafe": 3847,
      "untouched": 3848,
      "unaw": 3849,
      "unpaved": 3850,
      "unloading": 3851,
      "unhurt": 3852,
      "unhar": 3853,
      "univer": 3854,
      "unocc": 3855,
      "until": 3856,
      "unreliable": 3857,
      "illegal": 3858,
      "dawn": 3859,
      "justrel": 3860,
      "lip": 3861,
      "map": 3862,
      "maged": 3863,
      "card": 3864,
      "carrying": 3865,
      "carpeted": 3866,
      "orts": 3867,
      "orted": 3868,
      "200": 3869,
      "ultr": 3870,
      "iness": 3871,
      "documented": 3872,
      "mela": 3873,
      "mess": 3874,
      "means": 3875,
      "measuring": 3876,
      "lock": 3877,
      "locking": 3878,
      "esca": 3879,
      "incidents": 3880,
      "iron": 3881,
      "Portas": 3882,
      "Portimão": 3883,
      "belt": 3884,
      "belly": 3885,
      "formation": 3886,
      "indep": 3887,
      "sight": 3888,
      "size": 3889,
      "how": 3890,
      "hour": 3891,
      "house": 3892,
      "housing": 3893,
      "uding": 3894,
      "udes": 3895,
      "concl": 3896,
      "contain": 3897,
      "conflicting": 3898,
      "consider": 3899,
      "contacted": 3900,
      "lled": 3901,
      "lland": 3902,
      "bush": 3903,
      "build": 3904,
      "sidewall": 3905,
      "kings": 3906,
      "beat": 3907,
      "bezel": 3908,
      "beacon": 3909,
      "crushing": 3910,
      "crashing": 3911,
      "deer": 3912,
      "defe": 3913,
      "delayed": 3914,
      "departur": 3915,
      "deformation": 3916,
      "actually": 3917,
      "actured": 3918,
      "oled": 3919,
      "ssed": 3920,
      "expans": 3921,
      "intending": 3922,
      "integri": 3923,
      "usion": 3924,
      "usually": 3925,
      "users": 3926,
      "chass": 3927,
      "chased": 3928,
      "company": 3929,
      "compromis": 3930,
      "computer": 3931,
      "ardless": 3932,
      "ckage": 3933,
      "colliding": 3934,
      "colluding": 3935,
      "thru": 3936,
      "Infi": 3937,
      "Ingl": 3938,
      "Indep": 3939,
      "Infra": 3940,
      "Instead": 3941,
      "Infante": 3942,
      "Injury": 3943,
      "died": 3944,
      "diving": 3945,
      "distre": 3946,
      "digital": 3947,
      "spit": 3948,
      "sprain": 3949,
      "spilled": 3950,
      "spital": 3951,
      "sputter": 3952,
      "caved": 3953,
      "captur": 3954,
      "sap": 3955,
      "sage": 3956,
      "trams": 3957,
      "traject": 3958,
      "trauma": 3959,
      "ultane": 3960,
      "assump": 3961,
      "tapping": 3962,
      "taken": 3963,
      "fficult": 3964,
      "fficient": 3965,
      "001": 3966,
      "002": 3967,
      "003": 3968,
      "004": 3969,
      "005": 3970,
      "006": 3971,
      "007": 3972,
      "008": 3973,
      "009": 3974,
      "elderly": 3975,
      "scener": 3976,
      "tiago": 3977,
      "rum": 3978,
      "rubber": 3979,
      "teenager": 3980,
      "teleme": 3981,
      "pavement": 3982,
      "improbable": 3983,
      "implausible": 3984,
      "imported": 3985,
      "undamaged": 3986,
      "etta": 3987,
      "behavi": 3988,
      "Its": 3989,
      "gerated": 3990,
      "arela": 3991,
      "loose": 3992,
      "stops": 3993,
      "necess": 3994,
      "overpass": 3995,
      "overdue": 3996,
      "overgro": 3997,
      "pop": 3998,
      "popped": 3999,
      "pooled": 4000,
      "pedal": 4001,
      "dense": 4002,
      "fest": 4003,
      "matter": 4004,
      "matched": 4005,
      "maturely": 4006,
      "terna": 4007,
      "terrac": 4008,
      "Real": 4009,
      "Review": 4010,
      "Referred": 4011,
      "weight": 4012,
      "hado": 4013,
      "phase": 4014,
      "bled": 4015,
      "blatant": 4016,
      "blaring": 4017,
      "proving": 4018,
      "project": 4019,
      "produ": 4020,
      "proves": 4021,
      "uetooth": 4022,
      "striking": 4023,
      "signed": 4024,
      "signage": 4025,
      "signific": 4026,
      "trucking": 4027,
      "crosswind": 4028,
      "five": 4029,
      "fiel": 4030,
      "fiber": 4031,
      "smash": 4032,
      "smartphone": 4033,
      "smacked": 4034,
      "ridiculo": 4035,
      "backseat": 4036,
      "background": 4037,
      "cylind": 4038,
      "eucal": 4039,
      "ody": 4040,
      "source": 4041,
      "vans": 4042,
      "yielded": 4043,
      "bleeding": 4044,
      "nose": 4045,
      "noise": 4046,
      "notorious": 4047,
      "indicate": 4048,
      "consists": 4049,
      "throwing": 4050,
      "misrep": 4051,
      "mismatched": 4052,
      "downloaded": 4053,
      "Five": 4054,
      "food": 4055,
      "mera": 4056,
      "merely": 4057,
      "singly": 4058,
      "indicator": 4059,
      "barric": 4060,
      "clipping": 4061,
      "dropping": 4062,
      "larger": 4063,
      "moment": 4064,
      "mode": 4065,
      "many": 4066,
      "manager": 4067,
      "vice": 4068,
      "vices": 4069,
      "streets": 4070,
      "shin": 4071,
      "shallow": 4072,
      "shorts": 4073,
      "upon": 4074,
      "upcoming": 4075,
      "upied": 4076,
      "understeer": 4077,
      "confirming": 4078,
      "box": 4079,
      "book": 4080,
      "bounced": 4081,
      "market": 4082,
      "markings": 4083,
      "interior": 4084,
      "internal": 4085,
      "intersecting": 4086,
      "spots": 4087,
      "blindly": 4088,
      "Históri": 4089,
      "cleared": 4090,
      "showing": 4091,
      "Sete": 4092,
      "gouged": 4093,
      "biker": 4094,
      "covering": 4095,
      "curved": 4096,
      "premi": 4097,
      "pressed": 4098,
      "prematurely": 4099,
      "slamming": 4100,
      "Park": 4101,
      "glitch": 4102,
      "lines": 4103,
      "narrower": 4104,
      "wiping": 4105,
      "wardrobe": 4106,
      "Merge": 4107,
      "gum": 4108,
      "ignoring": 4109,
      "tirely": 4110,
      "creating": 4111,
      "cream": 4112,
      "sued": 4113,
      "suits": 4114,
      "sufficient": 4115,
      "2500": 4116,
      "25ABR": 4117,
      "reds": 4118,
      "reduce": 4119,
      "strapped": 4120,
      "atedly": 4121,
      "102": 4122,
      "103": 4123,
      "104": 4124,
      "105": 4125,
      "106": 4126,
      "107": 4127,
      "108": 4128,
      "109": 4129,
      "Left": 4130,
      "rang": 4131,
      "trip": 4132,
      "cepted": 4133,
      "Coina": 4134,
      "Council": 4135,
      "Colombo": 4136,
      "gave": 4137,
      "gaming": 4138,
      "quite": 4139,
      "quately": 4140,
      "wallet": 4141,
      "thereby": 4142,
      "issue": 4143,
      "190": 4144,
      "191": 4145,
      "192": 4146,
      "193": 4147,
      "194": 4148,
      "195": 4149,
      "196": 4150,
      "197": 4151,
      "198": 4152,
      "199": 4153,
      "cork": 4154,
      "correspon": 4155,
      "slowed": 4156,
      "rainfall": 4157,
      "Trafic": 4158,
      "Trams": 4159,
      "grime": 4160,
      "grill": 4161,
      "patrol": 4162,
      "anticip": 4163,
      "antenna": 4164,
      "Therefore": 4165,
      "maintained": 4166,
      "treme": 4167,
      "violating": 4168,
      "violence": 4169,
      "ively": 4170,
      "judgment": 4171,
      "little": 4172,
      "obstruct": 4173,
      "rollback": 4174,
      "151": 4175,
      "152": 4176,
      "153": 4177,
      "154": 4178,
      "155": 4179,
      "156": 4180,
      "157": 4181,
      "158": 4182,
      "159": 4183,
      "160": 4184,
      "161": 4185,
      "162": 4186,
      "163": 4187,
      "164": 4188,
      "165": 4189,
      "166": 4190,
      "167": 4191,
      "168": 4192,
      "169": 4193,
      "Viana": 4194,
      "though": 4195,
      "visor": 4196,
      "misjudgment": 4197,
      "Still": 4198,
      "Stelvi": 4199,
      "motorcyclist": 4200,
      "others": 4201,
      "struggled": 4202,
      "existence": 4203,
      "Drivers": 4204,
      "grilles": 4205,
      "181": 4206,
      "182": 4207,
      "183": 4208,
      "184": 4209,
      "185": 4210,
      "186": 4211,
      "187": 4212,
      "188": 4213,
      "189": 4214,
      "Alto": 4215,
      "Alma": 4216,
      "Alente": 4217,
      "Alcá": 4218,
      "Aljustrel": 4219,
      "Although": 4220,
      "Roma": 4221,
      "Roca": 4222,
      "canal": 4223,
      "canine": 4224,
      "dents": 4225,
      "attempts": 4226,
      "IC17": 4227,
      "Now": 4228,
      "Novo": 4229,
      "plenty": 4230,
      "controlled": 4231,
      "tailored": 4232,
      "checks": 4233,
      "waited": 4234,
      "revealed": 4235,
      "horizon": 4236,
      "approach": 4237,
      "Processed": 4238,
      "131": 4239,
      "132": 4240,
      "133": 4241,
      "134": 4242,
      "136": 4243,
      "137": 4244,
      "138": 4245,
      "139": 4246,
      "Measured": 4247,
      "brick": 4248,
      "closed": 4249,
      "handbrake": 4250,
      "queue": 4251,
      "queira": 4252,
      "business": 4253,
      "070": 4254,
      "071": 4255,
      "072": 4256,
      "073": 4257,
      "074": 4258,
      "075": 4259,
      "076": 4260,
      "077": 4261,
      "078": 4262,
      "079": 4263,
      "080": 4264,
      "081": 4265,
      "082": 4266,
      "083": 4267,
      "084": 4268,
      "085": 4269,
      "086": 4270,
      "087": 4271,
      "088": 4272,
      "089": 4273,
      "141": 4274,
      "142": 4275,
      "143": 4276,
      "144": 4277,
      "145": 4278,
      "146": 4279,
      "147": 4280,
      "148": 4281,
      "149": 4282,
      "170": 4283,
      "171": 4284,
      "172": 4285,
      "173": 4286,
      "174": 4287,
      "175": 4288,
      "176": 4289,
      "177": 4290,
      "178": 4291,
      "179": 4292,
      "60cm": 4293,
      "Assigned": 4294,
      "Door": 4295,
      "Doce": 4296,
      "Documented": 4297,
      "Holland": 4298,
      "Hospital": 4299,
      "centered": 4300,
      "emor": 4301,
      "embank": 4302,
      "orientation": 4303,
      "oriented": 4304,
      "radio": 4305,
      "adequately": 4306,
      "500F": 4307,
      "ARRAB": 4308,
      "Approving": 4309,
      "authority": 4310,
      "authorization": 4311,
      "darted": 4312,
      "grove": 4313,
      "groves": 4314,
      "grocer": 4315,
      "grooves": 4316,
      "sunset": 4317,
      "sideswiping": 4318,
      "sliding": 4319,
      "walls": 4320,
      "stiff": 4321,
      "resort": 4322,
      "resentation": 4323,
      "getting": 4324,
      "tramway": 4325,
      "accelerating": 4326,
      "122": 4327,
      "123": 4328,
      "124": 4329,
      "127": 4330,
      "128": 4331,
      "129": 4332,
      "80cm": 4333,
      "Brake": 4334,
      "FARO": 4335,
      "Phantom": 4336,
      "shouldn": 4337,
      "viewpoint": 4338,
      "Trucks": 4339,
      "BRG": 4340,
      "COLO": 4341,
      "Settled": 4342,
      "blowing": 4343,
      "kinematic": 4344,
      "payments": 4345,
      "zamento": 4346,
      "edges": 4347,
      "logs": 4348,
      "homeowner": 4349,
      "ruining": 4350,
      "fogged": 4351,
      "foggy": 4352,
      "031": 4353,
      "032": 4354,
      "033": 4355,
      "034": 4356,
      "035": 4357,
      "036": 4358,
      "037": 4359,
      "038": 4360,
      "039": 4361,
      "041": 4362,
      "042": 4363,
      "043": 4364,
      "044": 4365,
      "045": 4366,
      "046": 4367,
      "047": 4368,
      "048": 4369,
      "049": 4370,
      "051": 4371,
      "052": 4372,
      "053": 4373,
      "054": 4374,
      "055": 4375,
      "056": 4376,
      "057": 4377,
      "058": 4378,
      "059": 4379,
      "061": 4380,
      "062": 4381,
      "063": 4382,
      "064": 4383,
      "065": 4384,
      "066": 4385,
      "067": 4386,
      "068": 4387,
      "069": 4388,
      "091": 4389,
      "092": 4390,
      "093": 4391,
      "094": 4392,
      "095": 4393,
      "096": 4394,
      "097": 4395,
      "098": 4396,
      "099": 4397,
      "AVRE": 4398,
      "Aveiras": 4399,
      "Caires": 4400,
      "Caçad": 4401,
      "Castelo": 4402,
      "Camera": 4403,
      "GaiaShopping": 4404,
      "Marinha": 4405,
      "Spin": 4406,
      "deduct": 4407,
      "despite": 4408,
      "operator": 4409,
      "instinctive": 4410,
      "institute": 4411,
      "enegro": 4412,
      "least": 4413,
      "leaking": 4414,
      "leaks": 4415,
      "verifies": 4416,
      "damaging": 4417,
      "medically": 4418,
      "shocks": 4419,
      "wouldn": 4420,
      "admitted": 4421,
      "structure": 4422,
      "replacements": 4423,
      "CascaiShopping": 4424,
      "CASCAIS": 4425,
      "Fog": 4426,
      "Found": 4427,
      "blocked": 4428,
      "estrut": 4429,
      "jumping": 4430,
      "watching": 4431,
      "defensive": 4432,
      "extremely": 4433,
      "Interna": 4434,
      "Intercepted": 4435,
      "fourth": 4436,
      "BRAGA": 4437,
      "Arson": 4438,
      "Armani": 4439,
      "Arrived": 4440,
      "Boar": 4441,
      "Bodily": 4442,
      "Book": 4443,
      "Externa": 4444,
      "Extreme": 4445,
      "Maio": 4446,
      "Mazda": 4447,
      "brutal": 4448,
      "flopped": 4449,
      "lingo": 4450,
      "wildly": 4451,
      "reality": 4452,
      "loyee": 4453,
      "mechanism": 4454,
      "cameras": 4455,
      "screech": 4456,
      "movement": 4457,
      "initially": 4458,
      "021": 4459,
      "023": 4460,
      "024": 4461,
      "027": 4462,
      "028": 4463,
      "029": 4464,
      "Machede": 4465,
      "Machado": 4466,
      "Macbook": 4467,
      "MacBook": 4468,
      "Motorcyclist": 4469,
      "VIA": 4470,
      "VII": 4471,
      "burn": 4472,
      "burned": 4473,
      "skid": 4474,
      "simultane": 4475,
      "tons": 4476,
      "tonight": 4477,
      "worn": 4478,
      "worse": 4479,
      "works": 4480,
      "worker": 4481,
      "incip": 4482,
      "secure": 4483,
      "drifting": 4484,
      "specific": 4485,
      "connecting": 4486,
      "intentioned": 4487,
      "intentional": 4488,
      "scuffs": 4489,
      "paperwork": 4490,
      "wearing": 4491,
      "provide": 4492,
      "curbs": 4493,
      "squeezed": 4494,
      "Concrete": 4495,
      "Conflicting": 4496,
      "Conceiç": 4497,
      "Deer": 4498,
      "Debris": 4499,
      "Defender": 4500,
      "Guarda": 4501,
      "Ouro": 4502,
      "bruise": 4503,
      "freak": 4504,
      "knees": 4505,
      "landing": 4506,
      "model": 4507,
      "purchased": 4508,
      "pursued": 4509,
      "rusted": 4510,
      "validate": 4511,
      "inching": 4512,
      "anything": 4513,
      "settled": 4514,
      "require": 4515,
      "requires": 4516,
      "beeps": 4517,
      "crunched": 4518,
      "demonstrate": 4519,
      "hailstones": 4520,
      "neither": 4521,
      "necks": 4522,
      "poorly": 4523,
      "something": 4524,
      "somehow": 4525,
      "previous": 4526,
      "definitively": 4527,
      "navigate": 4528,
      "contributed": 4529,
      "111": 4530,
      "3000": 4531,
      "Blinking": 4532,
      "Bluetooth": 4533,
      "Barely": 4534,
      "Biological": 4535,
      "Entirely": 4536,
      "Evidence": 4537,
      "Paid": 4538,
      "Paint": 4539,
      "Passenger": 4540,
      "Services": 4541,
      "Santiago": 4542,
      "Unmarked": 4543,
      "Unfortunately": 4544,
      "customer": 4545,
      "duty": 4546,
      "duct": 4547,
      "eye": 4548,
      "fins": 4549,
      "joint": 4550,
      "limited": 4551,
      "minimum": 4552,
      "normally": 4553,
      "plowed": 4554,
      "slipped": 4555,
      "slipping": 4556,
      "zones": 4557,
      "asonic": 4558,
      "common": 4559,
      "carriageway": 4560,
      "debt": 4561,
      "debit": 4562,
      "actively": 4563,
      "expenses": 4564,
      "spinning": 4565,
      "tears": 4566,
      "tearing": 4567,
      "happening": 4568,
      "fixed": 4569,
      "misalignment": 4570,
      "supermarket": 4571,
      "events": 4572,
      "designer": 4573,
      "screamed": 4574,
      "angles": 4575,
      "Continuous": 4576,
      "supposedly": 4577,
      "Actros": 4578,
      "Crucial": 4579,
      "Cruci": 4580,
      "Cruzamento": 4581,
      "Flashing": 4582,
      "Fresh": 4583,
      "João": 4584,
      "Prata": 4585,
      "Próxim": 4586,
      "Princip": 4587,
      "auction": 4588,
      "branches": 4589,
      "forth": 4590,
      "flower": 4591,
      "flatbed": 4592,
      "gusta": 4593,
      "places": 4594,
      "pots": 4595,
      "package": 4596,
      "server": 4597,
      "serious": 4598,
      "service": 4599,
      "tore": 4600,
      "rocky": 4601,
      "regardless": 4602,
      "continuously": 4603,
      "execute": 4604,
      "intake": 4605,
      "agony": 4606,
      "think": 4607,
      "thinks": 4608,
      "traveled": 4609,
      "impossibility": 4610,
      "lookout": 4611,
      "negligible": 4612,
      "materials": 4613,
      "protective": 4614,
      "maniac": 4615,
      "manifest": 4616,
      "steadily": 4617,
      "shifting": 4618,
      "Pombas": 4619,
      "Rollback": 4620,
      "allegedly": 4621,
      "absorbent": 4622,
      "Assessing": 4623,
      "sandwiched": 4624,
      "BOA": 4625,
      "Because": 4626,
      "Beja": 4627,
      "CB650": 4628,
      "CB500F": 4629,
      "CRIL": 4630,
      "Franca": 4631,
      "França": 4632,
      "IP3": 4633,
      "IPMA": 4634,
      "Large": 4635,
      "Larga": 4636,
      "Loures": 4637,
      "Lourenço": 4638,
      "Montemor": 4639,
      "Montenegro": 4640,
      "OEI": 4641,
      "OEM": 4642,
      "Peso": 4643,
      "Pesqueira": 4644,
      "Penafiel": 4645,
      "REL": 4646,
      "Raio": 4647,
      "Raimun": 4648,
      "STOP": 4649,
      "STCP": 4650,
      "Santos": 4651,
      "Velar": 4652,
      "Velha": 4653,
      "crawling": 4654,
      "crazy": 4655,
      "dry": 4656,
      "drying": 4657,
      "flooding": 4658,
      "jammed": 4659,
      "jacket": 4660,
      "mistake": 4661,
      "mistaken": 4662,
      "nudge": 4663,
      "nudged": 4664,
      "ringing": 4665,
      "racing": 4666,
      "rattle": 4667,
      "rattling": 4668,
      "tles": 4669,
      "involving": 4670,
      "involved": 4671,
      "ankle": 4672,
      "allowed": 4673,
      "sealed": 4674,
      "roommates": 4675,
      "reached": 4676,
      "reaching": 4677,
      "surrounded": 4678,
      "surroundings": 4679,
      "icipal": 4680,
      "carefully": 4681,
      "localized": 4682,
      "confusing": 4683,
      "confusion": 4684,
      "expected": 4685,
      "expecting": 4686,
      "posted": 4687,
      "noticeable": 4688,
      "goods": 4689,
      "Combat": 4690,
      "Comércio": 4691,
      "Mechanic": 4692,
      "Mechanical": 4693,
      "extortion": 4694,
      "Carvalhos": 4695,
      "ArrabidaShopping": 4696,
      "Boxer": 4697,
      "apologized": 4698,
      "apologizing": 4699,
      "joining": 4700,
      "corroborate": 4701,
      "corroborates": 4702,
      "MAIA": 4703,
      "regular": 4704,
      "regulating": 4705,
      "Espanca": 4706,
      "Espanha": 4707,
      "2mm": 4708,
      "320i": 4709,
      "Amarela": 4710,
      "Augusta": 4711,
      "Azul": 4712,
      "Airbag": 4713,
      "Agricultural": 4714,
      "Aeropor": 4715,
      "Amoreiras": 4716,
      "Amadora": 4717,
      "BEJ": 4718,
      "Berlingo": 4719,
      "Brisa": 4720,
      "Burger": 4721,
      "Botelho": 4722,
      "Bairro": 4723,
      "Batalhão": 4724,
      "Cinfães": 4725,
      "Cedofeita": 4726,
      "Centro": 4727,
      "Clothing": 4728,
      "Cabo": 4729,
      "Cayenne": 4730,
      "Cintura": 4731,
      "Clara": 4732,
      "Ciberné": 4733,
      "Circular": 4734,
      "Difficult": 4735,
      "Donald": 4736,
      "Discovery": 4737,
      "Direita": 4738,
      "Distraction": 4739,
      "Diogo": 4740,
      "Elefante": 4741,
      "Estrela": 4742,
      "Evaluated": 4743,
      "Eiffel": 4744,
      "Eduardo": 4745,
      "Fórum": 4746,
      "Fergus": 4747,
      "Faria": 4748,
      "Facilitating": 4749,
      "Fortwo": 4750,
      "Famalic": 4751,
      "Following": 4752,
      "Failure": 4753,
      "GLA": 4754,
      "Giuli": 4755,
      "Germany": 4756,
      "Henrique": 4757,
      "Hydrolocked": 4758,
      "Halfway": 4759,
      "Honestly": 4760,
      "Hailstorm": 4761,
      "Impact": 4762,
      "Identified": 4763,
      "Juke": 4764,
      "Kawasak": 4765,
      "McDonald": 4766,
      "Mode": 4767,
      "Morning": 4768,
      "Matemá": 4769,
      "Missing": 4770,
      "Metro": 4771,
      "Mouzinho": 4772,
      "Massey": 4773,
      "Mokka": 4774,
      "Natural": 4775,
      "Nacional": 4776,
      "Nobody": 4777,
      "NSHOP": 4778,
      "Odemira": 4779,
      "PRT": 4780,
      "Pinhão": 4781,
      "Prius": 4782,
      "Pingo": 4783,
      "Palmela": 4784,
      "Padarias": 4785,
      "Pulling": 4786,
      "Peixinho": 4787,
      "Rios": 4788,
      "Régua": 4789,
      "Renegade": 4790,
      "Social": 4791,
      "Symmetrical": 4792,
      "Sofia": 4793,
      "Silveira": 4794,
      "Sliding": 4795,
      "Sensors": 4796,
      "Souto": 4797,
      "Tucson": 4798,
      "Túnel": 4799,
      "Torcato": 4800,
      "Trofa": 4801,
      "Tirso": 4802,
      "Twingo": 4803,
      "Visibility": 4804,
      "Valley": 4805,
      "axle": 4806,
      "awareness": 4807,
      "aquaplaned": 4808,
      "breaking": 4809,
      "bottles": 4810,
      "balls": 4811,
      "bullbar": 4812,
      "bakery": 4813,
      "casing": 4814,
      "choked": 4815,
      "cabin": 4816,
      "classic": 4817,
      "cipline": 4818,
      "discipline": 4819,
      "dusk": 4820,
      "employee": 4821,
      "fractured": 4822,
      "fuel": 4823,
      "flagged": 4824,
      "furious": 4825,
      "grass": 4826,
      "grabbed": 4827,
      "honking": 4828,
      "horn": 4829,
      "hundreds": 4830,
      "hydrolock": 4831,
      "killing": 4832,
      "luxury": 4833,
      "much": 4834,
      "midnight": 4835,
      "municipal": 4836,
      "miliar": 4837,
      "mixed": 4838,
      "number": 4839,
      "oxidized": 4840,
      "pinned": 4841,
      "passage": 4842,
      "padded": 4843,
      "pickup": 4844,
      "ruling": 4845,
      "swung": 4846,
      "situational": 4847,
      "sirens": 4848,
      "switch": 4849,
      "sneezed": 4850,
      "sweep": 4851,
      "tarmac": 4852,
      "tumbled": 4853,
      "vacation": 4854,
      "vandalism": 4855,
      "village": 4856,
      "vineyard": 4857,
      "width": 4858,
      "wreckage": 4859,
      "well": 4860,
      "yelling": 4861,
      "yptus": 4862,
      "inflicted": 4863,
      "sticking": 4864,
      "stunning": 4865,
      "therapy": 4866,
      "articulated": 4867,
      "level": 4868,
      "ingested": 4869,
      "organized": 4870,
      "velocity": 4871,
      "algae": 4872,
      "sequence": 4873,
      "security": 4874,
      "repeatedly": 4875,
      "restricted": 4876,
      "retrieved": 4877,
      "recorded": 4878,
      "request": 4879,
      "reflexes": 4880,
      "remains": 4881,
      "retaining": 4882,
      "refrigerated": 4883,
      "records": 4884,
      "recently": 4885,
      "laughing": 4886,
      "drizzling": 4887,
      "surprisingly": 4888,
      "advanced": 4889,
      "adjacent": 4890,
      "issues": 4891,
      "cousin": 4892,
      "collection": 4893,
      "column": 4894,
      "unfamiliar": 4895,
      "unaware": 4896,
      "unharmed": 4897,
      "university": 4898,
      "unoccupied": 4899,
      "ultrasonic": 4900,
      "message": 4901,
      "escape": 4902,
      "independent": 4903,
      "concludes": 4904,
      "contains": 4905,
      "considered": 4906,
      "bushings": 4907,
      "buildup": 4908,
      "defect": 4909,
      "departure": 4910,
      "expansion": 4911,
      "integrity": 4912,
      "chassis": 4913,
      "compromised": 4914,
      "Infias": 4915,
      "Inglés": 4916,
      "Independent": 4917,
      "Infraestrut": 4918,
      "distress": 4919,
      "sprained": 4920,
      "sputtered": 4921,
      "captured": 4922,
      "trajectory": 4923,
      "assumption": 4924,
      "scenery": 4925,
      "telemetry": 4926,
      "behavior": 4927,
      "necessary": 4928,
      "overgrown": 4929,
      "terracotta": 4930,
      "Reviewed": 4931,
      "produce": 4932,
      "significantly": 4933,
      "ridiculous": 4934,
      "cylinder": 4935,
      "eucalyptus": 4936,
      "misrepresentation": 4937,
      "barricade": 4938,
      "understeered": 4939,
      "Histórico": 4940,
      "premium": 4941,
      "25ABRIL": 4942,
      "correspond": 4943,
      "anticipated": 4944,
      "obstructing": 4945,
      "Stelvio": 4946,
      "Alentejo": 4947,
      "Alcácer": 4948,
      "embankment": 4949,
      "ARRABIDA": 4950,
      "groceries": 4951,
      "COLOMBO": 4952,
      "AVREP": 4953,
      "Caçadores": 4954,
      "deductible": 4955,
      "instinctively": 4956,
      "simultaneously": 4957,
      "workers": 4958,
      "Conceição": 4959,
      "Crucially": 4960,
      "Próximo": 4961,
      "Principal": 4962,
      "CB650R": 4963,
      "Raimundo": 4964,
      "Combatentes": 4965,
      "Aeroporto": 4966,
      "Cibernética": 4967,
      "Ferguson": 4968,
      "Famalicão": 4969,
      "Giulietta": 4970,
      "Kawasaki": 4971,
      "Matemática": 4972,
      "vineyards": 4973,
      "Infraestruturas": 4974
    },
    "merges": [
      [
        "i",
        "n"
      ],
      [
        "h",
        "e"
      ],
      [
        "s",
        "t"
      ],
      [
        "e",
        "n"
      ],
      [
        "e",
        "d"
      ],
      [
        "e",
        "r"
      ],
      [
        "a",
        "t"
      ],
      [
        "o",
        "n"
      ],
      [
        "t",
        "he"
      ],
      [
        "a",
        "n"
      ],
      [
        "a",
        "r"
      ],
      [
        "h",
        "i"
      ],
      [
        "l",
        "e"
      ],
      [
        "en",
        "t"
      ],
      [
        "r",
        "i"
      ],
      [
        "in",
        "g"
      ],
      [
        "o",
        "r"
      ],
      [
        "v",
        "e"
      ],
      [
        "a",
        "s"
      ],
      [
        "i",
        "d"
      ],
      [
        "a",
        "l"
      ],
      [
        "s",
        "e"
      ],
      [
        "t",
        "o"
      ],
      [
        "u",
        "r"
      ],
      [
        "c",
        "le"
      ],
      [
        "v",
        "er"
      ],
      [
        "r",
        "o"
      ],
      [
        "hi",
        "cle"
      ],
      [
        "r",
        "e"
      ],
      [
        "ve",
        "hicle"
      ],
      [
        "at",
        "e"
      ],
      [
        "l",
        "a"
      ],
      [
        "m",
        "ent"
      ],
      [
        "a",
        "c"
      ],
      [
        "ate",
        "ment"
      ],
      [
        "st",
        "atement"
      ],
      [
        "an",
        "d"
      ],
      [
        "se",
        "p"
      ],
      [
        "m",
        "t"
      ],
      [
        "st",
        "mt"
      ],
      [
        "e",
        "l"
      ],
      [
        "d",
        "ri"
      ],
      [
        "i",
        "on"
      ],
      [
        "s",
        "ur"
      ],
      [
        "i",
        "t"
      ],
      [
        "w",
        "as"
      ],
      [
        "i",
        "m"
      ],
      [
        "r",
        "a"
      ],
      [
        "in",
        "sur"
      ],
      [
        "l",
        "o"
      ],
      [
        "g",
        "h"
      ],
      [
        "a",
        "d"
      ],
      [
        "dri",
        "ver"
      ],
      [
        "i",
        "s"
      ],
      [
        "p",
        "e"
      ],
      [
        "t",
        "y"
      ],
      [
        "u",
        "t"
      ],
      [
        "id",
        "ent"
      ],
      [
        "c",
        "ident"
      ],
      [
        "c",
        "o"
      ],
      [
        "c",
        "e"
      ],
      [
        "m",
        "y"
      ],
      [
        "o",
        "f"
      ],
      [
        "g",
        "e"
      ],
      [
        "l",
        "y"
      ],
      [
        "p",
        "ar"
      ],
      [
        "gh",
        "t"
      ],
      [
        "i",
        "c"
      ],
      [
        "u",
        "st"
      ],
      [
        "T",
        "he"
      ],
      [
        "at",
        "ion"
      ],
      [
        "la",
        "im"
      ],
      [
        "m",
        "p"
      ],
      [
        "o",
        "t"
      ],
      [
        "u",
        "n"
      ],
      [
        "i",
        "l"
      ],
      [
        "d",
        "a"
      ],
      [
        "j",
        "ust"
      ],
      [
        "c",
        "laim"
      ],
      [
        "on",
        "e"
      ],
      [
        "l",
        "i"
      ],
      [
        "insur",
        "ed"
      ],
      [
        "m",
        "a"
      ],
      [
        "an",
        "ce"
      ],
      [
        "p",
        "p"
      ],
      [
        "c",
        "ar"
      ],
      [
        "o",
        "ut"
      ],
      [
        "or",
        "t"
      ],
      [
        "2",
        "0"
      ],
      [
        "u",
        "l"
      ],
      [
        "in",
        "e"
      ],
      [
        "n",
        "one"
      ],
      [
        "d",
        "o"
      ],
      [
        "g",
        "al"
      ],
      [
        "m",
        "e"
      ],
      [
        "lo",
        "c"
      ],
      [
        "e",
        "s"
      ],
      [
        "insur",
        "ance"
      ],
      [
        "in",
        "cident"
      ],
      [
        "i",
        "r"
      ],
      [
        "P",
        "ort"
      ],
      [
        "b",
        "el"
      ],
      [
        "loc",
        "ation"
      ],
      [
        "f",
        "or"
      ],
      [
        "r",
        "d"
      ],
      [
        "hi",
        "rd"
      ],
      [
        "ad",
        "just"
      ],
      [
        "ty",
        "pe"
      ],
      [
        "par",
        "ty"
      ],
      [
        "Port",
        "u"
      ],
      [
        "2",
        "6"
      ],
      [
        "s",
        "pe"
      ],
      [
        "in",
        "d"
      ],
      [
        "Portu",
        "gal"
      ],
      [
        "P",
        "T"
      ],
      [
        "la",
        "bel"
      ],
      [
        "20",
        "26"
      ],
      [
        "adjust",
        "er"
      ],
      [
        "k",
        "ed"
      ],
      [
        "ac",
        "cident"
      ],
      [
        "l",
        "an"
      ],
      [
        "s",
        "i"
      ],
      [
        "ri",
        "ght"
      ],
      [
        "in",
        "to"
      ],
      [
        "g",
        "en"
      ],
      [
        "ma",
        "ge"
      ],
      [
        "c",
        "t"
      ],
      [
        "h",
        "o"
      ],
      [
        "u",
        "d"
      ],
      [
        "t",
        "hird"
      ],
      [
        "id",
        "e"
      ],
      [
        "a",
        "b"
      ],
      [
        "c",
        "on"
      ],
      [
        "spe",
        "ed"
      ],
      [
        "u",
        "ine"
      ],
      [
        "gen",
        "uine"
      ],
      [
        "l",
        "l"
      ],
      [
        "da",
        "mage"
      ],
      [
        "st",
        "o"
      ],
      [
        "b",
        "u"
      ],
      [
        "lan",
        "e"
      ],
      [
        "s",
        "ide"
      ],
      [
        "k",
        "ing"
      ],
      [
        "t",
        "r"
      ],
      [
        "on",
        "t"
      ],
      [
        "hi",
        "t"
      ],
      [
        "f",
        "a"
      ],
      [
        "k",
        "m"
      ],
      [
        "km",
        "h"
      ],
      [
        "a",
        "y"
      ],
      [
        "b",
        "e"
      ],
      [
        "c",
        "r"
      ],
      [
        "d",
        "e"
      ],
      [
        "pp",
        "ed"
      ],
      [
        "bu",
        "mp"
      ],
      [
        "ac",
        "t"
      ],
      [
        "o",
        "l"
      ],
      [
        "s",
        "s"
      ],
      [
        "w",
        "it"
      ],
      [
        "el",
        "y"
      ],
      [
        "re",
        "ar"
      ],
      [
        "e",
        "x"
      ],
      [
        "he",
        "d"
      ],
      [
        "in",
        "t"
      ],
      [
        "r",
        "ont"
      ],
      [
        "u",
        "s"
      ],
      [
        "v",
        "ing"
      ],
      [
        "c",
        "h"
      ],
      [
        "co",
        "mp"
      ],
      [
        "f",
        "ront"
      ],
      [
        "ar",
        "d"
      ],
      [
        "c",
        "k"
      ],
      [
        "en",
        "d"
      ],
      [
        "do",
        "or"
      ],
      [
        "a",
        "g"
      ],
      [
        "hi",
        "s"
      ],
      [
        "wit",
        "h"
      ],
      [
        "f",
        "ro"
      ],
      [
        "w",
        "ay"
      ],
      [
        "co",
        "ll"
      ],
      [
        "t",
        "h"
      ],
      [
        "fro",
        "m"
      ],
      [
        "it",
        "y"
      ],
      [
        "b",
        "ra"
      ],
      [
        "I",
        "n"
      ],
      [
        "is",
        "ion"
      ],
      [
        "bump",
        "er"
      ],
      [
        "b",
        "ut"
      ],
      [
        "d",
        "i"
      ],
      [
        "s",
        "p"
      ],
      [
        "coll",
        "ision"
      ],
      [
        "f",
        "ic"
      ],
      [
        "f",
        "t"
      ],
      [
        "c",
        "a"
      ],
      [
        "k",
        "e"
      ],
      [
        "lo",
        "w"
      ],
      [
        "il",
        "ity"
      ],
      [
        "a",
        "v"
      ],
      [
        "un",
        "d"
      ],
      [
        "s",
        "a"
      ],
      [
        "t",
        "ra"
      ],
      [
        "dri",
        "ving"
      ],
      [
        "ra",
        "ud"
      ],
      [
        "ul",
        "t"
      ],
      [
        "as",
        "s"
      ],
      [
        "le",
        "ft"
      ],
      [
        "li",
        "ght"
      ],
      [
        "t",
        "a"
      ],
      [
        "f",
        "raud"
      ],
      [
        "g",
        "n"
      ],
      [
        "le",
        "t"
      ],
      [
        "ab",
        "ility"
      ],
      [
        "b",
        "ac"
      ],
      [
        "ro",
        "ss"
      ],
      [
        "f",
        "fic"
      ],
      [
        "sto",
        "pped"
      ],
      [
        "0",
        "0"
      ],
      [
        "al",
        "l"
      ],
      [
        "el",
        "d"
      ],
      [
        "si",
        "ve"
      ],
      [
        "m",
        "ed"
      ],
      [
        "fa",
        "il"
      ],
      [
        "s",
        "c"
      ],
      [
        "t",
        "i"
      ],
      [
        "ct",
        "ion"
      ],
      [
        "r",
        "u"
      ],
      [
        "t",
        "e"
      ],
      [
        "ro",
        "ad"
      ],
      [
        "p",
        "a"
      ],
      [
        "p",
        "er"
      ],
      [
        "comp",
        "let"
      ],
      [
        "i",
        "a"
      ],
      [
        "complet",
        "ely"
      ],
      [
        "w",
        "n"
      ],
      [
        "im",
        "p"
      ],
      [
        "as",
        "hed"
      ],
      [
        "H",
        "e"
      ],
      [
        "un",
        "da"
      ],
      [
        "e",
        "t"
      ],
      [
        "he",
        "n"
      ],
      [
        "be",
        "h"
      ],
      [
        "I",
        "t"
      ],
      [
        "par",
        "ked"
      ],
      [
        "beh",
        "ind"
      ],
      [
        "g",
        "er"
      ],
      [
        "ar",
        "e"
      ],
      [
        "h",
        "a"
      ],
      [
        "s",
        "ho"
      ],
      [
        "lo",
        "o"
      ],
      [
        "sto",
        "p"
      ],
      [
        "n",
        "e"
      ],
      [
        "o",
        "ver"
      ],
      [
        "p",
        "o"
      ],
      [
        "p",
        "en"
      ],
      [
        "p",
        "ed"
      ],
      [
        "v",
        "ed"
      ],
      [
        "d",
        "en"
      ],
      [
        "or",
        "s"
      ],
      [
        "ic",
        "al"
      ],
      [
        "tra",
        "ffic"
      ],
      [
        "imp",
        "act"
      ],
      [
        "f",
        "e"
      ],
      [
        "m",
        "at"
      ],
      [
        "pp",
        "ro"
      ],
      [
        "t",
        "ed"
      ],
      [
        "t",
        "er"
      ],
      [
        "sur",
        "ed"
      ],
      [
        "In",
        "sured"
      ],
      [
        "R",
        "e"
      ],
      [
        "c",
        "he"
      ],
      [
        "a",
        "ge"
      ],
      [
        "w",
        "e"
      ],
      [
        "ul",
        "d"
      ],
      [
        "a",
        "in"
      ],
      [
        "h",
        "ad"
      ],
      [
        "p",
        "h"
      ],
      [
        "t",
        "ing"
      ],
      [
        "b",
        "l"
      ],
      [
        "b",
        "on"
      ],
      [
        "p",
        "ro"
      ],
      [
        "u",
        "e"
      ],
      [
        "v",
        "en"
      ],
      [
        "st",
        "ri"
      ],
      [
        "si",
        "gn"
      ],
      [
        "tr",
        "u"
      ],
      [
        "t",
        "ur"
      ],
      [
        "ir",
        "r"
      ],
      [
        "tru",
        "ck"
      ],
      [
        "c",
        "ross"
      ],
      [
        "d",
        "id"
      ],
      [
        "k",
        "es"
      ],
      [
        "u",
        "gh"
      ],
      [
        "f",
        "i"
      ],
      [
        "ct",
        "ly"
      ],
      [
        "n",
        "ot"
      ],
      [
        "M",
        "y"
      ],
      [
        "a",
        "ppro"
      ],
      [
        "p",
        "ass"
      ],
      [
        "s",
        "m"
      ],
      [
        "ri",
        "d"
      ],
      [
        "of",
        "f"
      ],
      [
        "bra",
        "kes"
      ],
      [
        "bac",
        "k"
      ],
      [
        "b",
        "out"
      ],
      [
        "c",
        "y"
      ],
      [
        "e",
        "p"
      ],
      [
        "e",
        "u"
      ],
      [
        "f",
        "ir"
      ],
      [
        "i",
        "eld"
      ],
      [
        "m",
        "irr"
      ],
      [
        "o",
        "d"
      ],
      [
        "s",
        "o"
      ],
      [
        "v",
        "an"
      ],
      [
        "w",
        "o"
      ],
      [
        "sc",
        "ra"
      ],
      [
        "unda",
        "bout"
      ],
      [
        "tur",
        "n"
      ],
      [
        "t",
        "im"
      ],
      [
        "w",
        "hi"
      ],
      [
        "y",
        "ield"
      ],
      [
        "ver",
        "y"
      ],
      [
        "it",
        "s"
      ],
      [
        "gh",
        "way"
      ],
      [
        "av",
        "y"
      ],
      [
        "did",
        "n"
      ],
      [
        "b",
        "le"
      ],
      [
        "g",
        "ed"
      ],
      [
        "n",
        "o"
      ],
      [
        "st",
        "re"
      ],
      [
        "ind",
        "ic"
      ],
      [
        "si",
        "st"
      ],
      [
        "ab",
        "le"
      ],
      [
        "con",
        "sist"
      ],
      [
        "th",
        "ro"
      ],
      [
        "L",
        "i"
      ],
      [
        "m",
        "is"
      ],
      [
        "as",
        "h"
      ],
      [
        "do",
        "wn"
      ],
      [
        "tim",
        "e"
      ],
      [
        "consist",
        "ent"
      ],
      [
        "1",
        "00"
      ],
      [
        "F",
        "i"
      ],
      [
        "f",
        "o"
      ],
      [
        "h",
        "ard"
      ],
      [
        "m",
        "er"
      ],
      [
        "s",
        "ing"
      ],
      [
        "li",
        "ability"
      ],
      [
        "o",
        "pen"
      ],
      [
        "w",
        "ind"
      ],
      [
        "ot",
        "h"
      ],
      [
        "indic",
        "at"
      ],
      [
        "T",
        "o"
      ],
      [
        "b",
        "ar"
      ],
      [
        "c",
        "li"
      ],
      [
        "d",
        "ro"
      ],
      [
        "l",
        "ar"
      ],
      [
        "m",
        "o"
      ],
      [
        "m",
        "an"
      ],
      [
        "v",
        "i"
      ],
      [
        "ent",
        "er"
      ],
      [
        "ad",
        "m"
      ],
      [
        "fa",
        "ult"
      ],
      [
        "stre",
        "et"
      ],
      [
        "thro",
        "ugh"
      ],
      [
        "i",
        "ght"
      ],
      [
        "s",
        "h"
      ],
      [
        "u",
        "p"
      ],
      [
        "he",
        "ad"
      ],
      [
        "hi",
        "m"
      ],
      [
        "par",
        "king"
      ],
      [
        "c",
        "ed"
      ],
      [
        "l",
        "at"
      ],
      [
        "m",
        "s"
      ],
      [
        "y",
        "s"
      ],
      [
        "se",
        "ction"
      ],
      [
        "ro",
        "undabout"
      ],
      [
        "ul",
        "l"
      ],
      [
        "und",
        "er"
      ],
      [
        "fail",
        "ed"
      ],
      [
        "Li",
        "ability"
      ],
      [
        "m",
        "ing"
      ],
      [
        "u",
        "a"
      ],
      [
        "st",
        "e"
      ],
      [
        "re",
        "hen"
      ],
      [
        "con",
        "fir"
      ],
      [
        "comp",
        "rehen"
      ],
      [
        "th",
        "at"
      ],
      [
        "comprehen",
        "sive"
      ],
      [
        "b",
        "o"
      ],
      [
        "m",
        "ar"
      ],
      [
        "en",
        "a"
      ],
      [
        "al",
        "ly"
      ],
      [
        "ex",
        "it"
      ],
      [
        "int",
        "er"
      ],
      [
        "sp",
        "ot"
      ],
      [
        "indicat",
        "ors"
      ],
      [
        "f",
        "er"
      ],
      [
        "s",
        "cr"
      ],
      [
        "re",
        "p"
      ],
      [
        "ud",
        "den"
      ],
      [
        "di",
        "st"
      ],
      [
        "bl",
        "ind"
      ],
      [
        "scr",
        "at"
      ],
      [
        "H",
        "i"
      ],
      [
        "R",
        "ena"
      ],
      [
        "e",
        "stri"
      ],
      [
        "in",
        "j"
      ],
      [
        "id",
        "a"
      ],
      [
        "cle",
        "ar"
      ],
      [
        "co",
        "uld"
      ],
      [
        "cr",
        "ac"
      ],
      [
        "cr",
        "ashed"
      ],
      [
        "sho",
        "w"
      ],
      [
        "Re",
        "ar"
      ],
      [
        "Rena",
        "ult"
      ],
      [
        "estri",
        "an"
      ],
      [
        "B",
        "M"
      ],
      [
        "L",
        "is"
      ],
      [
        "S",
        "e"
      ],
      [
        "g",
        "o"
      ],
      [
        "st",
        "ation"
      ],
      [
        "to",
        "o"
      ],
      [
        "ver",
        "sing"
      ],
      [
        "ro",
        "w"
      ],
      [
        "us",
        "hed"
      ],
      [
        "Fi",
        "at"
      ],
      [
        "Hi",
        "ghway"
      ],
      [
        "BM",
        "W"
      ],
      [
        "Lis",
        "bon"
      ],
      [
        "C",
        "laim"
      ],
      [
        "F",
        "or"
      ],
      [
        "P",
        "or"
      ],
      [
        "P",
        "eu"
      ],
      [
        "R",
        "ua"
      ],
      [
        "b",
        "y"
      ],
      [
        "m",
        "med"
      ],
      [
        "w",
        "he"
      ],
      [
        "in",
        "or"
      ],
      [
        "ar",
        "o"
      ],
      [
        "ge",
        "ot"
      ],
      [
        "with",
        "out"
      ],
      [
        "appro",
        "ved"
      ],
      [
        "sm",
        "ashed"
      ],
      [
        "Peu",
        "geot"
      ],
      [
        "5",
        "0"
      ],
      [
        "D",
        "a"
      ],
      [
        "b",
        "i"
      ],
      [
        "s",
        "hi"
      ],
      [
        "at",
        "ing"
      ],
      [
        "co",
        "ver"
      ],
      [
        "li",
        "able"
      ],
      [
        "pp",
        "ing"
      ],
      [
        "end",
        "ed"
      ],
      [
        "loo",
        "ked"
      ],
      [
        "adm",
        "its"
      ],
      [
        "ys",
        "ical"
      ],
      [
        "A",
        "ven"
      ],
      [
        "V",
        "W"
      ],
      [
        "c",
        "ur"
      ],
      [
        "i",
        "re"
      ],
      [
        "p",
        "re"
      ],
      [
        "s",
        "la"
      ],
      [
        "y",
        "ot"
      ],
      [
        "in",
        "side"
      ],
      [
        "ar",
        "row"
      ],
      [
        "al",
        "id"
      ],
      [
        "li",
        "ce"
      ],
      [
        "mirr",
        "or"
      ],
      [
        "To",
        "yot"
      ],
      [
        "inter",
        "section"
      ],
      [
        "Aven",
        "ida"
      ],
      [
        "Toyot",
        "a"
      ],
      [
        "4",
        "0"
      ],
      [
        "P",
        "ar"
      ],
      [
        "b",
        "ro"
      ],
      [
        "g",
        "l"
      ],
      [
        "h",
        "ing"
      ],
      [
        "l",
        "ine"
      ],
      [
        "n",
        "arrow"
      ],
      [
        "w",
        "i"
      ],
      [
        "w",
        "ard"
      ],
      [
        "on",
        "to"
      ],
      [
        "an",
        "s"
      ],
      [
        "ac",
        "ross"
      ],
      [
        "el",
        "low"
      ],
      [
        "co",
        "ming"
      ],
      [
        "ex",
        "ag"
      ],
      [
        "cross",
        "ing"
      ],
      [
        "udden",
        "ly"
      ],
      [
        "could",
        "n"
      ],
      [
        "sla",
        "mmed"
      ],
      [
        "exag",
        "ger"
      ],
      [
        "3",
        "0"
      ],
      [
        "I",
        "S"
      ],
      [
        "M",
        "er"
      ],
      [
        "g",
        "u"
      ],
      [
        "i",
        "ed"
      ],
      [
        "i",
        "gn"
      ],
      [
        "v",
        "o"
      ],
      [
        "st",
        "ar"
      ],
      [
        "the",
        "ir"
      ],
      [
        "ch",
        "an"
      ],
      [
        "di",
        "re"
      ],
      [
        "ti",
        "re"
      ],
      [
        "Da",
        "mage"
      ],
      [
        "shi",
        "eld"
      ],
      [
        "b",
        "oth"
      ],
      [
        "c",
        "re"
      ],
      [
        "s",
        "u"
      ],
      [
        "w",
        "er"
      ],
      [
        "he",
        "avy"
      ],
      [
        "the",
        "r"
      ],
      [
        "ri",
        "er"
      ],
      [
        "co",
        "ot"
      ],
      [
        "pa",
        "int"
      ],
      [
        "lat",
        "er"
      ],
      [
        "Por",
        "to"
      ],
      [
        "exagger",
        "ation"
      ],
      [
        "coot",
        "er"
      ],
      [
        "2",
        "5"
      ],
      [
        "D",
        "ri"
      ],
      [
        "m",
        "as"
      ],
      [
        "r",
        "ed"
      ],
      [
        "u",
        "ght"
      ],
      [
        "in",
        "consistent"
      ],
      [
        "st",
        "ra"
      ],
      [
        "at",
        "ed"
      ],
      [
        "ar",
        "y"
      ],
      [
        "ag",
        "ed"
      ],
      [
        "wind",
        "shield"
      ],
      [
        "mas",
        "sive"
      ],
      [
        "1",
        "0"
      ],
      [
        "L",
        "e"
      ],
      [
        "T",
        "hird"
      ],
      [
        "V",
        "ol"
      ],
      [
        "V",
        "alid"
      ],
      [
        "o",
        "s"
      ],
      [
        "p",
        "ri"
      ],
      [
        "r",
        "an"
      ],
      [
        "t",
        "ri"
      ],
      [
        "id",
        "d"
      ],
      [
        "se",
        "ver"
      ],
      [
        "ce",
        "p"
      ],
      [
        "ce",
        "ss"
      ],
      [
        "ma",
        "int"
      ],
      [
        "ol",
        "f"
      ],
      [
        "ped",
        "estrian"
      ],
      [
        "scra",
        "ped"
      ],
      [
        "crac",
        "ked"
      ],
      [
        "show",
        "s"
      ],
      [
        "Se",
        "at"
      ],
      [
        "station",
        "ary"
      ],
      [
        "For",
        "d"
      ],
      [
        "cre",
        "te"
      ],
      [
        "Vol",
        "vo"
      ],
      [
        "C",
        "o"
      ],
      [
        "g",
        "a"
      ],
      [
        "i",
        "fi"
      ],
      [
        "q",
        "u"
      ],
      [
        "w",
        "al"
      ],
      [
        "y",
        "ing"
      ],
      [
        "en",
        "ger"
      ],
      [
        "the",
        "re"
      ],
      [
        "ac",
        "cep"
      ],
      [
        "im",
        "al"
      ],
      [
        "is",
        "s"
      ],
      [
        "ot",
        "or"
      ],
      [
        "il",
        "l"
      ],
      [
        "car",
        "s"
      ],
      [
        "ul",
        "ly"
      ],
      [
        "con",
        "d"
      ],
      [
        "con",
        "crete"
      ],
      [
        "tr",
        "ans"
      ],
      [
        "ag",
        "ain"
      ],
      [
        "sa",
        "fe"
      ],
      [
        "fail",
        "ing"
      ],
      [
        "che",
        "s"
      ],
      [
        "whi",
        "le"
      ],
      [
        "bar",
        "rier"
      ],
      [
        "lar",
        "ge"
      ],
      [
        "ced",
        "es"
      ],
      [
        "confir",
        "ms"
      ],
      [
        "dist",
        "ance"
      ],
      [
        "Mer",
        "cedes"
      ],
      [
        "trans",
        "fer"
      ],
      [
        "1",
        "9"
      ],
      [
        "A",
        "ud"
      ],
      [
        "L",
        "IS"
      ],
      [
        "V",
        "e"
      ],
      [
        "c",
        "or"
      ],
      [
        "c",
        "ut"
      ],
      [
        "f",
        "ely"
      ],
      [
        "i",
        "st"
      ],
      [
        "l",
        "le"
      ],
      [
        "s",
        "of"
      ],
      [
        "s",
        "low"
      ],
      [
        "se",
        "e"
      ],
      [
        "ra",
        "in"
      ],
      [
        "es",
        "s"
      ],
      [
        "for",
        "e"
      ],
      [
        "spe",
        "ction"
      ],
      [
        "sa",
        "fely"
      ],
      [
        "ha",
        "ve"
      ],
      [
        "ph",
        "ysical"
      ],
      [
        "pass",
        "enger"
      ],
      [
        "cli",
        "st"
      ],
      [
        "inj",
        "ur"
      ],
      [
        "star",
        "ted"
      ],
      [
        "dire",
        "ctly"
      ],
      [
        "Aud",
        "i"
      ],
      [
        "Ve",
        "hicle"
      ],
      [
        "sof",
        "t"
      ],
      [
        "C",
        "I"
      ],
      [
        "T",
        "ra"
      ],
      [
        "V",
        "CI"
      ],
      [
        "W",
        "e"
      ],
      [
        "f",
        "ully"
      ],
      [
        "g",
        "ri"
      ],
      [
        "h",
        "as"
      ],
      [
        "n",
        "ess"
      ],
      [
        "p",
        "at"
      ],
      [
        "t",
        "al"
      ],
      [
        "t",
        "ro"
      ],
      [
        "an",
        "t"
      ],
      [
        "ent",
        "ire"
      ],
      [
        "la",
        "st"
      ],
      [
        "par",
        "ti"
      ],
      [
        "The",
        "re"
      ],
      [
        "ho",
        "le"
      ],
      [
        "pa",
        "ir"
      ],
      [
        "loo",
        "king"
      ],
      [
        "po",
        "lice"
      ],
      [
        "maint",
        "ain"
      ],
      [
        "e",
        "v"
      ],
      [
        "i",
        "al"
      ],
      [
        "l",
        "ass"
      ],
      [
        "p",
        "ushed"
      ],
      [
        "t",
        "re"
      ],
      [
        "y",
        "ellow"
      ],
      [
        "z",
        "ed"
      ],
      [
        "se",
        "cond"
      ],
      [
        "re",
        "versing"
      ],
      [
        "damage",
        "s"
      ],
      [
        "act",
        "ion"
      ],
      [
        "den",
        "ied"
      ],
      [
        "vi",
        "ol"
      ],
      [
        "rep",
        "ort"
      ],
      [
        "scrat",
        "ch"
      ],
      [
        "whe",
        "el"
      ],
      [
        "aro",
        "und"
      ],
      [
        "bi",
        "ke"
      ],
      [
        "again",
        "st"
      ],
      [
        "C",
        "lass"
      ],
      [
        "N",
        "iss"
      ],
      [
        "i",
        "ve"
      ],
      [
        "j",
        "ud"
      ],
      [
        "l",
        "it"
      ],
      [
        "m",
        "ust"
      ],
      [
        "m",
        "idd"
      ],
      [
        "o",
        "b"
      ],
      [
        "o",
        "wn"
      ],
      [
        "s",
        "cooter"
      ],
      [
        "t",
        "ic"
      ],
      [
        "u",
        "ri"
      ],
      [
        "er",
        "o"
      ],
      [
        "at",
        "ter"
      ],
      [
        "hi",
        "gh"
      ],
      [
        "ro",
        "ll"
      ],
      [
        "vehicle",
        "s"
      ],
      [
        "ab",
        "out"
      ],
      [
        "be",
        "fore"
      ],
      [
        "de",
        "ep"
      ],
      [
        "door",
        "s"
      ],
      [
        "bra",
        "ke"
      ],
      [
        "ca",
        "me"
      ],
      [
        "av",
        "i"
      ],
      [
        "mat",
        "ch"
      ],
      [
        "rid",
        "ge"
      ],
      [
        "sh",
        "atter"
      ],
      [
        "accep",
        "ted"
      ],
      [
        "Niss",
        "an"
      ],
      [
        "midd",
        "le"
      ],
      [
        "1",
        "5"
      ],
      [
        "1",
        "6"
      ],
      [
        "C",
        "it"
      ],
      [
        "O",
        "p"
      ],
      [
        "S",
        "U"
      ],
      [
        "V",
        "i"
      ],
      [
        "b",
        "al"
      ],
      [
        "b",
        "ridge"
      ],
      [
        "g",
        "re"
      ],
      [
        "i",
        "b"
      ],
      [
        "k",
        "s"
      ],
      [
        "p",
        "ull"
      ],
      [
        "t",
        "ho"
      ],
      [
        "u",
        "al"
      ],
      [
        "v",
        "is"
      ],
      [
        "he",
        "r"
      ],
      [
        "le",
        "gal"
      ],
      [
        "ro",
        "en"
      ],
      [
        "re",
        "pair"
      ],
      [
        "it",
        "e"
      ],
      [
        "ic",
        "s"
      ],
      [
        "un",
        "k"
      ],
      [
        "ho",
        "od"
      ],
      [
        "ca",
        "us"
      ],
      [
        "cy",
        "clist"
      ],
      [
        "mis",
        "jud"
      ],
      [
        "Par",
        "king"
      ],
      [
        "injur",
        "y"
      ],
      [
        "pat",
        "h"
      ],
      [
        "Cit",
        "roen"
      ],
      [
        "Op",
        "el"
      ],
      [
        "SU",
        "V"
      ],
      [
        "D",
        "ac"
      ],
      [
        "H",
        "on"
      ],
      [
        "S",
        "t"
      ],
      [
        "a",
        "m"
      ],
      [
        "e",
        "ct"
      ],
      [
        "j",
        "ect"
      ],
      [
        "m",
        "inor"
      ],
      [
        "m",
        "otor"
      ],
      [
        "n",
        "er"
      ],
      [
        "o",
        "id"
      ],
      [
        "o",
        "ther"
      ],
      [
        "p",
        "lan"
      ],
      [
        "u",
        "se"
      ],
      [
        "z",
        "e"
      ],
      [
        "st",
        "ru"
      ],
      [
        "on",
        "g"
      ],
      [
        "ac",
        "e"
      ],
      [
        "act",
        "or"
      ],
      [
        "ex",
        "ist"
      ],
      [
        "av",
        "oid"
      ],
      [
        "ti",
        "ght"
      ],
      [
        "He",
        "avy"
      ],
      [
        "Dri",
        "ver"
      ],
      [
        "gri",
        "lle"
      ],
      [
        "tho",
        "ught"
      ],
      [
        "Dac",
        "ia"
      ],
      [
        "Hon",
        "da"
      ],
      [
        "1",
        "8"
      ],
      [
        "A",
        "l"
      ],
      [
        "K",
        "ia"
      ],
      [
        "P",
        "o"
      ],
      [
        "P",
        "ro"
      ],
      [
        "R",
        "o"
      ],
      [
        "T",
        "es"
      ],
      [
        "W",
        "hen"
      ],
      [
        "c",
        "an"
      ],
      [
        "d",
        "ent"
      ],
      [
        "g",
        "ing"
      ],
      [
        "g",
        "ot"
      ],
      [
        "o",
        "us"
      ],
      [
        "p",
        "last"
      ],
      [
        "s",
        "uddenly"
      ],
      [
        "st",
        "aged"
      ],
      [
        "at",
        "te"
      ],
      [
        "al",
        "le"
      ],
      [
        "to",
        "p"
      ],
      [
        "out",
        "er"
      ],
      [
        "tr",
        "ying"
      ],
      [
        "tr",
        "unk"
      ],
      [
        "bac",
        "king"
      ],
      [
        "per",
        "fe"
      ],
      [
        "pass",
        "ing"
      ],
      [
        "turn",
        "ed"
      ],
      [
        "cur",
        "ve"
      ],
      [
        "legal",
        "ly"
      ],
      [
        "exist",
        "ing"
      ],
      [
        "Tes",
        "la"
      ],
      [
        "plast",
        "ic"
      ],
      [
        "atte",
        "mp"
      ],
      [
        "perfe",
        "ctly"
      ],
      [
        "G",
        "olf"
      ],
      [
        "I",
        "C"
      ],
      [
        "N",
        "o"
      ],
      [
        "O",
        "R"
      ],
      [
        "P",
        "OR"
      ],
      [
        "b",
        "ed"
      ],
      [
        "c",
        "ked"
      ],
      [
        "c",
        "hed"
      ],
      [
        "e",
        "ven"
      ],
      [
        "p",
        "l"
      ],
      [
        "t",
        "his"
      ],
      [
        "y",
        "dro"
      ],
      [
        "en",
        "sur"
      ],
      [
        "en",
        "ce"
      ],
      [
        "or",
        "m"
      ],
      [
        "id",
        "es"
      ],
      [
        "al",
        "ign"
      ],
      [
        "ra",
        "mp"
      ],
      [
        "ab",
        "s"
      ],
      [
        "con",
        "tro"
      ],
      [
        "fa",
        "st"
      ],
      [
        "bump",
        "ed"
      ],
      [
        "wit",
        "ness"
      ],
      [
        "bra",
        "ked"
      ],
      [
        "sp",
        "ace"
      ],
      [
        "sa",
        "w"
      ],
      [
        "ta",
        "il"
      ],
      [
        "ne",
        "ed"
      ],
      [
        "mat",
        "ches"
      ],
      [
        "che",
        "ck"
      ],
      [
        "bon",
        "ed"
      ],
      [
        "pro",
        "per"
      ],
      [
        "rid",
        "ing"
      ],
      [
        "cy",
        "cle"
      ],
      [
        "mirr",
        "ors"
      ],
      [
        "whi",
        "ch"
      ],
      [
        "wi",
        "pe"
      ],
      [
        "Tra",
        "ffic"
      ],
      [
        "C",
        "or"
      ],
      [
        "d",
        "ue"
      ],
      [
        "f",
        "l"
      ],
      [
        "g",
        "ation"
      ],
      [
        "g",
        "ine"
      ],
      [
        "l",
        "id"
      ],
      [
        "s",
        "ion"
      ],
      [
        "w",
        "a"
      ],
      [
        "w",
        "ide"
      ],
      [
        "st",
        "one"
      ],
      [
        "en",
        "gine"
      ],
      [
        "an",
        "imal"
      ],
      [
        "ri",
        "c"
      ],
      [
        "ve",
        "al"
      ],
      [
        "ur",
        "e"
      ],
      [
        "ur",
        "al"
      ],
      [
        "re",
        "veal"
      ],
      [
        "ot",
        "hole"
      ],
      [
        "for",
        "ce"
      ],
      [
        "ho",
        "ri"
      ],
      [
        "hit",
        "ting"
      ],
      [
        "ol",
        "d"
      ],
      [
        "bac",
        "ked"
      ],
      [
        "fi",
        "le"
      ],
      [
        "appro",
        "ac"
      ],
      [
        "mo",
        "ving"
      ],
      [
        "ste",
        "er"
      ],
      [
        "go",
        "ing"
      ],
      [
        "ifi",
        "ed"
      ],
      [
        "misjud",
        "ged"
      ],
      [
        "Pro",
        "cess"
      ],
      [
        "contro",
        "l"
      ],
      [
        "1",
        "3"
      ],
      [
        "A",
        "1"
      ],
      [
        "A",
        "2"
      ],
      [
        "A",
        "n"
      ],
      [
        "M",
        "e"
      ],
      [
        "M",
        "od"
      ],
      [
        "M",
        "inor"
      ],
      [
        "S",
        "I"
      ],
      [
        "a",
        "ia"
      ],
      [
        "b",
        "ri"
      ],
      [
        "c",
        "lo"
      ],
      [
        "f",
        "el"
      ],
      [
        "f",
        "all"
      ],
      [
        "h",
        "and"
      ],
      [
        "i",
        "ate"
      ],
      [
        "i",
        "very"
      ],
      [
        "q",
        "ue"
      ],
      [
        "s",
        "on"
      ],
      [
        "s",
        "wer"
      ],
      [
        "w",
        "hit"
      ],
      [
        "he",
        "avi"
      ],
      [
        "the",
        "m"
      ],
      [
        "an",
        "e"
      ],
      [
        "le",
        "mat"
      ],
      [
        "ur",
        "ing"
      ],
      [
        "ac",
        "c"
      ],
      [
        "el",
        "ivery"
      ],
      [
        "it",
        "ting"
      ],
      [
        "im",
        "med"
      ],
      [
        "ut",
        "hori"
      ],
      [
        "bu",
        "s"
      ],
      [
        "ca",
        "use"
      ],
      [
        "light",
        "ly"
      ],
      [
        "ta",
        "king"
      ],
      [
        "pro",
        "file"
      ],
      [
        "dro",
        "ve"
      ],
      [
        "cover",
        "age"
      ],
      [
        "stra",
        "ight"
      ],
      [
        "sever",
        "e"
      ],
      [
        "ob",
        "ject"
      ],
      [
        "roll",
        "ed"
      ],
      [
        "shatter",
        "ed"
      ],
      [
        "ydro",
        "plan"
      ],
      [
        "Process",
        "ing"
      ],
      [
        "whit",
        "e"
      ],
      [
        "heavi",
        "ly"
      ],
      [
        "lemat",
        "ics"
      ],
      [
        "immed",
        "iate"
      ],
      [
        "0",
        "7"
      ],
      [
        "0",
        "8"
      ],
      [
        "1",
        "4"
      ],
      [
        "1",
        "7"
      ],
      [
        "6",
        "0"
      ],
      [
        "A",
        "s"
      ],
      [
        "B",
        "oth"
      ],
      [
        "D",
        "o"
      ],
      [
        "H",
        "o"
      ],
      [
        "S",
        "ing"
      ],
      [
        "a",
        "head"
      ],
      [
        "b",
        "er"
      ],
      [
        "c",
        "enter"
      ],
      [
        "d",
        "elivery"
      ],
      [
        "e",
        "m"
      ],
      [
        "f",
        "ull"
      ],
      [
        "i",
        "o"
      ],
      [
        "i",
        "ble"
      ],
      [
        "k",
        "en"
      ],
      [
        "o",
        "ri"
      ],
      [
        "p",
        "an"
      ],
      [
        "s",
        "us"
      ],
      [
        "t",
        "wo"
      ],
      [
        "u",
        "mp"
      ],
      [
        "v",
        "al"
      ],
      [
        "x",
        "i"
      ],
      [
        "st",
        "ro"
      ],
      [
        "en",
        "s"
      ],
      [
        "at",
        "a"
      ],
      [
        "at",
        "t"
      ],
      [
        "id",
        "ed"
      ],
      [
        "im",
        "parti"
      ],
      [
        "ra",
        "di"
      ],
      [
        "lo",
        "ss"
      ],
      [
        "ad",
        "e"
      ],
      [
        "claim",
        "s"
      ],
      [
        "In",
        "spection"
      ],
      [
        "ta",
        "pped"
      ],
      [
        "fail",
        "ure"
      ],
      [
        "pen",
        "sion"
      ],
      [
        "che",
        "cked"
      ],
      [
        "eu",
        "ver"
      ],
      [
        "fo",
        "und"
      ],
      [
        "man",
        "euver"
      ],
      [
        "enter",
        "ing"
      ],
      [
        "rep",
        "la"
      ],
      [
        "gl",
        "are"
      ],
      [
        "gu",
        "y"
      ],
      [
        "chan",
        "ge"
      ],
      [
        "Damage",
        "s"
      ],
      [
        "wer",
        "e"
      ],
      [
        "Le",
        "on"
      ],
      [
        "Vehicle",
        "s"
      ],
      [
        "Vi",
        "la"
      ],
      [
        "caus",
        "ed"
      ],
      [
        "motor",
        "cycle"
      ],
      [
        "alle",
        "l"
      ],
      [
        "reveal",
        "s"
      ],
      [
        "Sing",
        "le"
      ],
      [
        "sus",
        "pension"
      ],
      [
        "imparti",
        "al"
      ],
      [
        "5",
        "00"
      ],
      [
        "9",
        "0"
      ],
      [
        "A",
        "R"
      ],
      [
        "A",
        "ppro"
      ],
      [
        "S",
        "mar"
      ],
      [
        "S",
        "uddenly"
      ],
      [
        "a",
        "uthori"
      ],
      [
        "c",
        "l"
      ],
      [
        "c",
        "ul"
      ],
      [
        "d",
        "ar"
      ],
      [
        "e",
        "w"
      ],
      [
        "g",
        "ar"
      ],
      [
        "g",
        "ro"
      ],
      [
        "n",
        "a"
      ],
      [
        "n",
        "ight"
      ],
      [
        "p",
        "il"
      ],
      [
        "s",
        "un"
      ],
      [
        "s",
        "ides"
      ],
      [
        "s",
        "lid"
      ],
      [
        "w",
        "all"
      ],
      [
        "w",
        "hen"
      ],
      [
        "y",
        "ed"
      ],
      [
        "z",
        "ero"
      ],
      [
        "in",
        "it"
      ],
      [
        "in",
        "cr"
      ],
      [
        "st",
        "i"
      ],
      [
        "er",
        "ate"
      ],
      [
        "an",
        "to"
      ],
      [
        "hi",
        "ghway"
      ],
      [
        "ro",
        "of"
      ],
      [
        "re",
        "s"
      ],
      [
        "ac",
        "h"
      ],
      [
        "el",
        "er"
      ],
      [
        "dri",
        "ve"
      ],
      [
        "im",
        "bra"
      ],
      [
        "lo",
        "st"
      ],
      [
        "driver",
        "s"
      ],
      [
        "of",
        "fic"
      ],
      [
        "ge",
        "t"
      ],
      [
        "ic",
        "y"
      ],
      [
        "out",
        "side"
      ],
      [
        "me",
        "tal"
      ],
      [
        "ir",
        "cul"
      ],
      [
        "for",
        "ward"
      ],
      [
        "lan",
        "es"
      ],
      [
        "be",
        "cause"
      ],
      [
        "di",
        "ly"
      ],
      [
        "tra",
        "m"
      ],
      [
        "ru",
        "le"
      ],
      [
        "ne",
        "w"
      ],
      [
        "Re",
        "versing"
      ],
      [
        "scra",
        "pe"
      ],
      [
        "turn",
        "ing"
      ],
      [
        "ble",
        "w"
      ],
      [
        "open",
        "ed"
      ],
      [
        "cli",
        "pped"
      ],
      [
        "bro",
        "ke"
      ],
      [
        "later",
        "al"
      ],
      [
        "Co",
        "imbra"
      ],
      [
        "wal",
        "k"
      ],
      [
        "slow",
        "ly"
      ],
      [
        "viol",
        "ent"
      ],
      [
        "Class",
        "ic"
      ],
      [
        "attemp",
        "ting"
      ],
      [
        "proper",
        "ty"
      ],
      [
        "approac",
        "hing"
      ],
      [
        "steer",
        "ing"
      ],
      [
        "Mod",
        "el"
      ],
      [
        "acc",
        "eler"
      ],
      [
        "Smar",
        "t"
      ],
      [
        "gar",
        "age"
      ],
      [
        "pil",
        "lar"
      ],
      [
        "incr",
        "ed"
      ],
      [
        "offic",
        "er"
      ],
      [
        "1",
        "2"
      ],
      [
        "8",
        "0"
      ],
      [
        "B",
        "ra"
      ],
      [
        "F",
        "aro"
      ],
      [
        "F",
        "AR"
      ],
      [
        "P",
        "h"
      ],
      [
        "S",
        "int"
      ],
      [
        "T",
        "ru"
      ],
      [
        "X",
        "C"
      ],
      [
        "a",
        "way"
      ],
      [
        "c",
        "ircul"
      ],
      [
        "f",
        "le"
      ],
      [
        "n",
        "ing"
      ],
      [
        "p",
        "i"
      ],
      [
        "p",
        "t"
      ],
      [
        "t",
        "in"
      ],
      [
        "u",
        "b"
      ],
      [
        "w",
        "ent"
      ],
      [
        "en",
        "se"
      ],
      [
        "at",
        "or"
      ],
      [
        "on",
        "coming"
      ],
      [
        "ent",
        "ion"
      ],
      [
        "ve",
        "sti"
      ],
      [
        "al",
        "ong"
      ],
      [
        "re",
        "ad"
      ],
      [
        "ac",
        "ks"
      ],
      [
        "statement",
        "s"
      ],
      [
        "was",
        "n"
      ],
      [
        "lo",
        "ad"
      ],
      [
        "ut",
        "ual"
      ],
      [
        "par",
        "allel"
      ],
      [
        "li",
        "o"
      ],
      [
        "pp",
        "os"
      ],
      [
        "do",
        "g"
      ],
      [
        "me",
        "ter"
      ],
      [
        "ct",
        "ed"
      ],
      [
        "sto",
        "pping"
      ],
      [
        "tr",
        "acks"
      ],
      [
        "de",
        "stro"
      ],
      [
        "ol",
        "low"
      ],
      [
        "sp",
        "lit"
      ],
      [
        "light",
        "s"
      ],
      [
        "ta",
        "ke"
      ],
      [
        "te",
        "lematics"
      ],
      [
        "per",
        "son"
      ],
      [
        "sho",
        "uld"
      ],
      [
        "we",
        "ver"
      ],
      [
        "vi",
        "ew"
      ],
      [
        "enter",
        "ed"
      ],
      [
        "bo",
        "dily"
      ],
      [
        "mar",
        "ked"
      ],
      [
        "dist",
        "r"
      ],
      [
        "inj",
        "uri"
      ],
      [
        "whe",
        "re"
      ],
      [
        "bro",
        "ken"
      ],
      [
        "ward",
        "s"
      ],
      [
        "pri",
        "ori"
      ],
      [
        "cor",
        "ner"
      ],
      [
        "IC",
        "19"
      ],
      [
        "SI",
        "U"
      ],
      [
        "Ho",
        "wever"
      ],
      [
        "Appro",
        "ved"
      ],
      [
        "dar",
        "k"
      ],
      [
        "Sint",
        "ra"
      ],
      [
        "Tru",
        "ck"
      ],
      [
        "circul",
        "ating"
      ],
      [
        "vesti",
        "gation"
      ],
      [
        "injuri",
        "es"
      ],
      [
        "priori",
        "ty"
      ],
      [
        "1",
        "25"
      ],
      [
        "A",
        "S"
      ],
      [
        "B",
        "R"
      ],
      [
        "C",
        "O"
      ],
      [
        "H",
        "y"
      ],
      [
        "Q",
        "ash"
      ],
      [
        "R",
        "ot"
      ],
      [
        "S",
        "ho"
      ],
      [
        "S",
        "et"
      ],
      [
        "S",
        "top"
      ],
      [
        "T",
        "r"
      ],
      [
        "T",
        "wo"
      ],
      [
        "a",
        "i"
      ],
      [
        "b",
        "ag"
      ],
      [
        "b",
        "low"
      ],
      [
        "c",
        "ial"
      ],
      [
        "f",
        "il"
      ],
      [
        "f",
        "ollow"
      ],
      [
        "h",
        "u"
      ],
      [
        "h",
        "ydroplan"
      ],
      [
        "i",
        "ro"
      ],
      [
        "k",
        "ine"
      ],
      [
        "p",
        "ing"
      ],
      [
        "p",
        "ay"
      ],
      [
        "p",
        "othole"
      ],
      [
        "q",
        "ai"
      ],
      [
        "s",
        "lightly"
      ],
      [
        "z",
        "a"
      ],
      [
        "in",
        "spection"
      ],
      [
        "ed",
        "ge"
      ],
      [
        "at",
        "her"
      ],
      [
        "the",
        "y"
      ],
      [
        "ent",
        "r"
      ],
      [
        "se",
        "at"
      ],
      [
        "la",
        "ck"
      ],
      [
        "and",
        "ard"
      ],
      [
        "it",
        "ing"
      ],
      [
        "lo",
        "g"
      ],
      [
        "il",
        "d"
      ],
      [
        "20",
        "d"
      ],
      [
        "gen",
        "cy"
      ],
      [
        "ho",
        "me"
      ],
      [
        "cr",
        "ushed"
      ],
      [
        "ex",
        "t"
      ],
      [
        "ex",
        "act"
      ],
      [
        "us",
        "hing"
      ],
      [
        "th",
        "re"
      ],
      [
        "ru",
        "in"
      ],
      [
        "unda",
        "i"
      ],
      [
        "ph",
        "one"
      ],
      [
        "sign",
        "s"
      ],
      [
        "sm",
        "all"
      ],
      [
        "rid",
        "er"
      ],
      [
        "fo",
        "g"
      ],
      [
        "fo",
        "ot"
      ],
      [
        "mer",
        "gency"
      ],
      [
        "tri",
        "ed"
      ],
      [
        "pull",
        "ed"
      ],
      [
        "pl",
        "ate"
      ],
      [
        "tail",
        "g"
      ],
      [
        "fel",
        "l"
      ],
      [
        "immediate",
        "ly"
      ],
      [
        "val",
        "ue"
      ],
      [
        "radi",
        "ator"
      ],
      [
        "repla",
        "ce"
      ],
      [
        "anto",
        "m"
      ],
      [
        "violent",
        "ly"
      ],
      [
        "Bra",
        "ga"
      ],
      [
        "fle",
        "w"
      ],
      [
        "Hy",
        "undai"
      ],
      [
        "Qash",
        "qai"
      ],
      [
        "Rot",
        "unda"
      ],
      [
        "Sho",
        "pping"
      ],
      [
        "hu",
        "ge"
      ],
      [
        "0",
        "3"
      ],
      [
        "0",
        "4"
      ],
      [
        "0",
        "5"
      ],
      [
        "0",
        "6"
      ],
      [
        "0",
        "9"
      ],
      [
        "2",
        "2"
      ],
      [
        "7",
        "0"
      ],
      [
        "A",
        "3"
      ],
      [
        "A",
        "V"
      ],
      [
        "A",
        "ve"
      ],
      [
        "C",
        "a"
      ],
      [
        "C",
        "le"
      ],
      [
        "C",
        "as"
      ],
      [
        "E",
        "T"
      ],
      [
        "F",
        "raud"
      ],
      [
        "G",
        "aia"
      ],
      [
        "H",
        "itting"
      ],
      [
        "L",
        "E"
      ],
      [
        "M",
        "ar"
      ],
      [
        "P",
        "ed"
      ],
      [
        "P",
        "ont"
      ],
      [
        "S",
        "p"
      ],
      [
        "S",
        "ET"
      ],
      [
        "a",
        "pp"
      ],
      [
        "a",
        "ir"
      ],
      [
        "d",
        "ed"
      ],
      [
        "d",
        "es"
      ],
      [
        "d",
        "ata"
      ],
      [
        "e",
        "mergency"
      ],
      [
        "f",
        "end"
      ],
      [
        "g",
        "olf"
      ],
      [
        "i",
        "ri"
      ],
      [
        "i",
        "ra"
      ],
      [
        "l",
        "ic"
      ],
      [
        "o",
        "per"
      ],
      [
        "p",
        "ushing"
      ],
      [
        "r",
        "un"
      ],
      [
        "s",
        "ed"
      ],
      [
        "s",
        "wipe"
      ],
      [
        "s",
        "na"
      ],
      [
        "t",
        "we"
      ],
      [
        "ú",
        "bal"
      ],
      [
        "in",
        "st"
      ],
      [
        "st",
        "orm"
      ],
      [
        "en",
        "e"
      ],
      [
        "on",
        "ly"
      ],
      [
        "hi",
        "ll"
      ],
      [
        "le",
        "a"
      ],
      [
        "as",
        "ive"
      ],
      [
        "id",
        "ence"
      ],
      [
        "al",
        "f"
      ],
      [
        "al",
        "read"
      ],
      [
        "ver",
        "ifi"
      ],
      [
        "par",
        "t"
      ],
      [
        "da",
        "ma"
      ],
      [
        "ul",
        "ent"
      ],
      [
        "be",
        "twe"
      ],
      [
        "In",
        "vestigation"
      ],
      [
        "med",
        "ical"
      ],
      [
        "pa",
        "st"
      ],
      [
        "sho",
        "ck"
      ],
      [
        "po",
        "le"
      ],
      [
        "ph",
        "antom"
      ],
      [
        "sign",
        "al"
      ],
      [
        "cross",
        "ed"
      ],
      [
        "wo",
        "uld"
      ],
      [
        "scra",
        "ping"
      ],
      [
        "bar",
        "ely"
      ],
      [
        "man",
        "aged"
      ],
      [
        "adm",
        "it"
      ],
      [
        "scrat",
        "ched"
      ],
      [
        "crac",
        "k"
      ],
      [
        "Le",
        "iri"
      ],
      [
        "sever",
        "ely"
      ],
      [
        "rain",
        "ing"
      ],
      [
        "ib",
        "ly"
      ],
      [
        "ib",
        "ility"
      ],
      [
        "repair",
        "s"
      ],
      [
        "stru",
        "ct"
      ],
      [
        "ensur",
        "ing"
      ],
      [
        "wa",
        "iting"
      ],
      [
        "An",
        "imal"
      ],
      [
        "bri",
        "s"
      ],
      [
        "clo",
        "se"
      ],
      [
        "cl",
        "ub"
      ],
      [
        "incred",
        "ibly"
      ],
      [
        "distr",
        "action"
      ],
      [
        "CO",
        "I"
      ],
      [
        "Set",
        "úbal"
      ],
      [
        "kine",
        "tic"
      ],
      [
        "ruin",
        "ed"
      ],
      [
        "replace",
        "ment"
      ],
      [
        "Cle",
        "ar"
      ],
      [
        "Cas",
        "ca"
      ],
      [
        "Fraud",
        "ulent"
      ],
      [
        "Ped",
        "estrian"
      ],
      [
        "Pont",
        "e"
      ],
      [
        "fend",
        "er"
      ],
      [
        "lic",
        "ense"
      ],
      [
        "alread",
        "y"
      ],
      [
        "betwe",
        "en"
      ],
      [
        "Leiri",
        "a"
      ],
      [
        "A",
        "5"
      ],
      [
        "C",
        "ar"
      ],
      [
        "C",
        "lio"
      ],
      [
        "C",
        "AS"
      ],
      [
        "D",
        "R"
      ],
      [
        "E",
        "DR"
      ],
      [
        "F",
        "o"
      ],
      [
        "M",
        "in"
      ],
      [
        "N",
        "G"
      ],
      [
        "V",
        "ia"
      ],
      [
        "V",
        "NG"
      ],
      [
        "W",
        "hi"
      ],
      [
        "Y",
        "ellow"
      ],
      [
        "b",
        "ent"
      ],
      [
        "b",
        "loc"
      ],
      [
        "b",
        "ble"
      ],
      [
        "c",
        "m"
      ],
      [
        "c",
        "at"
      ],
      [
        "d",
        "as"
      ],
      [
        "d",
        "ust"
      ],
      [
        "d",
        "ir"
      ],
      [
        "d",
        "ash"
      ],
      [
        "e",
        "st"
      ],
      [
        "f",
        "f"
      ],
      [
        "g",
        "as"
      ],
      [
        "g",
        "ane"
      ],
      [
        "j",
        "ump"
      ],
      [
        "n",
        "ext"
      ],
      [
        "o",
        "ugh"
      ],
      [
        "v",
        "a"
      ],
      [
        "w",
        "at"
      ],
      [
        "w",
        "et"
      ],
      [
        "ã",
        "o"
      ],
      [
        "in",
        "a"
      ],
      [
        "st",
        "ay"
      ],
      [
        "en",
        "ough"
      ],
      [
        "ar",
        "m"
      ],
      [
        "ri",
        "m"
      ],
      [
        "ri",
        "pped"
      ],
      [
        "or",
        "ing"
      ],
      [
        "al",
        "so"
      ],
      [
        "re",
        "lat"
      ],
      [
        "un",
        "verifi"
      ],
      [
        "ma",
        "in"
      ],
      [
        "si",
        "ble"
      ],
      [
        "ll",
        "ard"
      ],
      [
        "tr",
        "action"
      ],
      [
        "tr",
        "actor"
      ],
      [
        "de",
        "f"
      ],
      [
        "de",
        "bris"
      ],
      [
        "ex",
        "tre"
      ],
      [
        "In",
        "ter"
      ],
      [
        "sp",
        "un"
      ],
      [
        "ca",
        "m"
      ],
      [
        "ca",
        "ught"
      ],
      [
        "all",
        "ed"
      ],
      [
        "over",
        "taking"
      ],
      [
        "bl",
        "ic"
      ],
      [
        "mis",
        "match"
      ],
      [
        "fo",
        "ur"
      ],
      [
        "head",
        "light"
      ],
      [
        "ste",
        "pped"
      ],
      [
        "bo",
        "llard"
      ],
      [
        "clear",
        "ly"
      ],
      [
        "too",
        "k"
      ],
      [
        "wi",
        "ped"
      ],
      [
        "30",
        "8"
      ],
      [
        "tire",
        "s"
      ],
      [
        "ant",
        "ly"
      ],
      [
        "entire",
        "ly"
      ],
      [
        "ev",
        "idence"
      ],
      [
        "second",
        "s"
      ],
      [
        "lit",
        "er"
      ],
      [
        "gre",
        "en"
      ],
      [
        "vis",
        "ible"
      ],
      [
        "vis",
        "ibility"
      ],
      [
        "ite",
        "ms"
      ],
      [
        "St",
        "andard"
      ],
      [
        "Po",
        "lice"
      ],
      [
        "Ro",
        "undabout"
      ],
      [
        "ous",
        "ly"
      ],
      [
        "No",
        "va"
      ],
      [
        "Cor",
        "sa"
      ],
      [
        "stone",
        "s"
      ],
      [
        "Me",
        "gane"
      ],
      [
        "swer",
        "ved"
      ],
      [
        "pan",
        "el"
      ],
      [
        "drive",
        "way"
      ],
      [
        "Ph",
        "ysical"
      ],
      [
        "tin",
        "y"
      ],
      [
        "should",
        "er"
      ],
      [
        "BR",
        "A"
      ],
      [
        "AV",
        "E"
      ],
      [
        "Ave",
        "iro"
      ],
      [
        "dama",
        "ged"
      ],
      [
        "Casca",
        "is"
      ],
      [
        "Min",
        "i"
      ],
      [
        "Whi",
        "le"
      ],
      [
        "relat",
        "ed"
      ],
      [
        "unverifi",
        "able"
      ],
      [
        "A",
        "4"
      ],
      [
        "A",
        "r"
      ],
      [
        "A",
        "t"
      ],
      [
        "B",
        "o"
      ],
      [
        "B",
        "ut"
      ],
      [
        "E",
        "V"
      ],
      [
        "E",
        "x"
      ],
      [
        "M",
        "a"
      ],
      [
        "M",
        "utual"
      ],
      [
        "R",
        "over"
      ],
      [
        "S",
        "and"
      ],
      [
        "S",
        "ide"
      ],
      [
        "S",
        "cooter"
      ],
      [
        "T",
        "his"
      ],
      [
        "V",
        "er"
      ],
      [
        "Y",
        "ar"
      ],
      [
        "b",
        "r"
      ],
      [
        "d",
        "uring"
      ],
      [
        "e",
        "ar"
      ],
      [
        "f",
        "lo"
      ],
      [
        "f",
        "fer"
      ],
      [
        "i",
        "f"
      ],
      [
        "i",
        "fic"
      ],
      [
        "i",
        "zed"
      ],
      [
        "l",
        "ing"
      ],
      [
        "o",
        "ur"
      ],
      [
        "o",
        "ppos"
      ],
      [
        "s",
        "y"
      ],
      [
        "u",
        "m"
      ],
      [
        "u",
        "ff"
      ],
      [
        "v",
        "ate"
      ],
      [
        "w",
        "ing"
      ],
      [
        "w",
        "hole"
      ],
      [
        "w",
        "ild"
      ],
      [
        "y",
        "be"
      ],
      [
        "z",
        "ard"
      ],
      [
        "ç",
        "a"
      ],
      [
        "in",
        "al"
      ],
      [
        "in",
        "ner"
      ],
      [
        "he",
        "ard"
      ],
      [
        "st",
        "s"
      ],
      [
        "ar",
        "p"
      ],
      [
        "or",
        "a"
      ],
      [
        "to",
        "tal"
      ],
      [
        "to",
        "uri"
      ],
      [
        "re",
        "al"
      ],
      [
        "re",
        "act"
      ],
      [
        "was",
        "h"
      ],
      [
        "lo",
        "y"
      ],
      [
        "co",
        "bble"
      ],
      [
        "The",
        "n"
      ],
      [
        "un",
        "g"
      ],
      [
        "un",
        "marked"
      ],
      [
        "il",
        "er"
      ],
      [
        "ma",
        "ybe"
      ],
      [
        "do",
        "ing"
      ],
      [
        "me",
        "chan"
      ],
      [
        "be",
        "ing"
      ],
      [
        "de",
        "p"
      ],
      [
        "de",
        "ad"
      ],
      [
        "ol",
        "la"
      ],
      [
        "ch",
        "ain"
      ],
      [
        "with",
        "in"
      ],
      [
        "th",
        "ing"
      ],
      [
        "ca",
        "mer"
      ],
      [
        "ke",
        "ep"
      ],
      [
        "sa",
        "me"
      ],
      [
        "tra",
        "iler"
      ],
      [
        "ass",
        "u"
      ],
      [
        "ta",
        "in"
      ],
      [
        "ta",
        "xi"
      ],
      [
        "sc",
        "re"
      ],
      [
        "sc",
        "ene"
      ],
      [
        "ha",
        "ir"
      ],
      [
        "ha",
        "zard"
      ],
      [
        "stri",
        "ctly"
      ],
      [
        "cross",
        "walk"
      ],
      [
        "fir",
        "st"
      ],
      [
        "mer",
        "ged"
      ],
      [
        "mer",
        "ging"
      ],
      [
        "mo",
        "ve"
      ],
      [
        "sh",
        "arp"
      ],
      [
        "Se",
        "ver"
      ],
      [
        "pri",
        "vate"
      ],
      [
        "ga",
        "p"
      ],
      [
        "wal",
        "king"
      ],
      [
        "physical",
        "ly"
      ],
      [
        "viol",
        "ation"
      ],
      [
        "pull",
        "ing"
      ],
      [
        "ze",
        "bra"
      ],
      [
        "ensur",
        "e"
      ],
      [
        "abs",
        "ol"
      ],
      [
        "Cor",
        "olla"
      ],
      [
        "Do",
        "oring"
      ],
      [
        "authori",
        "zed"
      ],
      [
        "init",
        "i"
      ],
      [
        "icy",
        "cle"
      ],
      [
        "destro",
        "yed"
      ],
      [
        "follow",
        "ing"
      ],
      [
        "log",
        "ical"
      ],
      [
        "inst",
        "antly"
      ],
      [
        "struct",
        "ural"
      ],
      [
        "wat",
        "er"
      ],
      [
        "extre",
        "me"
      ],
      [
        "liter",
        "ally"
      ],
      [
        "EV",
        "O"
      ],
      [
        "Sand",
        "ero"
      ],
      [
        "Ver",
        "de"
      ],
      [
        "Yar",
        "is"
      ],
      [
        "oppos",
        "ite"
      ],
      [
        "touri",
        "st"
      ],
      [
        "cobble",
        "stones"
      ],
      [
        "0",
        "2"
      ],
      [
        "A",
        "25"
      ],
      [
        "C",
        "3"
      ],
      [
        "C",
        "i"
      ],
      [
        "D",
        "en"
      ],
      [
        "I",
        "bi"
      ],
      [
        "M",
        "ac"
      ],
      [
        "M",
        "otor"
      ],
      [
        "N",
        "T"
      ],
      [
        "P",
        "ra"
      ],
      [
        "R",
        "un"
      ],
      [
        "S",
        "un"
      ],
      [
        "S",
        "NT"
      ],
      [
        "T",
        "a"
      ],
      [
        "T",
        "i"
      ],
      [
        "V",
        "I"
      ],
      [
        "V",
        "an"
      ],
      [
        "W",
        "it"
      ],
      [
        "b",
        "or"
      ],
      [
        "b",
        "ur"
      ],
      [
        "c",
        "us"
      ],
      [
        "e",
        "ach"
      ],
      [
        "h",
        "s"
      ],
      [
        "m",
        "ont"
      ],
      [
        "n",
        "el"
      ],
      [
        "o",
        "logical"
      ],
      [
        "p",
        "top"
      ],
      [
        "s",
        "k"
      ],
      [
        "s",
        "im"
      ],
      [
        "s",
        "me"
      ],
      [
        "s",
        "udden"
      ],
      [
        "s",
        "que"
      ],
      [
        "t",
        "en"
      ],
      [
        "t",
        "on"
      ],
      [
        "t",
        "ag"
      ],
      [
        "v",
        "ic"
      ],
      [
        "v",
        "ir"
      ],
      [
        "v",
        "ora"
      ],
      [
        "w",
        "or"
      ],
      [
        "w",
        "ho"
      ],
      [
        "w",
        "ill"
      ],
      [
        "É",
        "vora"
      ],
      [
        "in",
        "c"
      ],
      [
        "in",
        "ho"
      ],
      [
        "the",
        "n"
      ],
      [
        "an",
        "g"
      ],
      [
        "an",
        "ge"
      ],
      [
        "le",
        "g"
      ],
      [
        "le",
        "up"
      ],
      [
        "ri",
        "ver"
      ],
      [
        "id",
        "er"
      ],
      [
        "se",
        "l"
      ],
      [
        "se",
        "cur"
      ],
      [
        "to",
        "ll"
      ],
      [
        "to",
        "wards"
      ],
      [
        "la",
        "ptop"
      ],
      [
        "dri",
        "ft"
      ],
      [
        "ion",
        "al"
      ],
      [
        "ra",
        "il"
      ],
      [
        "lo",
        "t"
      ],
      [
        "co",
        "sme"
      ],
      [
        "par",
        "k"
      ],
      [
        "li",
        "fe"
      ],
      [
        "20",
        "8"
      ],
      [
        "do",
        "s"
      ],
      [
        "spe",
        "c"
      ],
      [
        "gen",
        "erate"
      ],
      [
        "con",
        "ne"
      ],
      [
        "ol",
        "t"
      ],
      [
        "rear",
        "view"
      ],
      [
        "int",
        "ention"
      ],
      [
        "end",
        "ing"
      ],
      [
        "th",
        "an"
      ],
      [
        "ult",
        "ing"
      ],
      [
        "sc",
        "uff"
      ],
      [
        "road",
        "way"
      ],
      [
        "pa",
        "per"
      ],
      [
        "sho",
        "pping"
      ],
      [
        "ne",
        "ar"
      ],
      [
        "we",
        "ar"
      ],
      [
        "we",
        "ather"
      ],
      [
        "pro",
        "v"
      ],
      [
        "pro",
        "cess"
      ],
      [
        "stri",
        "ke"
      ],
      [
        "yield",
        "ing"
      ],
      [
        "mis",
        "sed"
      ],
      [
        "ash",
        "ing"
      ],
      [
        "Fi",
        "est"
      ],
      [
        "open",
        "ing"
      ],
      [
        "ste",
        "ep"
      ],
      [
        "confir",
        "m"
      ],
      [
        "confir",
        "med"
      ],
      [
        "bo",
        "ard"
      ],
      [
        "cover",
        "ed"
      ],
      [
        "cur",
        "b"
      ],
      [
        "gl",
        "ass"
      ],
      [
        "ill",
        "ed"
      ],
      [
        "ev",
        "asive"
      ],
      [
        "tre",
        "e"
      ],
      [
        "report",
        "ed"
      ],
      [
        "wheel",
        "s"
      ],
      [
        "bal",
        "ance"
      ],
      [
        "caus",
        "ing"
      ],
      [
        "Po",
        "lo"
      ],
      [
        "bed",
        "ded"
      ],
      [
        "fl",
        "ung"
      ],
      [
        "swer",
        "ve"
      ],
      [
        "em",
        "bedded"
      ],
      [
        "gro",
        "und"
      ],
      [
        "sides",
        "wiped"
      ],
      [
        "res",
        "ulting"
      ],
      [
        "rule",
        "s"
      ],
      [
        "acceler",
        "ation"
      ],
      [
        "pi",
        "leup"
      ],
      [
        "meter",
        "s"
      ],
      [
        "person",
        "al"
      ],
      [
        "foot",
        "age"
      ],
      [
        "tailg",
        "ate"
      ],
      [
        "LE",
        "I"
      ],
      [
        "app",
        "li"
      ],
      [
        "part",
        "ment"
      ],
      [
        "signal",
        "ed"
      ],
      [
        "Fo",
        "cus"
      ],
      [
        "cat",
        "o"
      ],
      [
        "dir",
        "t"
      ],
      [
        "Inter",
        "section"
      ],
      [
        "flo",
        "or"
      ],
      [
        "mechan",
        "ical"
      ],
      [
        "camer",
        "a"
      ],
      [
        "initi",
        "ated"
      ],
      [
        "Ci",
        "vic"
      ],
      [
        "Den",
        "ied"
      ],
      [
        "Ibi",
        "za"
      ],
      [
        "Pra",
        "ça"
      ],
      [
        "Ta",
        "xi"
      ],
      [
        "Wit",
        "ness"
      ],
      [
        "mont",
        "hs"
      ],
      [
        "sque",
        "e"
      ],
      [
        "cosme",
        "tic"
      ],
      [
        "Fiest",
        "a"
      ],
      [
        "1",
        "20"
      ],
      [
        "3",
        "20d"
      ],
      [
        "B",
        "icycle"
      ],
      [
        "C",
        "on"
      ],
      [
        "C",
        "ity"
      ],
      [
        "D",
        "e"
      ],
      [
        "D",
        "u"
      ],
      [
        "F",
        "ront"
      ],
      [
        "G",
        "u"
      ],
      [
        "G",
        "en"
      ],
      [
        "M",
        "irr"
      ],
      [
        "M",
        "aia"
      ],
      [
        "N",
        "10"
      ],
      [
        "N",
        "125"
      ],
      [
        "O",
        "ur"
      ],
      [
        "P",
        "othole"
      ],
      [
        "T",
        "ot"
      ],
      [
        "a",
        "ma"
      ],
      [
        "b",
        "one"
      ],
      [
        "b",
        "ru"
      ],
      [
        "c",
        "il"
      ],
      [
        "c",
        "ity"
      ],
      [
        "d",
        "ade"
      ],
      [
        "f",
        "re"
      ],
      [
        "f",
        "ra"
      ],
      [
        "f",
        "actor"
      ],
      [
        "f",
        "illed"
      ],
      [
        "g",
        "y"
      ],
      [
        "h",
        "alf"
      ],
      [
        "i",
        "20"
      ],
      [
        "j",
        "or"
      ],
      [
        "k",
        "er"
      ],
      [
        "k",
        "ely"
      ],
      [
        "k",
        "ne"
      ],
      [
        "k",
        "no"
      ],
      [
        "l",
        "d"
      ],
      [
        "l",
        "ate"
      ],
      [
        "l",
        "and"
      ],
      [
        "m",
        "or"
      ],
      [
        "m",
        "od"
      ],
      [
        "m",
        "ade"
      ],
      [
        "n",
        "avi"
      ],
      [
        "o",
        "m"
      ],
      [
        "o",
        "u"
      ],
      [
        "p",
        "ur"
      ],
      [
        "p",
        "ol"
      ],
      [
        "r",
        "ent"
      ],
      [
        "r",
        "ust"
      ],
      [
        "s",
        "al"
      ],
      [
        "s",
        "ol"
      ],
      [
        "s",
        "sive"
      ],
      [
        "s",
        "itting"
      ],
      [
        "s",
        "ens"
      ],
      [
        "s",
        "sible"
      ],
      [
        "t",
        "s"
      ],
      [
        "t",
        "un"
      ],
      [
        "t",
        "ally"
      ],
      [
        "u",
        "ched"
      ],
      [
        "v",
        "age"
      ],
      [
        "v",
        "alid"
      ],
      [
        "w",
        "in"
      ],
      [
        "w",
        "ri"
      ],
      [
        "ã",
        "es"
      ],
      [
        "é",
        "m"
      ],
      [
        "in",
        "ch"
      ],
      [
        "st",
        "ill"
      ],
      [
        "en",
        "er"
      ],
      [
        "an",
        "y"
      ],
      [
        "an",
        "ger"
      ],
      [
        "le",
        "bar"
      ],
      [
        "ri",
        "al"
      ],
      [
        "as",
        "ph"
      ],
      [
        "al",
        "t"
      ],
      [
        "se",
        "t"
      ],
      [
        "se",
        "u"
      ],
      [
        "to",
        "tally"
      ],
      [
        "to",
        "uched"
      ],
      [
        "re",
        "ver"
      ],
      [
        "re",
        "qu"
      ],
      [
        "ate",
        "s"
      ],
      [
        "ut",
        "ely"
      ],
      [
        "ic",
        "k"
      ],
      [
        "ation",
        "al"
      ],
      [
        "mp",
        "er"
      ],
      [
        "ot",
        "ional"
      ],
      [
        "un",
        "related"
      ],
      [
        "un",
        "tain"
      ],
      [
        "il",
        "ar"
      ],
      [
        "il",
        "legally"
      ],
      [
        "li",
        "kely"
      ],
      [
        "car",
        "t"
      ],
      [
        "do",
        "w"
      ],
      [
        "ir",
        "al"
      ],
      [
        "lan",
        "gu"
      ],
      [
        "ct",
        "ing"
      ],
      [
        "con",
        "tri"
      ],
      [
        "be",
        "ep"
      ],
      [
        "cr",
        "un"
      ],
      [
        "de",
        "c"
      ],
      [
        "de",
        "m"
      ],
      [
        "act",
        "ors"
      ],
      [
        "us",
        "ing"
      ],
      [
        "comp",
        "ens"
      ],
      [
        "ard",
        "rail"
      ],
      [
        "ag",
        "o"
      ],
      [
        "ag",
        "gre"
      ],
      [
        "coll",
        "ided"
      ],
      [
        "bumper",
        "s"
      ],
      [
        "ta",
        "p"
      ],
      [
        "sc",
        "he"
      ],
      [
        "per",
        "for"
      ],
      [
        "are",
        "a"
      ],
      [
        "ha",
        "il"
      ],
      [
        "loo",
        "d"
      ],
      [
        "ne",
        "i"
      ],
      [
        "ne",
        "ck"
      ],
      [
        "po",
        "or"
      ],
      [
        "po",
        "ssible"
      ],
      [
        "ph",
        "ys"
      ],
      [
        "not",
        "e"
      ],
      [
        "back",
        "wards"
      ],
      [
        "so",
        "me"
      ],
      [
        "wo",
        "man"
      ],
      [
        "whi",
        "pl"
      ],
      [
        "no",
        "w"
      ],
      [
        "no",
        "where"
      ],
      [
        "Li",
        "ber"
      ],
      [
        "mer",
        "ge"
      ],
      [
        "dro",
        "pped"
      ],
      [
        "mo",
        "ved"
      ],
      [
        "mo",
        "untain"
      ],
      [
        "under",
        "ground"
      ],
      [
        "ste",
        "m"
      ],
      [
        "bo",
        "ar"
      ],
      [
        "blind",
        "ing"
      ],
      [
        "scrat",
        "ches"
      ],
      [
        "Por",
        "sche"
      ],
      [
        "pre",
        "vi"
      ],
      [
        "gl",
        "ed"
      ],
      [
        "gu",
        "ardrail"
      ],
      [
        "star",
        "t"
      ],
      [
        "dire",
        "ction"
      ],
      [
        "su",
        "b"
      ],
      [
        "su",
        "ffer"
      ],
      [
        "idd",
        "ed"
      ],
      [
        "Co",
        "oper"
      ],
      [
        "parti",
        "es"
      ],
      [
        "Vi",
        "seu"
      ],
      [
        "wa",
        "ve"
      ],
      [
        "hand",
        "lebar"
      ],
      [
        "profile",
        "s"
      ],
      [
        "em",
        "otional"
      ],
      [
        "att",
        "ention"
      ],
      [
        "acceler",
        "ated"
      ],
      [
        "XC",
        "40"
      ],
      [
        "load",
        "ed"
      ],
      [
        "Tr",
        "actor"
      ],
      [
        "blow",
        "n"
      ],
      [
        "fil",
        "ed"
      ],
      [
        "fil",
        "ter"
      ],
      [
        "hydroplan",
        "ed"
      ],
      [
        "hydroplan",
        "ing"
      ],
      [
        "pay",
        "out"
      ],
      [
        "entr",
        "al"
      ],
      [
        "thre",
        "e"
      ],
      [
        "thre",
        "w"
      ],
      [
        "Sp",
        "ort"
      ],
      [
        "air",
        "bag"
      ],
      [
        "sna",
        "pped"
      ],
      [
        "shock",
        "wave"
      ],
      [
        "club",
        "s"
      ],
      [
        "jump",
        "ed"
      ],
      [
        "def",
        "init"
      ],
      [
        "Ex",
        "ten"
      ],
      [
        "ific",
        "ant"
      ],
      [
        "sy",
        "stem"
      ],
      [
        "assu",
        "med"
      ],
      [
        "Sever",
        "e"
      ],
      [
        "absol",
        "utely"
      ],
      [
        "sk",
        "idded"
      ],
      [
        "sim",
        "ilar"
      ],
      [
        "inc",
        "line"
      ],
      [
        "secur",
        "ed"
      ],
      [
        "drift",
        "ed"
      ],
      [
        "spec",
        "ified"
      ],
      [
        "conne",
        "cted"
      ],
      [
        "prov",
        "ided"
      ],
      [
        "squee",
        "ze"
      ],
      [
        "Du",
        "cato"
      ],
      [
        "Gen",
        "uine"
      ],
      [
        "Mirr",
        "or"
      ],
      [
        "navi",
        "g"
      ],
      [
        "pol",
        "icy"
      ],
      [
        "sal",
        "vage"
      ],
      [
        "sol",
        "id"
      ],
      [
        "tun",
        "nel"
      ],
      [
        "win",
        "dow"
      ],
      [
        "asph",
        "alt"
      ],
      [
        "langu",
        "age"
      ],
      [
        "contri",
        "but"
      ],
      [
        "compens",
        "ation"
      ],
      [
        "aggre",
        "ssive"
      ],
      [
        "phys",
        "ics"
      ],
      [
        "whipl",
        "ash"
      ],
      [
        "Liber",
        "dade"
      ],
      [
        "Exten",
        "sive"
      ],
      [
        "1",
        "1"
      ],
      [
        "1",
        "10"
      ],
      [
        "1",
        "16"
      ],
      [
        "3",
        "00"
      ],
      [
        "A",
        "stra"
      ],
      [
        "B",
        "l"
      ],
      [
        "B",
        "ar"
      ],
      [
        "B",
        "io"
      ],
      [
        "C",
        "y"
      ],
      [
        "C",
        "ont"
      ],
      [
        "C",
        "ha"
      ],
      [
        "D",
        "ust"
      ],
      [
        "D",
        "ash"
      ],
      [
        "D",
        "uring"
      ],
      [
        "E",
        "n"
      ],
      [
        "E",
        "v"
      ],
      [
        "E",
        "ven"
      ],
      [
        "F",
        "ull"
      ],
      [
        "H",
        "is"
      ],
      [
        "H",
        "ydroplan"
      ],
      [
        "I",
        "ve"
      ],
      [
        "M",
        "ed"
      ],
      [
        "M",
        "at"
      ],
      [
        "M",
        "ic"
      ],
      [
        "N",
        "22"
      ],
      [
        "P",
        "a"
      ],
      [
        "P",
        "and"
      ],
      [
        "P",
        "ass"
      ],
      [
        "R",
        "ange"
      ],
      [
        "S",
        "er"
      ],
      [
        "S",
        "an"
      ],
      [
        "S",
        "ign"
      ],
      [
        "S",
        "ides"
      ],
      [
        "T",
        "h"
      ],
      [
        "T",
        "ire"
      ],
      [
        "U",
        "n"
      ],
      [
        "V",
        "IS"
      ],
      [
        "W",
        "ind"
      ],
      [
        "a",
        "is"
      ],
      [
        "a",
        "po"
      ],
      [
        "a",
        "partment"
      ],
      [
        "b",
        "ul"
      ],
      [
        "b",
        "ida"
      ],
      [
        "b",
        "bed"
      ],
      [
        "b",
        "lack"
      ],
      [
        "c",
        "ri"
      ],
      [
        "c",
        "al"
      ],
      [
        "c",
        "ust"
      ],
      [
        "c",
        "king"
      ],
      [
        "c",
        "entral"
      ],
      [
        "d",
        "u"
      ],
      [
        "d",
        "le"
      ],
      [
        "d",
        "anger"
      ],
      [
        "e",
        "i"
      ],
      [
        "e",
        "y"
      ],
      [
        "e",
        "le"
      ],
      [
        "f",
        "in"
      ],
      [
        "f",
        "ar"
      ],
      [
        "f",
        "ind"
      ],
      [
        "i",
        "p"
      ],
      [
        "i",
        "ce"
      ],
      [
        "i",
        "ly"
      ],
      [
        "j",
        "o"
      ],
      [
        "l",
        "im"
      ],
      [
        "l",
        "ong"
      ],
      [
        "m",
        "in"
      ],
      [
        "m",
        "utual"
      ],
      [
        "n",
        "on"
      ],
      [
        "n",
        "orm"
      ],
      [
        "o",
        "p"
      ],
      [
        "o",
        "il"
      ],
      [
        "p",
        "u"
      ],
      [
        "p",
        "ú"
      ],
      [
        "p",
        "ud"
      ],
      [
        "p",
        "low"
      ],
      [
        "p",
        "tur"
      ],
      [
        "q",
        "ua"
      ],
      [
        "r",
        "ash"
      ],
      [
        "s",
        "he"
      ],
      [
        "s",
        "li"
      ],
      [
        "t",
        "ended"
      ],
      [
        "u",
        "x"
      ],
      [
        "u",
        "ally"
      ],
      [
        "u",
        "bro"
      ],
      [
        "w",
        "ar"
      ],
      [
        "y",
        "ear"
      ],
      [
        "z",
        "one"
      ],
      [
        "st",
        "alled"
      ],
      [
        "er",
        "e"
      ],
      [
        "on",
        "ment"
      ],
      [
        "an",
        "gled"
      ],
      [
        "ar",
        "ter"
      ],
      [
        "ar",
        "ães"
      ],
      [
        "le",
        "ss"
      ],
      [
        "ent",
        "e"
      ],
      [
        "ri",
        "age"
      ],
      [
        "ing",
        "s"
      ],
      [
        "or",
        "ed"
      ],
      [
        "as",
        "on"
      ],
      [
        "as",
        "se"
      ],
      [
        "al",
        "loy"
      ],
      [
        "se",
        "ment"
      ],
      [
        "ur",
        "a"
      ],
      [
        "ur",
        "ed"
      ],
      [
        "ro",
        "s"
      ],
      [
        "re",
        "im"
      ],
      [
        "ac",
        "k"
      ],
      [
        "it",
        "ed"
      ],
      [
        "im",
        "arães"
      ],
      [
        "ra",
        "p"
      ],
      [
        "lo",
        "yed"
      ],
      [
        "gh",
        "bor"
      ],
      [
        "is",
        "ing"
      ],
      [
        "ut",
        "es"
      ],
      [
        "co",
        "m"
      ],
      [
        "co",
        "sts"
      ],
      [
        "ly",
        "ing"
      ],
      [
        "un",
        "ction"
      ],
      [
        "un",
        "secured"
      ],
      [
        "pp",
        "en"
      ],
      [
        "car",
        "go"
      ],
      [
        "car",
        "riage"
      ],
      [
        "do",
        "es"
      ],
      [
        "ir",
        "as"
      ],
      [
        "for",
        "ced"
      ],
      [
        "accident",
        "ally"
      ],
      [
        "ct",
        "ric"
      ],
      [
        "ab",
        "ru"
      ],
      [
        "ab",
        "ric"
      ],
      [
        "side",
        "walk"
      ],
      [
        "ay",
        "ing"
      ],
      [
        "be",
        "en"
      ],
      [
        "de",
        "b"
      ],
      [
        "act",
        "ive"
      ],
      [
        "ex",
        "ha"
      ],
      [
        "ex",
        "pen"
      ],
      [
        "door",
        "ing"
      ],
      [
        "bra",
        "king"
      ],
      [
        "sp",
        "in"
      ],
      [
        "sp",
        "ill"
      ],
      [
        "ke",
        "pt"
      ],
      [
        "sa",
        "ve"
      ],
      [
        "ult",
        "i"
      ],
      [
        "te",
        "ar"
      ],
      [
        "pa",
        "in"
      ],
      [
        "ha",
        "ppen"
      ],
      [
        "po",
        "int"
      ],
      [
        "Re",
        "pú"
      ],
      [
        "we",
        "st"
      ],
      [
        "bl",
        "in"
      ],
      [
        "fi",
        "x"
      ],
      [
        "not",
        "ified"
      ],
      [
        "back",
        "ward"
      ],
      [
        "wo",
        "op"
      ],
      [
        "mis",
        "align"
      ],
      [
        "indicat",
        "ing"
      ],
      [
        "cli",
        "p"
      ],
      [
        "dro",
        "p"
      ],
      [
        "man",
        "ual"
      ],
      [
        "fer",
        "red"
      ],
      [
        "For",
        "Two"
      ],
      [
        "Par",
        "que"
      ],
      [
        "gu",
        "an"
      ],
      [
        "su",
        "per"
      ],
      [
        "su",
        "ppos"
      ],
      [
        "Dri",
        "ve"
      ],
      [
        "Dri",
        "ving"
      ],
      [
        "stra",
        "y"
      ],
      [
        "os",
        "inho"
      ],
      [
        "qu",
        "at"
      ],
      [
        "qu",
        "ick"
      ],
      [
        "qu",
        "arter"
      ],
      [
        "wal",
        "ked"
      ],
      [
        "accep",
        "ts"
      ],
      [
        "cor",
        "ro"
      ],
      [
        "cut",
        "ting"
      ],
      [
        "ist",
        "a"
      ],
      [
        "lle",
        "y"
      ],
      [
        "passenger",
        "s"
      ],
      [
        "injur",
        "ed"
      ],
      [
        "Tra",
        "m"
      ],
      [
        "tro",
        "lley"
      ],
      [
        "parti",
        "ally"
      ],
      [
        "ev",
        "ent"
      ],
      [
        "report",
        "s"
      ],
      [
        "high",
        "ly"
      ],
      [
        "gre",
        "y"
      ],
      [
        "motor",
        "home"
      ],
      [
        "stru",
        "ck"
      ],
      [
        "Al",
        "fa"
      ],
      [
        "can",
        "not"
      ],
      [
        "dent",
        "ed"
      ],
      [
        "dent",
        "ing"
      ],
      [
        "attemp",
        "ted"
      ],
      [
        "IC",
        "2"
      ],
      [
        "fl",
        "ashing"
      ],
      [
        "A2",
        "8"
      ],
      [
        "fall",
        "s"
      ],
      [
        "att",
        "ach"
      ],
      [
        "res",
        "ident"
      ],
      [
        "pillar",
        "s"
      ],
      [
        "pt",
        "ly"
      ],
      [
        "destro",
        "ying"
      ],
      [
        "blow",
        "out"
      ],
      [
        "exact",
        "ly"
      ],
      [
        "tailg",
        "ating"
      ],
      [
        "des",
        "ign"
      ],
      [
        "des",
        "cri"
      ],
      [
        "sna",
        "p"
      ],
      [
        "close",
        "ly"
      ],
      [
        "bloc",
        "king"
      ],
      [
        "dash",
        "cam"
      ],
      [
        "dash",
[...]
